16c2
1603
0724
0ee6
1768
07a9
18cc
18ed
08af
0651
1117
1138
08c5
07c6
0807
1589
16aa
0b2d
08ee
18ef
1570
1717
1000
0662
19a4
1005
0aa7
1629
100a
0c0c
100f
0996
07e0
0624
07e5
0986
0949
07ea
090d
15af
1570
1992
08d3
1474
10d5
1664
1889
17ea
186d
0cb0
1812
0774
09b5
1458
1740
1441
0de3
0a24
08c5
0826
1427
1388
100a
0d6c
16ed
100e
0c30
0dd1
0ab2
0db4
0735
09f6
0697
11c2
1003
09c8
0b89
198e
198f
19d0
1431
1592
17f3
0c77
1800
1001
0603
0944
186b
1812
1836
0000
