c30
7f1
bb3
571
982
c73
c60
d01
a43
962
3d3
c12
6e0
d41
413
800
312
3b3
c30
b22
340
a62
912
7c1
d32
3b1
3a1
000
650
a61
c52
b83
2c0
d41
3d2
440
770
4e2
b13
ce1
2d0
480
cb3
642
d43
692
3f3
c91
2f3
360
2c2
cb3
970
a91
800
910
453
01f
000
ce0
4d1
3e2
8e3
4c0
481
3b0
af3
3c0
be1
c83
a10
7c2
983
461
602
390
d41
970
ba1
a82
01f
ca1
823
cd0
a73
d31
aa3
d03
481
bd0
561
d03
310
7f1
ba3
000
312
b10
871
4e3
b80
4a2
473
3b1
d43
873
01f
7f1
7d3
312
a53
310
362
4a0
481
6b2
573
a50
5e1
b50
3b2
900
311
343
bb0
2e1
4d2
000
800
300
551
a82
2d3
b42
2d0
01f
01f
c82
d10
801
9d2
2f1
3e2
01f
932
c01
391
c72
b73
392
ac3
01f
6d2
000
520
bd2
cf0
ce2
c43
2c3
570
b32
563
3e0
372
6e3
b70
2c1
3d3
7f2
7f0
cd1
3b2
9b0
d11
3f3
8f0
7f0
2c1
2f2
5a3
4b0
b31
cb3
390
d40
2c0
c33
821
a72
ca3
000
2c2
cd1
a32
d30
8d2
c92
c03
570
461
8a2
c03
410
ca2
b01
4e3
cc1
a91
3b0
393
522
513
01f
c12
4f0
852
b90
a33
000
01f
361
552
c33
d13
320
2f3
ca0
332
863
482
af3
4f2
ca3
01f
01f
c02
cd3
c82
bf1
b92
2e0
ac3
a63
01f
000
5f2
3b3
a70
543
01f
01f
c61
cf2
b52
cc2
ad0
cb3
01f
3d0
403
b40
2d2
613
561
ae2
01f
9f0
3d2
323
890
d41
6c2
4e3
000
7f0
801
392
620
7f2
540
602
480
5d2
cf3
400
2e1
803
5a2
a63
5b0
582
300
ce1
cd0
b61
4d1
c00
ca3
d00
af1
a90
bb1
be0
ce1
b40
c42
000
ba0
4c3
880
3f3
4a1
bc2
c30
381
3a3
a00
ce1
9e1
01f
460
7f1
01f
9f0
801
a22
cb3
391
5f1
c12
671
5b2
b72
970
01f
000
ba0
b41
cd2
4d3
bc2
ad0
311
d10
4f2
3f3
d11
473
cb0
c00
391
a52
9a3
852
c53
01f
912
d13
ce0
341
c93
5f0
371
620
802
a23
000
2d0
533
cf2
7f3
c71
2f3
4f1
423
610
2d0
c72
be0
483
a30
591
7f2
3f3
01f
2f0
801
ac2
01f
a31
723
2c2
cf3
2c0
a42
cf1
000
be0
c62
800
9b2
803
800
483
800
572
803
803
800
803
800
c81
803
7f0
332
800
461
b72
803
800
803
800
c21
3e2
7f3
800
991
c92
803
800
441
803
800
803
800
3d1
b93
01f
000
530
cd1
b22
353
cf1
942
953
8f2
350
371
3d2
4f0
952
373
3e1
b93
4e0
541
a52
a83
491
ae2
413
a62
812
01f
a82
ad1
be2
01f
4d0
b31
2f2
d23
000
c90
ca2
d10
b61
b32
ac3
bc0
951
cb0
c61
c61
4c2
a23
01f
aa1
d40
522
3d0
341
632
a13
370
2d3
ab0
bd1
2d2
ce3
c10
6d2
a83
a10
c03
800
c20
361
000
7c3
c71
b72
d40
a51
2c3
aa0
b51
2f2
b41
bc2
d01
ce2
01f
bc0
a61
462
7f3
b51
6a3
bf1
b72
7f3
630
c82
c53
cd0
b71
d02
5d3
391
962
573
331
4c3
000
4f3
362
6a2
b93
2c1
403
a00
d11
3d3
01f
8d1
d02
2e1
b43
a31
380
a11
7f0
c31
313
ca1
3e3
370
500
ce1
a52
7f3
000
be1
342
c21
412
423
5d3
800
c32
2f3
b50
b72
321
cf1
9c1
521
5e3
480
3c3
9e3
971
382
b03
332
340
2e2
d43
510
321
5a2
bc3
000
3e0
c01
2f0
371
3b0
802
d13
c10
932
af1
b72
d13
2e0
503
a81
803
800
c31
c12
803
9f0
981
9c2
4c1
c31
d12
a33
01f
ac1
392
413
312
2e3
bb0
b51
972
393
000
2f0
ce1
332
553
b20
01f
01f
c71
333
cc1
590
bd3
962
402
303
8c1
2c1
303
b92
7f0
8c2
2d0
932
a93
3a1
802
000
430
581
923
760
d43
01f
450
ad2
443
c00
371
972
c80
982
802
ca3
770
481
802
453
c90
be1
802
b13
a12
2e3
361
802
b93
7f0
bd3
01f
803
340
802
803
ad2
000
830
541
3f2
373
b20
313
d00
381
3a0
481
6e2
4a3
9f0
2c1
ce1
7f3
340
8f1
803
c20
c21
c82
802
633
b80
463
bc2
803
b91
393
a40
2d1
d42
a30
c61
7f2
313
000
cb0
312
801
342
413
800
821
c32
303
482
473
d01
4c2
c63
b60
7f1
430
322
c73
af0
2d1
322
b33
ab0
ae2
5d1
cc0
c22
501
8c3
000
912
5a1
3e2
a90
313
950
3f2
333
b20
880
b20
cb3
c41
b32
01f
860
461
c40
6e3
380
ac2
7f3
380
2d1
882
c83
b60
8b2
9a2
b83
000
2e1
ba3
c32
b13
470
c23
2d3
d01
c72
c42
962
cc0
c93
693
6c0
3d2
c40
cf3
800
c23
01f
4e2
333
d30
462
870
561
c63
000
802
3c3
a80
481
3b2
bd0
802
ba3
621
802
433
7f0
2d3
3d1
3c3
720
d02
3a0
a32
3c0
cf2
b13
3e0
aa3
c51
802
803
803
b03
c12
000
c40
b73
800
d11
5c2
353
c11
562
313
4e2
b53
911
931
ba3
01f
7f0
7f2
b81
472
ac3
3e1
c42
d03
8f1
422
3b3
710
322
333
ce3
a81
931
912
a33
000
2f1
b62
323
812
8a3
b02
ac3
380
941
7f3
01f
af0
b21
b92
943
572
902
a81
863
470
991
440
b11
803
9f1
922
bd2
803
c03
d40
b73
000
b30
a92
540
5e2
453
c21
2e1
af2
c61
802
340
b21
c02
9a3
cb0
802
b10
561
340
bf3
b30
801
803
942
3b3
d20
381
b02
7f1
343
cf0
603
4a0
353
01f
000
b00
601
c62
c92
3c0
c51
ca1
c40
561
812
403
942
972
492
c13
313
380
c20
ac1
9c1
372
a73
01f
01f
01f
b53
000
600
bb1
962
cf0
a33
cc0
c10
b51
b72
400
8e1
be2
d13
c10
a61
a92
423
370
602
483
560
ab1
433
3e0
392
a70
453
cf0
cc0
b50
d31
a23
000
800
d21
a42
463
cc0
c12
c22
d13
2f1
4f2
4a3
b40
b01
9a3
980
9e1
592
01f
381
6a0
01f
ac3
661
cb2
cb3
7f0
552
ab3
01f
c81
c52
a33
931
ce2
4a3
000
360
d11
d02
401
d13
01f
01f
ae3
cf3
c61
af3
801
5e2
b23
d22
b63
8f3
ae1
9a3
800
481
533
2c1
331
942
6a3
000
930
d31
872
cd0
302
01f
380
382
b81
d20
b51
01f
490
551
a72
01f
bb1
b82
383
a40
392
8a0
aa2
cd3
9e3
9a0
d12
681
723
000
320
ce3
01f
530
8d2
561
2e2
9b3
c71
4c2
513
d40
592
b10
bf0
ce2
cd3
a40
381
603
cc0
c61
373
800
8b1
bb0
aa1
b21
c01
af2
cb3
cd3
550
af3
000
4d3
01f
01f
2c0
892
930
501
bf3
ab0
01f
5e1
d12
593
ce0
c91
cf0
a72
01f
8f0
d42
2e3
590
d12
aa3
842
9f0
b91
c60
422
000
01f
c82
d43
ca1
9a3
aa1
3e2
b53
01f
3d0
983
af3
893
01f
2e2
a63
9b1
c92
9f3
01f
863
000
320
be0
382
b00
01f
ba1
d02
ce1
c53
a81
803
300
d42
7f0
b13
a50
833
a80
cb1
c80
bf3
d00
d22
3b3
4d0
3c3
a20
492
563
000
5c0
ca0
c41
802
b10
ac1
a52
a90
a21
802
801
380
9f1
01f
530
2e3
ae3
303
602
3a3
460
9b1
473
352
d33
910
01f
c71
bb3
000
8c1
4a2
332
cd1
d40
cf1
522
01f
c02
4a0
d22
c63
01f
01f
3d0
5b1
4b1
4c0
3a1
441
3f2
cf3
000
bf1
b12
a73
01f
a22
d30
cc1
952
420
7f1
ca2
4b0
5b1
913
371
b12
323
b22
c22
833
982
480
353
b11
a02
b53
351
962
8a2
cb0
bf2
333
c50
a81
812
a33
000
7f3
d20
ca3
3e2
993
2f0
2c1
8a3
320
3e1
521
d32
01f
992
01f
382
a10
553
3b0
341
472
b33
01f
2d2
c40
cc1
5e3
000
a80
bd1
a72
803
7f0
803
7f0
803
2e1
332
7f3
be2
803
800
432
c83
7f0
b43
7f0
311
382
803
800
832
803
800
7f3
800
b02
7f3
7f0
482
bd3
800
5f1
bd2
800
b42
803
800
802
803
370
7f3
000
d21
ad2
832
383
2d2
323
3a0
ac2
312
410
450
d41
9f0
c11
332
ce0
451
302
cc3
cc0
cf2
d13
661
bc3
302
430
c42
ad3
000
840
01f
863
2d0
432
4c2
ce2
c13
bd3
3c0
c61
b62
aa3
01f
01f
01f
be0
702
9f3
ab0
c02
c93
3c3
01f
000
3d3
c41
01f
b30
332
b60
bd1
a41
01f
d13
c80
7f2
cd3
01f
500
471
373
d31
bb3
b11
ae2
01f
01f
380
a81
c52
353
000
2c2
a42
832
c81
802
bb0
ce2
cb1
c13
2c0
d12
803
550
461
ca3
3b1
a23
9b3
800
803
b90
c91
7b2
ad1
cb3
3c0
ca1
473
bd1
603
000
9f1
d03
2f2
883
b00
b42
be3
800
932
4d0
cc2
c52
b73
450
b22
6e3
ab2
7f1
d32
2d3
320
2e1
2e2
333
530
d21
3b2
393
3e2
b11
712
000
cf3
4c0
a21
01f
b71
410
321
d13
ad1
bf2
3c3
01f
3b0
a72
4e0
891
623
530
302
363
ab0
c92
b30
cf1
a40
b01
9d2
c83
000
01f
3e1
460
a53
873
be3
461
b53
a03
a01
663
ca0
d01
01f
392
380
802
01f
cf0
353
800
bf2
323
000
4b0
7f2
441
7f2
993
2c1
7f2
c11
cc2
d20
ad1
a23
4f2
800
7f2
d30
352
c03
c70
bb1
803
bf1
802
9c3
d10
801
ad2
450
7f2
c70
a71
ca2
c90
802
823
c11
7f0
ad3
000
442
bb3
be2
c33
a12
bf3
01f
d30
a00
bd3
a92
451
303
810
c61
bc2
ad0
c01
892
3f0
9a3
9c1
ab2
8f0
ac1
320
9d1
cd0
ce3
000
cc0
971
372
3a1
522
b13
cb3
a01
320
c32
d40
01f
a40
c61
d12
3e0
cd1
3b3
01f
b82
800
be1
cf2
be0
533
01f
473
000
952
ab0
b91
802
393
971
b33
b21
930
ba1
bc2
ca0
990
381
7f1
c92
2d3
c60
502
410
342
a10
402
801
7f2
341
ce2
ad3
01f
d30
3c3
000
01f
2c2
4c0
2c2
610
a02
a21
ca0
d20
cf0
6a0
af2
2c3
460
4a3
2f0
bf1
c61
322
ad0
b01
563
321
cb3
cd0
820
2c1
ac3
000
b90
b03
ac1
901
882
d40
aa1
802
680
802
d32
373
c00
ba1
d42
340
3f1
401
5c2
3d3
c71
723
7c1
a02
802
803
802
803
b62
c53
431
802
000
b33
320
822
b23
b81
ba2
373
300
4c2
a53
5a0
a41
442
9e1
c62
b33
9a1
b61
ad3
01f
542
373
320
302
3e1
482
b13
cf3
441
ce1
472
c03
000
b50
b62
ce3
b71
413
c32
a63
8e0
d01
803
800
9f2
803
c51
5c2
c63
a81
d03
d10
a83
a30
b72
a70
4e1
a32
803
c70
ca1
c12
833
01f
560
9c1
a52
803
351
af2
803
d11
a33
000
be1
7f2
b93
d42
8f0
bb2
01f
c50
801
a23
ce0
b33
c10
5f2
d40
cd1
803
c80
802
803
970
301
c03
601
8c0
802
8d2
903
5c1
ad2
000
803
511
803
bb0
a33
a10
ac2
c13
630
2c3
bf3
b90
613
6c0
901
01f
8d0
b72
ce0
a62
3d3
510
801
902
a03
01f
800
7f1
ae2
4b2
493
000
310
cb1
ce2
540
421
620
7f0
ac1
6b3
2e0
303
01f
c81
ce3
782
ad3
2d2
c11
d32
bc0
752
930
330
4b2
520
aa1
331
3d2
573
000
6d0
2e1
7f2
560
2e2
581
c13
451
d02
d13
661
492
d43
2d2
973
01f
c40
be1
01f
390
b80
5f2
c23
a51
d12
d43
401
d42
01f
d20
471
000
b10
522
800
2d2
d40
801
802
a50
d31
a52
7f3
5d2
bd3
631
452
9d3
461
862
7f3
801
573
3d1
482
d13
351
b72
01f
302
5f3
6b1
612
340
a12
d03
5a0
000
7f1
952
800
4b1
ba2
802
b73
310
822
331
800
c83
3a0
312
750
801
c22
350
c12
4f0
3a1
c73
570
332
5a3
6f0
373
d30
801
312
4b0
ba2
3d3
303
000
801
3c2
5a0
801
b11
892
c20
ce1
c60
a41
7f3
7f0
d01
4c3
341
3d3
3a0
341
cd0
572
453
561
463
2c2
351
2e0
7f2
2c0
5a1
302
2f3
342
4a3
ac0
000
572
af2
a52
6a3
ad0
bf1
cc1
2f2
2f0
401
5d1
372
b11
b42
620
be2
680
cc1
cf2
aa3
430
412
340
802
b53
a91
512
c73
9e1
01f
000
9d0
ae1
452
ba0
2d1
731
481
980
b31
c42
be3
01f
450
d41
2d2
cd0
981
9f3
cd0
3b1
2e0
801
cb3
c90
801
c32
b50
b41
4a2
c23
3d2
ca3
000
bd0
d30
642
7a3
a30
373
a50
b32
302
553
4c3
be0
473
b92
7f1
a82
403
c62
3a3
01f
992
ab0
d31
a22
b32
6b3
ac0
c21
d23
000
3e0
621
7f2
d33
7f0
491
7f2
803
4e0
341
742
7d3
460
7f2
513
ac1
2f2
b53
6b0
a21
803
c90
3d1
01f
a71
7f2
c33
2c0
801
803
c90
c53
6c2
c63
c51
bf3
303
801
000
cb1
582
4f3
b50
ab1
723
6f3
391
753
9d0
801
8f0
303
432
322
ac2
af0
881
01f
581
342
402
c10
ac2
c72
c73
000
321
bb2
2f3
800
b43
b81
a73
01f
01f
930
c03
cf2
323
ce1
2d0
2e1
963
4e0
a03
cc2
aa3
2e0
3e1
b02
303
d32
913
340
cc1
8b2
9a3
000
5c3
cb0
5a3
d01
5d3
800
801
cc2
453
380
c02
a02
480
2c3
b40
442
c40
341
802
2e0
c52
9c1
ba0
390
512
ce1
ca1
ad2
2d3
801
862
000
800
302
373
800
491
7f3
800
d02
7f3
800
b91
2e2
7f3
350
401
7f0
431
803
800
321
7f3
800
801
a12
803
800
ba2
7f3
800
6e1
cb3
800
342
803
800
cf1
aa3
800
6d1
c52
800
541
a42
803
800
803
7f0
9f1
c22
803
000
5e0
421
712
7f3
563
800
d32
923
800
ac2
803
722
7f3
410
c92
7f3
cd1
492
a73
360
cb3
bc2
2d3
392
783
431
cb2
d13
650
363
7f1
cd3
01f
2f0
5b3
470
ae1
c32
000
cd0
801
820
ae1
800
c61
b82
a70
d01
380
802
a83
01f
850
361
302
a63
923
802
8f3
421
6b2
3f1
b12
d33
b31
692
c61
6e2
310
ac3
3f0
3e1
a63
000
c92
2d3
7f0
812
7f3
b32
693
3f3
b30
321
3c2
2e3
d30
aa1
4e3
01f
d10
c00
331
d22
01f
371
412
cb0
7f3
c41
802
803
521
b63
d40
ab1
322
800
831
312
7f3
000
b81
592
b63
801
7f2
633
921
682
593
9a0
a41
4e2
4e0
331
9a1
593
a51
2c3
9e1
700
8c3
2c0
883
ca0
410
c71
370
2c2
cb3
7f1
cf0
803
000
7f3
5e0
9f1
7f2
572
3b3
593
390
711
bd2
c10
462
c80
cf1
5a3
433
520
d11
bb3
c30
cb1
b02
603
01f
ce0
c71
980
9c2
b13
000
b60
921
b70
941
a02
370
603
2e0
bb2
423
680
c41
bb1
01f
2c1
8e2
ba3
7f0
cc1
802
c33
3e0
452
01f
bf1
7f0
be2
a03
3f0
802
ac0
c23
4e3
000
7f3
d41
7f3
4d2
463
390
af0
6b3
372
313
660
b93
501
01f
01f
490
c93
a00
373
be0
4e2
373
01f
01f
000
7f2
b43
5f0
be1
be2
680
7f1
a92
993
590
352
b80
b73
2f0
7f1
802
3c3
570
4d1
802
b53
432
bc0
7f2
6a1
ac2
ce3
bd3
4e2
2f2
a03
802
cf3
7f2
933
d31
802
000
421
7f1
b62
7f3
371
9c0
cf1
593
ac0
6d1
b52
633
920
7f1
c92
3a3
01f
b92
3f2
3c3
9d0
471
9b0
b80
803
9b2
ba0
d31
320
563
000
801
6f3
9a0
c51
7f2
433
523
c50
3c0
421
352
4a3
ca0
472
c23
310
6d2
7f1
af3
6b1
01f
341
3e2
3f1
422
800
6f1
802
633
4b1
4d3
530
6a0
511
000
550
7f1
472
7f3
721
372
6a3
5b1
4d2
2d3
381
422
c10
531
902
503
4d3
b60
a82
01f
471
cd0
353
5d1
960
c81
c91
372
5d3
310
3c2
d03
000
800
a92
800
b42
701
332
410
332
6e0
a62
683
01f
391
01f
3f1
743
b70
4e1
2e3
640
01f
472
01f
4d0
01f
000
9a0
4a1
b20
341
c92
d33
b30
c32
cd3
3a1
342
813
3b0
572
ab3
982
b93
742
320
371
322
581
b62
bb3
510
d42
4d3
2c0
2c2
343
630
c72
cc3
4e0
4a1
7f3
370
413
310
862
473
000
a50
9d1
402
b40
342
bc0
ab1
cb0
cb1
4d2
920
d02
aa3
b61
cb3
c23
01f
9c0
bf1
ba3
01f
a83
01f
6f0
7f2
d31
bb3
c30
ba2
331
ce2
000
3e1
d22
9f3
ca1
452
803
461
8f2
a93
620
2c1
572
953
432
c03
a52
311
b82
373
7f0
c61
3c0
b81
c92
592
943
560
9f1
4a0
8f1
922
7f3
01f
000
b52
802
ab2
2e3
ad1
a12
460
9e0
d41
802
563
2d1
443
c82
383
9c0
c92
ab3
2c0
802
b60
ca2
621
be2
7f2
2d3
941
803
000
592
c90
9f2
2e3
450
a71
b91
8f2
c50
cc3
01f
c91
cc3
01f
9e3
c40
c62
a93
ce1
d41
800
4d2
960
cb1
a90
000
430
382
393
a41
2d1
3a3
2f0
c11
6a2
a93
941
703
b50
8b1
d12
cd0
a41
cf1
ce0
7f2
ad1
962
b13
350
b01
c01
ce2
4f0
a21
a82
cc3
2f0
c73
5f0
3f1
cd3
000
362
b73
311
542
bf2
993
a10
881
b42
a73
01f
452
2c0
a93
8e1
8a2
c83
470
bc1
943
01f
2d0
a71
802
930
951
803
01f
d00
982
923
c90
651
bc3
000
602
a53
390
b72
d13
350
802
cc1
3f3
492
440
01f
440
b02
323
980
392
583
01f
573
af1
802
7f3
b30
7f1
623
01f
7a0
3d1
c32
653
ba1
d42
303
000
9a0
2d2
512
c21
6d0
801
c82
343
c30
311
372
440
c63
660
bc2
8a2
383
380
2c1
b83
390
2c1
b43
c62
c03
ca0
d22
ca1
433
500
c22
9c2
800
311
7f2
c43
000
d01
01f
401
3e0
3c2
360
3d2
320
391
4a1
be2
c73
450
311
4c2
b30
7d0
d11
01f
4e0
c33
503
01f
800
c81
3d2
563
000
491
c13
361
c52
331
ce2
5a2
7f3
ac1
c62
b53
c12
ba2
7f3
2c0
3b2
973
340
8e1
392
ac1
451
c22
7b3
b82
a03
ae1
d33
a40
7c3
c20
962
000
c31
c23
c81
c51
9b0
b71
d23
c01
c72
b03
a71
cf0
8e1
cc2
803
c00
b71
c60
450
982
801
d30
ca1
c73
ba3
560
451
b12
000
b71
cc2
01f
8d0
b62
4e3
350
9b2
d01
960
d22
bd0
4e2
333
01f
940
a70
9c2
572
7f3
803
01f
a12
663
d41
653
ca0
652
803
000
3b0
c21
803
c11
ca2
c23
01f
6f3
b71
803
370
450
531
7f0
ca1
2e0
803
c70
321
342
d31
801
3a3
9c3
b03
ce1
801
313
000
931
3f2
bb3
c90
b81
cd3
d03
7f1
b32
963
860
412
d10
7f3
430
5b1
ae2
2f1
392
c41
332
ab0
321
422
3b3
310
7f1
7f1
7f2
a20
aa1
8b0
9d3
ac1
712
000
501
ce2
b43
01f
bf2
a50
a02
2d3
cd0
413
800
453
cc0
992
a02
a33
800
ab3
b90
7f1
312
01f
b32
362
000
4c0
a12
01f
d30
c20
4b2
3a3
ae2
2e0
810
990
c61
613
01f
410
801
be0
971
453
b70
881
582
801
313
801
b02
801
bf2
000
3b0
501
7f3
800
cd2
7f3
800
bd1
9d2
803
7f0
803
7f0
800
4b1
932
ce0
801
c52
803
7f0
7f3
2e1
4f3
800
651
803
bc0
851
7f3
bd0
911
7f3
800
7f1
412
803
7f0
803
7f0
ce1
cc2
472
7f3
000
400
531
303
3b1
c13
a12
933
c83
423
cc0
423
381
a12
b22
4c0
800
c42
ac3
3b0
381
2c0
a72
bc3
6f1
b42
d03
3b0
3d1
440
aa2
cd0
d31
d13
000
d33
01f
3f1
a82
2d0
c01
993
01f
a63
cd0
bc2
620
363
552
3a3
ba0
b41
c41
c33
330
511
cb2
a33
801
562
c93
bf1
7f0
9d2
c33
9d2
000
372
bb0
c00
a51
532
c63
800
b93
8f1
d33
af1
c63
3c0
af1
9a2
500
a42
500
9e1
bc2
3e3
ad1
2c0
cb2
803
381
ad3
be1
3d2
3c3
7f3
000
8b1
3d0
9a1
b51
4b0
ac1
2f0
c53
450
c81
6f2
460
2f2
590
d11
512
313
990
d41
613
342
803
2c0
991
332
5e3
8c0
393
c70
7f1
7f1
803
000
c32
9a0
bd2
c80
c12
a50
801
802
01f
01f
730
9d1
320
9b1
4f2
c23
cd0
4d2
363
ce1
ce1
8c2
bf3
492
a00
373
800
aa2
800
4d1
cc3
000
c21
912
b53
b90
d01
802
3d0
891
b62
2c3
320
d11
a23
3d1
402
af0
ba1
9f2
2e1
ac2
c73
321
8e2
d13
3f0
8a2
c30
cb1
b23
a71
992
2f0
c81
b12
ad3
c01
300
c11
802
7f3
000
cb0
d12
c93
d12
c71
342
302
d03
01f
c71
442
323
c00
7f2
3f3
972
b90
541
513
611
322
7f0
ce0
800
691
2e3
cb0
341
5f2
a70
531
802
000
ab0
802
9e0
802
3e2
ba3
cc1
802
9c3
b70
802
c70
5e1
802
391
d32
802
bb3
d00
802
802
2c3
7f0
2e1
802
a40
842
803
300
cc1
2f2
ba3
3e0
7f2
490
411
802
800
000
ce2
be3
940
b32
900
c70
3a1
b22
973
2d0
2c1
4e1
482
390
8a0
351
943
01f
b10
3e0
693
ca2
982
b83
b20
3e1
652
cf0
ac2
ce3
000
2d0
6d1
bc2
332
c90
4f1
802
01f
bf1
cc1
412
b00
801
a42
783
321
4d2
902
613
801
ab0
342
950
4d1
cf2
5a3
c80
2c3
01f
cc0
000
3d0
d21
01f
940
bf1
d00
440
332
a70
441
373
ab0
7f3
d41
642
490
5d1
3b3
781
632
593
be2
b03
ac1
ca2
683
b20
513
01f
330
3e1
a82
803
000
ad2
01f
01f
472
ce0
c71
9d2
cf3
471
01f
c60
801
803
ca0
d32
460
351
322
323
aa0
c73
a10
b01
9a3
01f
300
2e1
490
9c2
b63
580
801
6d2
000
480
c72
3b1
962
2f3
370
01f
372
7f2
c83
c70
3e1
b82
8d2
651
803
b12
b63
301
892
c30
d11
4c2
610
371
3e0
b82
d40
322
563
8f1
000
801
8d1
a83
ae1
333
6c0
502
cb1
01f
4e1
420
9e1
4e2
492
333
01f
a60
903
330
b61
7f0
7f2
be3
a20
3c1
cd2
9c2
333
d40
000
d01
bf2
c43
410
9a1
430
b83
803
462
9d3
6a0
481
332
7f3
310
c51
5a2
803
670
b12
b53
481
ab2
b80
a91
472
803
8d0
bd1
ba2
7f3
3b1
d13
520
b10
421
b22
000
b90
af3
bd0
c21
430
b92
3d3
920
311
802
c83
4c1
802
6c3
9c2
7f2
b20
6c1
802
01f
7f2
491
4b2
303
300
461
b02
7a3
ce1
b62
450
801
2f2
bb3
310
a31
a53
000
310
b71
3e2
2c3
7f1
bc1
3e2
800
7f0
a11
302
443
300
311
be3
b20
6f0
be1
d11
c92
973
bd0
441
b20
b92
a30
c31
692
d00
af0
c51
333
000
ab1
352
cd1
a00
3c3
330
2c2
bb0
503
3a0
623
311
cb2
383
482
800
2e2
01f
992
c63
9c0
a51
c21
3f2
3a0
803
7f0
3f3
680
cc1
5c3
000
380
ba1
7f2
450
c83
2c0
9b3
c40
c62
3f0
7f1
5a1
323
3d0
2d1
3c2
923
bf0
923
9b2
313
c63
360
8a3
b72
b93
b12
01f
6d1
c73
000
a30
381
452
bf0
410
bf1
802
313
822
801
bb2
343
331
4a2
cf3
3d1
01f
801
552
393
300
553
2e1
5f0
410
380
b21
c42
01f
000
01f
800
5c1
ba3
401
9f1
01f
9f0
c43
a73
ac1
3d2
3a2
cb3
430
c33
7b1
b12
01f
2d0
a31
433
7f0
d41
802
7f3
b92
3a3
01f
000
b40
801
4e2
7f3
801
ca3
a32
cc3
01f
b91
4d2
453
01f
3f2
a43
300
691
371
473
01f
450
421
2c2
7f1
a42
7f3
441
2c2
463
cf1
000
330
bc3
d10
801
b61
302
d00
942
483
c91
3d2
7f3
801
8b2
360
922
bd3
01f
420
d41
ac2
cd1
801
4d2
01f
2f3
390
941
2f2
321
a62
473
4c1
b62
000
801
d33
c10
d21
ae0
803
472
be2
bc3
b10
d32
d31
d13
ac3
800
b21
cd3
980
d02
963
c50
a93
c61
d40
bf3
800
742
d23
402
3e0
ba3
000
3b0
802
a23
c02
ce0
c32
6a3
900
d41
ae2
9a3
01f
420
b33
c30
4d0
802
c93
c30
c22
3a3
01f
5f0
d11
423
3f0
2c3
a02
01f
000
4d2
cc3
5e0
542
9c3
cc1
543
af0
5d3
680
831
803
310
481
341
431
792
d13
430
4a2
b53
3d1
cc1
b52
c50
461
ba3
7f1
b51
ba2
01f
000
01f
aa0
c41
322
bb0
01f
d00
802
c33
af0
2d3
d31
6c2
301
403
802
b60
cd0
801
9f3
3b1
b60
792
800
801
bf2
a43
cf0
991
d42
422
000
3e0
d20
ca1
c13
680
360
c82
bb0
4e1
bb2
973
01f
3b0
3a3
5a0
cb2
a73
302
3b3
d13
01f
431
d42
801
442
bb3
ba0
cc1
2e3
802
a33
000
3f0
bf1
2d3
a51
ab0
bb2
c60
cc1
c50
992
3f1
441
801
352
3c0
531
450
01f
01f
d22
941
a82
703
ce0
c02
8f1
aa2
000
800
ac2
7f3
7f0
3b1
d22
cb3
7f0
4e1
d42
7f3
800
d21
803
800
8f3
7f0
5b1
7f3
bf0
5e1
800
c21
803
800
7f3
800
4f2
800
8f2
803
800
c21
a32
7f3
6a3
530
d02
803
c41
912
803
7f0
ba2
ae3
000
7f0
7f1
3d3
3f1
3a3
372
bc3
d40
331
a03
b31
3d2
cc3
ca2
d20
be2
c42
cb0
501
ce0
d11
9a2
01f
4e0
b42
3c0
ce3
3c0
322
643
d21
832
d21
ae2
000
480
cd1
ca1
a02
cc2
853
7f0
2f1
802
3b3
ca0
712
ce3
ce1
b31
3a2
01f
01f
c82
ac3
7f0
ab2
5c0
5e1
bd2
000
9b0
313
c61
5c0
cc1
cc2
01f
801
3c3
ac1
d02
620
bb1
c73
af0
381
680
c02
bf3
901
ad2
991
472
b03
ad0
4f3
cf0
321
b33
a60
ad1
3c2
402
ab3
ad1
373
000
562
913
382
cd1
3f3
01f
7f0
562
a83
2f0
9b3
7f1
2f3
330
801
560
d01
2e0
3a2
4a0
563
d01
7a3
9e0
472
7f3
d31
803
000
800
7f1
9b2
7f3
382
bb1
502
453
c60
ca2
01f
443
7f1
3c3
be0
801
d31
362
d31
950
d11
ac2
463
bd0
c61
582
2f3
950
bd2
cc3
800
000
b61
b52
d43
a71
a23
ac0
7f0
cb1
a92
523
301
7f0
a01
992
ce1
7f0
802
803
7f0
982
cf3
800
ae1
a72
a93
351
c82
5c0
ab1
af2
d13
c41
bf3
800
c91
802
320
a92
4c3
000
9d0
331
982
af0
423
340
440
8c2
393
341
01f
390
3a1
ca1
573
b81
302
350
cc0
4d1
6d2
800
7f2
7f3
340
c31
2c2
4d0
301
000
be0
bd1
b42
ce2
d00
8d2
483
d23
ad0
4e1
3f2
be3
ce0
a82
3d3
802
3e3
c51
803
7f2
393
3c1
802
7f2
b73
4f2
2f0
9f2
2f3
7f0
802
bb3
7f2
4f3
802
803
000
802
4b3
481
9e2
c20
7f2
c73
a61
a83
632
b80
461
473
ce0
b00
7f1
6b2
993
c10
3e1
7f2
4d0
431
c82
3f3
c20
cf2
543
b00
d32
803
b02
2f3
b30
bb2
b10
472
3f3
000
300
b81
723
c31
2e2
d02
773
781
7f1
661
d31
b52
663
421
890
471
b22
9c0
301
9e2
333
c71
c02
332
a20
7f1
640
321
3a2
700
b71
cb3
c62
000
591
3d3
450
513
930
401
442
bd1
c22
771
b82
01f
360
bb2
a20
323
803
c70
b51
2f2
ad2
2d3
930
3b2
af0
b11
960
421
372
b20
602
b20
372
000
ba0
743
b60
ac1
992
c53
631
b73
422
370
341
801
620
4d0
401
7f3
781
353
ab0
631
573
4f0
611
b80
c30
7f0
7f1
a92
01f
000
7f0
541
c52
01f
421
862
420
461
822
d43
b20
8a2
463
322
943
3b2
9d3
580
571
d22
c63
cb0
731
882
9f3
c61
341
b82
4d0
902
5a3
7f1
9b2
7f3
802
4f3
01f
000
342
403
800
851
a11
a53
b81
972
ac3
d00
af1
652
af3
381
d43
7f2
c91
6d2
3c1
d42
3f3
ce1
d02
b33
2e0
800
361
c02
b12
a43
360
d12
000
a00
461
cc2
480
c23
7f0
4e1
c72
803
bd1
562
550
a02
a83
350
951
b92
a11
b02
823
c61
b12
7f0
d22
a73
680
5b2
bf1
530
c31
b82
660
4f2
661
7f3
d01
7f3
5d0
462
b63
000
7f2
802
ba0
6e1
9d2
2f3
3f0
c11
b02
7f1
7f2
b30
802
781
d32
802
3e0
7f1
bc2
b92
3a0
802
633
b60
2f2
683
8b0
991
c21
9f2
ba0
b41
000
cd1
962
853
b11
482
660
2c1
a02
ac0
982
c23
381
ae2
610
981
382
420
a91
b72
800
442
3d3
403
341
982
400
b72
01f
462
3b3
01f
c00
c81
362
803
000
7f0
b93
990
c91
522
483
ca0
991
373
b51
a32
7f3
c40
bd3
9f1
b30
cd3
c70
b21
bc2
570
891
01f
341
500
bb1
2c2
ba1
533
862
000
c32
d03
4e0
b91
a32
a03
4f0
b31
6e2
460
8c1
800
c71
893
c60
b41
312
943
bb2
01f
800
c23
800
cd1
423
c60
ab2
401
a73
2d1
01f
571
561
b12
463
000
01f
d40
c91
650
461
3e3
750
801
803
01f
4f1
cf2
311
01f
bf3
401
323
5a1
372
ad3
412
801
803
aa1
803
950
7f1
bc3
000
cd0
d01
9c2
c53
3c0
b93
441
b92
2f3
7f1
402
533
ae0
801
4a2
383
c01
cd2
a62
800
711
bf1
352
880
ca1
bd2
3d3
802
313
2e0
c92
3a2
bf0
01f
7f2
933
000
a82
01f
4b1
800
571
973
c21
01f
442
501
c30
5d3
402
d01
7f1
cd3
c20
9b2
920
801
942
bc1
bc3
4c0
000
b22
c82
483
4c0
801
3f2
01f
4b0
691
cb2
c13
670
bf2
3f0
b51
a61
a20
4f1
852
01f
ca1
bb0
381
b60
b82
353
2e0
341
a62
7f1
b82
a63
000
d33
3c0
cd2
c22
a62
c21
c63
300
af1
312
cb3
b90
c91
bf2
b73
330
340
432
2e0
4a2
01f
01f
2d1
a43
450
461
302
5b0
301
412
3e3
7f0
cb2
d23
000
aa0
3d2
bb0
4e2
ca3
d42
803
c81
3b2
480
572
b83
502
d00
be0
c23
390
422
910
c61
d30
c71
5e2
9c3
aa0
973
7f2
803
000
4c0
9b1
663
670
371
482
d23
5e2
cd0
451
bb0
c00
9b3
d10
a51
b22
b91
802
d33
3e0
d12
7f3
a11
383
b01
a12
433
532
000
561
6a3
2f0
691
513
2c0
4b2
2f3
5b0
801
cc2
583
670
541
7f0
742
533
5c2
01f
01f
411
cb3
01f
763
b02
802
01f
7f0
531
6b2
7f3
000
b60
a41
01f
920
2e1
9d2
993
01f
740
a42
a63
b12
461
800
bf2
bb3
760
be2
c43
b53
be0
8d2
543
d01
bd1
922
ad3
801
842
5a0
d42
3a0
4f1
ba2
b43
000
9a0
6e3
ae0
3e2
800
d22
803
7f0
451
712
330
552
332
01f
370
ca2
01f
341
a63
371
2f2
803
cf0
c22
2c3
01f
2e1
7f2
000
800
801
800
c32
2e3
7f0
4a1
803
800
b01
512
803
800
d01
603
501
7f3
800
9b2
7f3
7f0
482
800
ad1
b93
7f0
803
ca1
623
a31
7f3
800
8b1
803
451
ac2
7f3
341
452
7f3
000
a50
c31
b62
880
c10
ad1
942
c80
c51
a82
3b0
3e1
aa2
c73
410
cc2
01f
c31
d02
510
3b1
a42
500
c31
9d2
463
ba1
be2
643
b90
9c1
8d1
2d2
ad1
3c1
000
af1
aa3
c80
2f1
390
910
7f2
cc1
342
2f0
ce1
c92
3c0
6e2
cf3
01f
01f
cd3
01f
2c1
802
8a3
01f
b90
3d1
a72
a10
371
742
c43
000
c80
c71
aa2
403
01f
931
760
722
803
cf0
9d2
491
3f0
ac1
800
3e1
462
493
890
a90
c01
9d1
d22
b80
642
d00
492
7f3
381
730
9d2
373
000
3a3
6a1
460
501
5c1
b03
ca1
c90
4f2
370
991
413
3e0
d43
800
bd1
4d3
b91
b92
d22
c93
4e0
b22
a33
c40
803
7f1
5f3
000
b81
ba3
d30
01f
7f0
501
7f2
c13
bd2
9f0
a81
5c0
362
4a1
303
c40
cc2
b83
3f0
8b3
d32
6c0
963
c92
c23
480
7f1
000
4d0
ac1
961
d02
563
960
911
d31
793
3d0
962
441
d23
800
a81
b23
800
583
c50
9a1
523
01f
d12
cd0
bd2
2c3
c02
a80
802
332
4d3
2d0
7f3
000
6c1
573
3b0
631
b82
391
2e2
800
c61
642
7f3
b80
472
2f2
c50
d01
ce2
cc0
391
d30
d11
9d3
500
801
532
bd3
7f0
4c0
a31
c42
2c0
801
ad2
d23
310
9f2
000
590
802
2e1
802
ae3
7f2
b50
7f2
b33
ae1
4d2
b33
5e0
802
b03
802
b60
c11
802
6b2
a53
611
471
ca3
531
7f2
802
c70
ce3
460
431
802
000
d20
2e1
b50
c61
3c3
9c0
b62
753
aa2
d03
c51
a12
513
cb0
af2
3d3
3a0
802
420
802
470
802
3b3
b32
2e1
ac2
af3
311
d20
ca0
c31
3c3
2f1
a93
461
932
000
bf0
801
01f
682
3a0
c50
c13
b60
801
6a2
c11
c32
801
2d2
340
d13
392
b33
320
371
7f2
6f0
351
7f0
7f1
d13
01f
2c1
3c2
803
000
5e1
2d2
632
c73
ab0
c00
7f1
aa2
3a3
a40
9b3
01f
c10
01f
860
c62
9c0
d22
ad0
9d2
bd0
d01
d23
c53
9b0
803
ac0
801
c70
bd1
000
672
a13
4a0
352
01f
be0
c81
401
7f2
5e3
cf0
360
d21
850
d21
982
470
352
b81
ad0
c12
d43
800
aa1
bb3
7f0
7f0
411
01f
800
2c1
432
7f3
000
800
4b1
802
8e0
802
c93
6f2
a53
d30
801
7b3
430
3d1
b72
882
cc3
c50
d21
cb2
4d0
4e0
573
ba1
802
503
800
801
563
8b2
cc0
aa2
c22
973
000
971
3f2
c13
4a0
ab2
b31
972
b63
710
5b2
c83
6d0
b41
3d2
d43
2c0
3e1
502
a43
a63
a11
cf2
d10
571
a22
ab3
951
c72
413
b91
802
d20
802
300
c31
b82
b63
720
472
ca3
000
b31
412
c13
ad2
803
350
d41
822
bb3
b11
d30
b71
ba2
943
ce0
541
8c3
8a0
4d1
b72
803
a01
cc2
803
900
ab1
962
803
9a0
c91
d32
803
823
c20
341
9a1
ce2
c10
b82
bb3
a90
322
803
ab1
402
cb3
000
7f2
01f
a70
4e2
633
2f1
712
803
3e0
b62
983
331
c42
ad3
c20
d03
910
801
01f
952
353
450
3a1
ac2
4c3
3e0
801
802
c03
910
b71
ce2
330
4d0
bd1
312
000
cc2
3e3
453
01f
bc0
c63
a42
b33
3d2
ba2
9c0
9c2
c13
bb1
c90
330
2f2
470
801
2c2
01f
5c1
2f3
411
3c0
7f1
522
d43
000
3c1
2f2
d03
d41
b21
ba2
510
802
3c3
6a0
b03
350
3e0
912
423
690
a61
802
3f3
5d0
502
3a0
a01
502
3b0
c43
01f
871
353
01f
b51
332
ab0
d23
000
d00
371
802
893
401
cb2
3c0
6e1
4f2
b83
600
5b1
7f2
a93
01f
9d1
ca2
941
890
3e2
500
4d2
d23
4e0
413
b91
2f0
9d2
a91
983
8c1
813
c50
ca2
9c3
000
3b3
2f1
3e3
331
5b2
533
7f2
ac3
302
2d3
911
9a1
b60
4e1
662
be3
01f
01f
c80
c62
460
4d1
b20
653
ca1
b42
bd1
3f3
452
000
d40
801
592
c53
cd1
362
340
2d2
c33
4d1
542
c52
2d0
c10
01f
01f
4e2
9b0
920
d21
a92
d30
ae3
c00
bd3
01f
803
000
550
a92
c61
2d1
b20
661
7f3
d22
ba0
01f
c30
d01
c82
611
7f3
c00
513
ca0
b41
682
513
d11
aa0
ce3
3a2
d13
560
482
cf3
7f0
cb3
000
481
9a2
343
ba0
d22
01f
d11
d12
973
b50
d23
392
aa2
4b3
820
631
482
5d1
b52
ce3
01f
d13
c60
6c3
01f
b42
321
a20
952
523
000
451
c42
942
8b3
390
411
802
ba3
3a1
8a3
01f
390
d12
6b0
2d2
332
3a3
362
a43
af3
b32
8f3
cf0
cb2
d20
c02
863
3a1
932
863
000
420
be1
463
01f
bf1
523
342
3d2
cb0
302
b30
813
a90
bd3
01f
cf0
cc2
c01
362
603
ce1
363
8e0
793
9c0
402
7f3
000
800
802
5d3
8f0
cb1
802
8f0
be1
b32
cc3
a60
ad1
a53
570
502
01f
570
ca1
443
6e0
c21
6f2
c30
01f
801
2e0
3d3
01f
01f
c00
481
cf2
c53
ca0
421
000
d41
01f
d10
cc1
801
300
443
4d1
932
7f0
d02
7d0
9e1
3a3
01f
b83
c72
560
2d1
d42
5d3
ce2
802
d13
321
ab2
d13
ca0
4d1
000
3d0
862
ce0
802
aa3
b50
802
383
be0
cf1
cb2
953
a10
852
993
982
c03
2d0
c02
cb3
c72
9e3
630
aa2
902
b60
b82
9f3
400
2f1
982
01f
d21
943
2d0
c21
802
a03
000
a33
2e2
a13
360
803
7f0
7f1
b62
ac3
2d2
453
01f
c21
490
402
523
ce0
be1
303
c30
c10
473
800
6e1
342
363
01f
01f
01f
d31
000
7f0
8d2
803
7f0
391
803
800
803
800
3f1
803
7f0
7f0
912
803
800
a02
803
800
4a2
803
560
b02
7f3
cb0
7f3
a02
353
3c0
b93
800
892
7f3
7f0
bf1
a42
803
982
803
800
322
7f3
000
c02
c33
390
333
c42
363
3b1
c42
01f
01f
7f1
4e0
b12
4c0
ad0
01f
400
332
01f
850
000
b53
401
320
431
442
cb1
a73
b70
5b2
c03
01f
01f
c30
b71
7f2
301
d33
460
3c0
d11
c61
ad3
01f
01f
01f
800
3e3
000
b81
01f
310
be1
492
2c3
b10
981
492
7f3
c20
c01
3e3
800
cb1
c63
3a0
843
bc0
bb1
302
ca3
402
c73
a31
620
aa1
c02
be3
d00
d02
603
d20
b81
4b1
000
802
323
d30
802
c90
802
a40
b30
7f1
433
d42
362
c10
561
432
d40
aa1
d13
8a0
9d1
d40
ba1
c23
370
b41
9e1
373
4a3
340
d31
7f3
000
cf2
b83
cb3
01f
cb0
651
a02
3c0
ce1
01f
5a1
5b2
363
8a2
353
01f
01f
01f
01f
4c2
422
c63
a81
7f2
000
bb2
b91
bf1
d12
3f0
412
4c0
4c2
4e3
a71
c72
d43
d30
2f1
c11
962
bf0
453
980
971
aa2
d40
c92
aa0
d31
000
321
bd3
2c0
803
2f0
a23
9e0
5c1
c40
c03
9a0
cb1
3d2
443
800
311
423
d10
c51
01f
c70
b43
410
432
b50
992
d10
bd1
c00
821
a01
a52
000
01f
c42
a63
7f2
9a3
b20
b91
7f2
863
480
4f2
c13
c20
bd2
983
480
802
802
343
ae1
7f2
3d0
802
a43
7f0
431
a72
961
7f2
2e3
483
672
7f0
7f2
000
d41
be2
8a3
490
c82
8e3
b90
401
b92
641
7f3
920
01f
421
b82
353
431
a22
7f3
d10
b32
841
cf0
9b1
300
9c2
803
be0
961
ae2
852
b52
9b2
000
2f0
5c1
803
913
b51
801
c41
582
452
c50
b61
333
801
5a3
b71
3d0
01f
a70
bb1
2f2
5f3
ba2
450
c61
b93
2d0
4e1
3d3
000
802
d13
931
ae2
440
aa1
01f
390
c21
01f
3b1
b50
6b1
9e1
562
cf0
9b1
c90
981
4a2
c73
801
3d2
583
411
d33
810
531
ba2
ae0
373
000
592
530
bb1
680
971
cd2
4a0
7f3
ce1
01f
01f
493
bc2
403
620
d11
931
b00
c51
c42
550
a91
01f
01f
4a2
ba3
000
310
8a1
be3
801
d13
9f1
c02
b93
3e3
be1
802
4c3
450
c82
bd0
651
583
413
380
4f1
442
371
cd1
8a3
802
973
2e0
802
963
803
000
340
a51
a73
a41
3f1
bc2
ce3
800
561
2c3
300
342
01f
400
a01
c23
7f2
c03
c23
cb0
391
c43
01f
300
321
bf1
352
01f
9a1
b73
531
332
000
aa0
493
822
3f3
01f
9a1
800
b81
ac3
990
b13
ac0
ab1
ab2
803
9c0
d42
a83
d00
ad1
bc3
ca0
9a1
ab2
323
d21
4c0
a22
803
982
803
b71
893
3e0
4a2
000
a80
522
01f
4c1
352
a80
aa1
3b3
7f2
633
7f2
ac0
6e2
873
b81
c83
7f2
302
7f2
3b1
323
be2
9c3
cc0
c22
bb0
942
000
a62
4a3
313
01f
803
330
4c2
01f
ac0
bd1
831
ba2
c91
a53
ad0
c31
9d2
c53
bf0
b51
bb1
433
800
c92
3f2
a62
383
000
b01
ae0
c01
4c2
c01
2e3
7f0
c22
3b3
3a0
5b3
b41
2e2
a50
a11
c82
543
a90
01f
802
aa0
ce2
343
b53
3d0
520
d11
ca1
473
7f0
c11
453
000
943
01f
580
01f
3a0
362
c73
a42
a63
a00
801
c23
01f
442
a03
ce2
943
d12
a30
a43
6e1
c83
7f1
000
482
3f3
c31
932
5f3
801
303
d01
3a0
361
c92
802
c40
c22
bd0
4e1
302
3e3
7f1
382
a52
300
d12
7f3
bd0
6f1
722
01f
a01
cd2
ba1
d33
000
a80
b91
572
660
301
700
311
802
b70
4a2
350
401
412
801
d22
2c3
4a0
803
cd1
602
432
d11
4e3
2c0
951
3f0
492
2c0
4c2
993
000
951
562
01f
600
2c1
d32
b63
321
8d2
480
480
3f1
be3
3d0
be1
622
d13
5c0
2c1
342
2e0
01f
442
ac3
3e0
502
483
4f0
451
313
01f
d31
000
4f1
bb3
4c2
b43
01f
2f2
7f3
992
4b0
2d2
393
c51
3a3
bd1
520
401
7f1
c52
cd3
01f
450
2d1
c32
b13
ad0
b22
393
2d0
751
380
5d1
2c2
000
cb1
01f
d23
800
5f1
362
cb3
d32
01f
c80
801
c10
b91
b62
953
c11
803
801
b42
a80
ca1
2d2
a63
01f
5c0
b12
a13
000
c20
ac1
c72
c53
890
cb1
c12
360
541
cf0
c21
c62
363
c10
bd1
c22
b30
c42
c23
d20
982
920
d41
b12
900
bc0
cf3
830
c12
d23
ac0
472
482
bf3
d21
2c2
a53
000
cb1
be3
aa1
c73
301
352
7f0
2e1
7f2
7f3
2d0
bc1
2f2
331
3a1
4b3
4e0
c81
381
302
9b3
b33
c00
cd2
951
c42
833
431
ae1
380
a81
000
c01
342
c73
b10
422
bf3
ab0
532
423
8b2
c10
351
302
3c1
2e2
cb3
611
c53
432
5e2
3c3
01f
a11
672
2e3
382
513
cc0
000
01f
982
d33
973
b61
ab2
cf2
01f
540
ca3
2e1
b22
3b0
6b1
9c2
c40
800
371
972
c13
3e1
412
01f
01f
812
000
d33
01f
01f
800
d02
7f3
d30
01f
9a1
cf3
be0
482
580
d21
462
01f
c90
620
bc1
d42
b81
323
951
ce3
bd3
000
7f0
531
c02
ae3
7f0
521
d13
800
803
800
801
803
7f0
9a2
7f3
800
2e2
7f3
800
2e1
2c2
803
7f0
422
7f3
9c0
411
432
7f3
ab0
681
803
c42
7f3
410
7f3
800
481
803
951
bc2
803
b60
c41
c82
7f3
800
a92
6d3
000
2d0
351
6f1
bd3
800
bb1
893
d43
bf2
c23
b70
371
9c2
903
9e0
8d2
b63
d00
5d1
cd0
431
8f2
01f
660
aa1
5f3
611
01f
8b1
ba2
a70
a41
443
000
392
310
8a3
b62
bf3
a80
901
802
be3
953
d32
ad3
311
01f
a00
801
7f2
aa0
bc1
7f2
2c3
01f
7f0
411
353
480
bc1
342
2d0
ac3
b72
431
000
2d2
c21
c23
3a0
c02
ca3
940
a21
802
be2
ab3
bd1
320
8e3
b50
bc2
8a3
981
802
913
4c0
983
340
d33
360
9b1
c03
800
b81
803
3e2
9e3
430
ba1
393
bb0
4b3
000
b41
c31
673
af1
7f0
7f2
343
491
323
01f
991
390
bd0
801
2e0
2d2
c30
473
9e1
533
c51
9f3
4d0
c23
000
441
d20
3a2
363
303
801
7f3
2c3
2e1
680
c13
911
4c3
01f
4d0
491
5b2
be3
9c1
ce2
b43
b70
531
562
3e3
990
3f2
8b0
803
cd0
301
802
a33
000
3b1
cd3
cf0
381
cb2
c30
902
2c3
2f0
7a3
361
01f
931
7f0
981
ae2
953
4a0
c12
b73
3e0
9b1
cc2
af2
d03
300
2e2
802
343
802
7f3
600
9a1
502
000
c50
331
a62
cc3
2e0
cb2
620
7f2
7f3
ae2
01f
6a0
310
771
d20
c80
6d1
cd2
01f
01f
800
2e1
2f2
450
5c0
c31
c62
3a0
873
000
d30
ab1
cb1
802
d13
b42
ce3
7f0
803
7f2
591
802
bb3
c91
7f2
8d1
c13
2d1
802
7f2
cb0
4d2
3a3
9f0
7f2
9f3
802
a03
511
483
c80
800
000
b11
312
c30
d31
a23
01f
d10
771
5c3
b13
bf2
a20
b33
9a0
381
8f2
8b3
2e1
a52
bc3
a70
922
b23
2f1
bc2
d32
3e3
581
000
701
7f1
4e3
8a0
cf1
802
7f3
c80
3b1
cf2
7d1
802
7f1
802
800
b71
453
a30
ba2
533
01f
330
c51
c93
c20
c91
c62
d33
300
d23
bb0
000
d21
be2
350
cf0
301
6c2
651
5e2
7f3
a50
312
ba1
2c2
bd0
d00
713
800
8a1
513
ad0
c52
463
910
373
c73
c70
403
a60
3e2
bd3
c70
8a1
b12
000
ba1
320
2c1
d20
3f1
b91
ad3
01f
492
3d3
b21
800
2f2
613
01f
a80
8f1
ca2
803
01f
5b1
01f
bd1
000
660
922
5f0
d00
800
7f1
3a2
bb3
01f
3b0
4d1
8a2
c73
3d0
d01
c82
7f0
803
510
cd1
802
01f
b91
5b3
5c0
802
393
2d0
932
393
b21
2d2
a61
802
bc3
000
3f0
01f
953
8b0
3e1
9f3
4d1
b43
440
8d1
2c0
7f0
491
7f2
410
672
720
bc1
732
301
ae2
390
d23
662
cf2
bd3
cd2
b03
2e1
c62
000
852
2f0
802
7f3
480
8e2
5d0
3a0
a91
c42
d22
01f
c11
bc3
be1
4a2
ad3
c00
b11
862
ac1
ca3
803
d00
381
bc2
2c1
ac1
803
000
b90
3d2
501
802
413
a90
4a1
a02
4d3
a71
c62
3a1
491
802
2d3
b10
ce2
cb2
8a0
401
c92
802
340
7f2
7f2
3e3
ba2
323
600
7f2
5a0
bc3
000
d41
c93
a61
cd2
363
c11
3d2
d02
d23
d30
3f1
d33
9d2
4e0
3a2
383
300
b42
653
cc2
b42
c32
333
c01
3e2
a92
3c3
ca2
ac3
3d2
802
000
6c0
a72
b40
c91
532
b63
800
300
c72
403
01f
c80
b81
462
833
c60
612
b93
9a1
503
443
01f
871
7f3
cc2
5d3
493
b40
311
333
01f
523
000
800
ad3
b70
3e1
802
832
2c2
b20
323
860
bc1
cc3
400
ba1
a22
ba3
bd1
442
9b3
462
bd0
b93
3d1
380
311
a73
451
913
611
6a1
000
310
803
802
4d1
c42
793
c30
411
4c2
683
432
803
7f1
803
d32
01f
2c1
7f2
803
3f1
682
973
332
ca3
d10
552
b43
910
bb1
552
800
bf1
3f2
ad0
aa1
c13
000
800
8b1
3a0
801
2d2
310
aa1
bf2
d20
c41
3c3
8c1
373
540
b41
be2
723
8f0
d20
402
8d0
2d1
01f
ba0
d33
b00
803
800
412
c43
c40
b33
000
01f
770
3e1
bb2
ba3
411
b73
3a3
472
380
340
5a1
4d2
bf0
c71
772
7f3
6a2
493
cb0
ce2
b71
b91
d02
801
d12
d21
b22
a60
c71
000
401
8e2
7f3
491
2e2
4e3
2d1
3f3
882
560
390
630
d41
2d3
bb1
4d2
bb3
01f
01f
700
451
c81
562
b10
302
3b0
c22
d40
651
aa2
000
600
5d1
520
c13
d11
01f
800
382
cd3
b61
382
3e3
8f1
c80
9c1
c93
343
01f
a03
d10
c31
cb2
c90
ce3
341
be2
c43
391
913
000
442
a30
b52
463
870
01f
b80
ca0
af0
430
802
803
ab1
cd3
b20
2d0
bb3
d02
b33
c32
303
a20
cf1
c00
482
803
c50
000
5b0
801
d22
800
b71
b32
663
8b0
b12
353
301
390
801
9d3
801
3b1
362
9c1
803
462
801
01f
801
6e0
b01
941
b20
451
000
2d0
3f1
ce2
510
731
542
c13
550
7f1
482
7f1
5c2
a21
c71
c63
c60
d43
d01
943
bd0
b01
562
310
a90
01f
3d1
c32
541
313
ca0
3b2
2c3
341
000
b60
cb1
a43
01f
500
7f1
952
a00
351
7f2
b23
480
802
323
361
8f2
403
cb0
ba2
c93
420
d21
a62
c13
3d1
ae2
b83
353
910
c72
c70
561
9b2
440
3f1
b83
360
000
c81
5d3
ba0
b51
2e2
a60
9b1
662
bf3
591
4c2
313
720
d41
503
441
3d3
ac0
3e1
ab3
5d0
5e1
430
c71
561
aa2
2e3
540
411
d02
01f
01f
b43
000
7f0
801
433
800
800
4b1
412
7f3
800
5f1
bd2
7f3
302
803
bc0
a21
902
803
7b0
bd2
803
800
531
2c3
803
800
7f3
d43
7f0
4d1
a62
cc3
7f0
701
2c2
803
800
7f3
c00
531
7f3
7f0
7f3
000
980
ca3
803
3e1
c92
361
cf3
4e3
340
c22
630
b92
503
361
551
b52
313
371
922
01f
cb1
a62
403
800
a72
b90
cc1
353
be0
b52
000
ad2
be3
a83
ce3
ae3
372
9f3
bb2
370
350
2e1
373
320
3b2
953
622
b23
410
492
313
01f
940
b91
ac3
800
c21
953
bf0
ba1
000
c81
673
3c0
c43
330
ad1
803
b50
b93
8a0
4c3
310
01f
803
ce0
383
363
a91
ac1
b12
cf3
bd1
af2
4c3
613
a21
000
c70
cf1
7f3
b92
4c3
470
01f
500
b11
440
c91
420
c32
d33
c60
d11
c93
d11
803
330
511
a53
6d1
382
ca3
3c2
a61
aa3
b50
000
8e0
8a3
a10
a71
b30
800
cd2
01f
8e0
7f1
af3
ae1
be2
b33
310
331
533
3a1
c82
6a0
2e1
4e3
360
4a2
3c3
4a1
5b1
3a2
000
590
a11
373
c50
b21
d43
351
5c2
b63
9c0
d11
a52
363
3f0
b91
d22
490
ad1
802
803
9c1
a33
ce0
a13
b82
3b0
ae2
01f
b12
d40
431
be3
9f1
892
423
2f0
361
7f3
390
3c3
000
362
7f0
321
343
430
2c1
b73
ba1
ae0
2d1
d42
4b0
d21
ab1
800
341
ac0
3f1
3e3
3b0
c51
323
d12
812
330
651
802
d23
2c0
802
000
510
7e1
400
802
bb1
2f3
951
d02
b63
490
802
cb3
2f1
a72
9b3
501
803
800
cb2
be3
a11
7f2
7f2
4a1
a43
ba0
b42
843
ce0
502
c31
642
cc3
c51
802
ab3
980
cc1
7f2
a43
000
ab0
441
b50
993
c03
932
a50
c92
840
c40
972
d20
802
b33
be2
343
392
01f
b30
593
cf1
b00
ac2
303
a00
000
a50
a81
d02
c03
5e1
a62
d33
ba0
a72
bb0
a81
01f
2d0
651
562
ce3
612
cd3
340
361
802
493
2d0
3f1
01f
01f
01f
2c0
cd1
493
b60
331
c42
2e3
cf0
433
a50
000
cd0
c81
9e2
911
b42
8c3
bc1
c02
c01
2e2
bc0
c22
3c0
801
973
b20
cc3
361
3b2
573
cf0
361
532
01f
4c1
3f1
472
363
b40
351
c72
6e1
b42
a60
ca3
000
5c2
3d1
4d2
bf3
5b0
01f
a20
c40
4b1
933
d42
af1
653
4c2
7f3
d11
2f3
b41
6a3
d22
d03
410
3c2
323
c11
523
01f
000
350
802
01f
802
5d2
b53
461
2c0
4e2
3b1
6e3
cd1
a62
673
390
b52
430
a12
a02
bd3
350
b31
b12
3c3
402
bd3
803
d40
bf1
c82
803
9f3
000
2f0
6b0
b11
aa3
490
d31
461
4b2
3b3
cc0
542
2d3
500
b23
d43
891
c42
312
d43
320
ad1
512
2f0
ab1
3e1
af3
c41
811
3c2
371
cf3
323
000
01f
862
a33
5c2
c73
3c1
c83
cc0
b31
a42
821
302
9f3
8d2
7f3
361
a90
803
872
803
2c0
2f1
b62
803
381
c83
9b3
9f2
c71
912
842
803
000
801
802
ba3
4a0
671
2d3
af0
4c3
900
7f3
801
c02
803
b80
2c1
c62
333
3e0
411
342
ba0
3f1
7f2
801
b42
803
a90
d21
962
b53
9a3
b80
7f2
b93
ce1
802
af3
9d0
bb2
3b0
c72
bd0
802
000
cd2
480
9e2
503
c92
441
b23
4b1
01f
3d0
3a1
c11
512
d00
4d1
521
b42
613
3b0
a22
cd1
d12
d42
320
d02
ab3
000
bf1
a52
af3
ac2
303
a51
a92
930
d21
802
390
2f1
912
c83
460
c81
370
b91
c72
bd3
cc1
8b2
3e3
6b0
b61
2d2
c13
510
a71
440
cd2
901
482
3f2
a81
b21
000
af1
9c2
483
3c0
d41
802
b72
4a0
3d2
cd3
aa0
3e3
b53
01f
7b0
403
9b1
412
463
3f2
333
a93
341
300
c21
962
d03
bc1
d03
01f
cf3
000
7f0
a02
5f3
7f0
530
720
591
2d0
d32
2d3
2f3
422
01f
c31
bc1
b41
c92
cf0
2c2
4b1
803
2d0
3c1
000
990
3b1
802
423
800
800
391
2f2
b73
800
431
ce0
c90
4b1
a43
7f1
c83
503
01f
980
6a3
01f
2e0
c20
8a0
452
ac0
be2
000
430
4c1
bb3
7f0
4b2
530
b03
01f
3d3
d40
ae2
910
d40
b92
cc0
503
2d2
bf0
bd1
c30
3f2
d20
d31
cb1
c82
bd3
000
800
9e1
572
483
800
3c2
910
422
c01
b42
8e3
c81
01f
cf0
cb2
322
d21
c13
982
960
cc2
2e3
9d0
992
303
322
b63
c91
872
393
d31
d32
393
000
591
802
802
7f1
802
c82
8a3
d12
b33
01f
6e1
c52
6e0
802
ca0
3d2
b23
3b0
391
5c2
b73
720
2e1
bd3
cc1
4d2
01f
2c1
cd3
000
3a0
6d3
cf1
2d2
c80
bc1
3b2
d10
d41
4f2
950
2c0
8f0
01f
490
8b0
462
c33
980
ce1
9a3
400
803
3e0
a40
312
473
b21
7f3
000
bc0
802
a80
801
802
801
be2
a00
a91
af2
8b3
570
461
c82
c63
480
372
330
413
890
801
931
362
c83
c41
d33
c31
322
9d1
2d2
351
8b1
cf0
ab1
b92
000
380
801
342
300
cf1
503
540
492
4f0
a31
392
373
b61
4b3
342
323
2f3
bd2
802
2e1
8c2
d23
4d0
691
2d0
3c1
ca2
310
bd2
000
ba0
d31
b12
992
a53
802
c93
01f
c20
af0
b40
ba2
c03
ad2
353
bb1
802
a43
a91
b22
313
d21
a52
a13
5e0
811
492
400
8a2
cc3
000
800
901
943
b20
803
a71
652
803
482
803
cd1
310
cd1
803
01f
01f
c50
351
631
01f
d22
393
311
362
b50
361
000
4c0
7f3
380
7f3
7f0
ad2
7f3
7f0
a93
7f0
421
b72
423
800
441
b42
7f3
800
7f3
4c1
7f3
7f0
c03
7f0
ca1
c22
800
bb1
2e2
7f3
800
4d1
cb2
803
803
803
800
803
7f0
2e1
803
000
490
871
ac2
2d3
5a0
a31
9f2
7f3
c52
7a3
673
c02
533
872
d41
343
580
341
cb2
2f3
450
ca1
460
b61
852
01f
01f
ac1
2d3
d20
373
000
5f0
521
2e2
521
532
4d1
3c2
361
312
d01
cd3
961
513
cf2
393
01f
342
ba1
ca2
d33
bf0
c42
380
b13
531
342
bd3
ad0
000
383
6b2
4f0
432
660
311
313
d01
493
801
4e0
363
800
8b0
503
b71
2e0
801
bb3
01f
433
01f
5c0
391
ba2
000
950
7f1
802
603
4d1
802
ac3
aa0
802
b82
b20
b31
b02
311
471
c30
501
c93
a70
2c1
01f
320
8e3
7c1
01f
302
d11
d32
803
01f
000
340
803
630
a62
803
2e0
392
af3
7f0
7f2
b71
9b3
be1
803
c92
381
bb2
3f3
b12
01f
01f
750
361
320
c32
7f0
bd3
801
402
d13
000
01f
580
471
302
c13
c10
9d1
343
8f0
af1
c42
550
360
01f
323
430
aa1
b32
cf3
2d1
a70
c30
c11
b92
cc1
9e1
a22
470
441
a22
a03
000
7f2
ab3
742
803
3e2
a13
cb0
c71
2d1
cc3
803
331
d33
330
8e0
cb2
b33
c40
ca3
801
c43
ad1
c30
800
cb1
302
801
5c2
d43
971
000
320
7f1
7f1
802
803
6a1
942
7f1
802
303
2e1
7f2
802
cd3
300
802
973
ce1
802
bf1
802
a53
801
c12
d03
bc0
372
803
4e0
802
a73
cb1
c63
3f0
ba2
802
7f0
481
802
af3
000
c60
471
c52
c63
7f1
4a1
802
802
350
543
01f
a42
613
cf0
302
340
cf1
a82
3e3
d11
ce2
3a3
2c3
940
c31
bd1
c42
b53
b50
5e1
802
803
000
801
642
cb1
622
853
01f
2d2
2f3
c91
a10
9a1
632
ae3
9f0
c21
bd0
801
622
300
3c3
991
3a0
362
c93
333
01f
2e2
3f1
4e2
af0
693
000
802
3b3
360
8c2
b30
4b1
383
5b1
523
802
3f3
920
c21
b30
7f2
c73
ca3
2e2
a60
ab1
542
d03
ca1
990
ca1
432
cb1
632
980
312
630
801
5b3
000
801
c72
b73
801
322
a53
971
372
cf1
440
991
730
991
4d0
c91
cb1
9e3
01f
8e1
bf0
360
c01
d31
800
d31
000
c70
801
801
9c2
803
ba0
801
803
b40
801
802
801
582
643
802
cf0
cc1
8f2
a00
801
802
550
571
a62
4e1
451
7f3
ce0
a41
862
c12
313
01f
982
2f3
d30
000
c11
bb2
b43
451
570
b41
c23
d40
af1
c72
3f3
9e1
c93
b33
8e1
bc3
c90
511
d41
6a2
a53
aa1
b42
ca3
aa3
3c0
a50
4a1
3e2
cd3
a63
d13
000
800
d41
942
803
9f0
9e1
983
930
803
460
441
803
b50
cd1
ca2
a80
c51
b22
ab3
592
513
3f2
b23
c00
a53
8a3
a20
d22
813
d20
ab2
803
512
c71
582
ba3
9a3
803
000
920
372
d40
2c1
a62
a20
802
463
5c1
af3
d31
cd3
b92
cc0
7f2
413
01f
9b1
d00
b93
d12
691
9b3
b30
331
803
7f2
500
b12
000
ba1
2e3
4a0
581
6a1
9b3
a30
4a2
803
ca3
a52
c23
341
b62
583
800
ae1
302
453
b10
803
d21
9f2
b63
b80
c71
800
b32
bc3
982
9f1
470
bf2
000
c50
d20
c11
380
3d1
c42
7f0
b32
2c3
300
370
b51
c31
300
703
7f0
a53
ab1
c63
01f
c70
532
903
b00
d01
800
c32
403
a71
af2
7f3
000
460
b81
bf2
ba2
3f0
561
9f3
650
381
7f2
ad1
9b2
373
6d0
883
801
9e0
951
a93
ca3
7f1
a10
911
382
801
b72
b53
370
913
c91
01f
000
4f1
852
6c3
9b0
2e2
c31
402
4c3
4b0
b71
3f2
313
9e2
c92
373
2c1
2f1
440
b03
301
ae2
c93
410
4b1
481
553
373
a52
bd1
c42
000
5d1
350
531
6b2
541
af3
410
471
ad2
a63
421
992
321
d42
3b0
3e2
4c3
01f
01f
7f0
7f2
bb1
563
801
b12
5d0
d21
683
413
c12
333
a82
9a3
000
410
802
c02
2c3
950
a20
7f1
723
320
802
943
802
b93
910
2c3
800
7f3
d23
7f1
a80
7f2
5c3
922
bb3
c73
3e0
3d2
c03
2d1
532
b33
000
c10
d42
433
801
cf2
803
a80
aa1
803
3f0
801
8e3
cc2
bf0
2c1
8a2
491
ac2
d23
7f1
c02
593
2f1
7f0
691
af2
3b0
9e2
530
c42
2d2
d13
01f
560
cc2
380
7a1
503
000
370
ae2
bd3
d00
ab2
ae0
6b1
8c2
910
2f1
4f0
d02
483
490
741
460
442
973
4b0
530
6b1
6a3
400
751
632
801
432
3e0
3d1
403
5a0
a53
460
ab0
862
c83
000
ca2
4c0
6d1
7e0
4e1
2c2
ca0
763
2e0
370
681
2e2
01f
c13
432
7f3
560
c71
4b2
c80
d11
af3
cc0
802
a53
9c0
7f2
413
a60
652
ca3
400
3c2
cc3
3a0
000
800
4a1
9c0
3a1
b83
bd0
2f1
7f1
3a2
ae3
331
bf2
3e3
c70
3e1
532
4d3
362
613
312
d00
7f1
01f
4a0
c01
481
d00
7f1
371
b30
ae1
4c3
000
c01
6b2
d20
801
ce0
4f3
800
801
ce2
3b3
5a0
b51
2c2
403
421
6f3
b53
780
851
403
7f0
b22
463
430
9d1
882
cf3
cc2
9b3
01f
391
363
3c0
cc2
4b3
902
000
c20
c12
373
b42
ad0
ce1
7f2
bb3
c10
b21
a31
932
670
7f0
802
413
c80
801
3d2
2c0
a21
a43
540
a92
a90
341
c43
01f
bb3
3e2
832
000
bb0
b41
aa3
690
c52
801
b12
c23
370
ce1
802
950
402
d20
473
ab3
01f
2f2
4a3
510
7f2
461
3c2
c20
751
492
431
2d2
493
d30
3c1
322
d13
411
cf3
000
800
803
bd0
d02
b63
7f0
b62
7f3
b72
7f3
800
ad1
803
7f0
d21
5f2
7f3
7f0
3f2
493
800
803
7f0
801
572
803
7f0
5a2
363
b90
a62
803
803
801
3a0
9a2
800
af2
803
800
d31
312
ab3
000
360
d32
2d1
952
d32
c20
a51
d21
cc2
cc3
822
a23
9d3
c80
6e1
9e2
803
3f2
01f
d31
cf2
b73
bd0
712
7f0
680
01f
9a0
ce1
aa2
000
450
3b1
b62
9a2
b23
983
d21
c92
c93
311
9d2
a72
691
301
993
ca2
4d2
313
491
303
9d3
ae3
01f
cb2
d03
01f
000
ab3
431
343
413
c11
782
353
6c0
321
4b3
3f0
b31
6b2
ae3
8f0
803
740
391
b62
500
b91
502
803
b91
a33
bd2
503
3a0
3b1
d02
01f
350
b23
000
aa0
391
802
5d3
5e3
9d0
551
432
8d0
7f1
bf2
343
bb0
501
513
be0
7f1
800
cb3
c60
b70
2f1
333
ae1
cf2
9d1
7f1
4c3
420
c51
4a0
b91
4f2
000
571
d12
7f2
a33
c40
5a2
573
9a0
491
573
2e0
d41
9e3
a81
9c3
01f
800
4e1
c70
c22
bf3
2e2
ae3
7f0
5e0
c61
d32
5a3
01f
760
7f2
740
320
000
800
a12
ce0
3b1
b03
3f3
370
a41
812
7f3
800
483
543
450
3d1
7f3
430
2d2
bc0
be2
6c3
961
cb3
900
883
9e0
bd1
7f2
800
9a1
6c2
5e3
800
831
683
3a0
d41
733
000
d32
543
800
411
ca2
cc0
a30
772
440
b33
4f0
d33
d01
01f
ba0
431
b80
801
a91
460
af0
d31
be2
9a1
b62
4b0
aa1
623
a71
372
3a3
000
621
7f2
802
4b0
781
2d3
d10
371
7f2
01f
b20
901
c42
bf0
b31
7f2
803
370
9a2
331
8a2
b01
aa2
803
aa1
cc3
a62
9b3
3b0
802
b93
300
802
461
972
000
b91
b70
8e2
af1
2c3
7f2
4c3
7f2
b43
b60
2d2
a60
ae1
7f2
7f2
621
7f2
bf3
3e1
432
ca0
802
c83
ce0
b81
b22
903
c20
6d1
b23
ca0
bf2
c81
c12
a60
d02
000
01f
01f
01f
971
402
373
c21
422
c83
ce1
7f0
641
d23
802
c30
801
01f
7e1
cd2
541
802
3c3
a40
a51
502
a83
801
522
943
2f0
801
2c2
ac3
bb0
bd3
000
980
cd2
c82
3f3
c50
7f1
472
5a1
4c2
900
801
802
2d2
cb1
a12
a93
5c0
351
2e3
a00
9a1
460
aa2
4b0
cc2
01f
a10
b91
4a2
d03
6a2
a90
402
01f
000
d10
c91
a72
cd3
3c0
5f1
01f
560
881
b93
cc1
303
4a0
ce1
712
513
a30
2c3
391
632
7f3
4e0
3d0
800
3b3
800
830
d02
463
c20
c61
d03
000
01f
01f
a30
ca1
b63
800
bb0
c31
c30
3d3
801
902
6f3
5b0
9a0
2f1
cb2
d30
992
430
623
2e0
992
383
a30
371
5e2
b20
321
3a2
c80
992
bc1
802
a43
000
400
972
b13
800
942
800
bb1
cc3
800
d32
411
b62
3d1
b23
ae1
cd3
570
d01
3f2
9a1
2e2
2e3
ce3
320
481
452
b23
a80
ce1
903
01f
3e0
b83
2d0
d31
803
000
c40
3b1
6c2
c63
c81
c32
ce1
500
481
9b3
b92
653
5a2
cb0
d31
ce3
800
981
8b2
7f3
ab1
893
01f
b71
3b2
7f3
5b2
d03
340
483
b01
ad2
803
4c2
803
420
c21
803
000
300
b12
3e3
5d1
cd2
7f3
481
a92
800
921
2c0
332
301
6a3
7f2
443
801
3a2
c13
991
a82
aa0
d31
7f2
9b0
d21
802
c60
2c2
a63
310
3b1
b92
01f
4e0
000
4e0
cf2
01f
911
570
c61
b53
01f
b80
441
d21
4f2
c31
b43
a11
942
363
01f
4a0
af1
be2
381
440
471
a02
321
430
cf2
c63
000
4f0
b61
411
be3
c51
382
863
492
c51
a22
393
4b0
342
bd3
3f2
bc1
c62
3f0
b62
313
01f
cc1
ba2
3d1
493
01f
000
a22
441
c23
b33
3d0
941
2c2
b31
2e3
3e0
923
9b1
ac1
bb3
510
b01
943
01f
370
361
c53
401
322
c60
571
983
000
c02
323
410
3b2
01f
4b0
4e2
bf1
c93
c92
351
451
411
01f
800
a91
800
a31
2f2
5b3
9f0
cd1
2d3
800
3b1
542
000
b61
c81
350
c81
620
2e2
01f
600
aa0
800
381
6a0
4a2
800
371
800
4a1
a03
641
9e0
8a0
bf3
b80
3c2
943
000
01f
600
591
d03
313
581
2e3
471
4a2
491
642
d40
3b3
01f
b10
2f2
4e3
c71
c71
392
8f1
a41
801
000
cc0
412
353
ba0
460
af2
2e3
5a0
921
b52
443
01f
cb0
b22
01f
2c0
501
452
572
cb0
cd1
373
9c0
303
d03
502
3e1
972
800
331
c22
c93
000
b82
c83
310
b22
a33
01f
9f0
c81
b63
c31
ab0
cc1
340
313
383
c81
a93
963
be3
381
803
4d1
01f
351
d42
ab3
000
310
c71
a32
d41
cf0
01f
af0
bd2
a13
8a3
330
c41
803
cd0
ca1
3e3
8b0
980
2e2
960
3b0
312
2d3
4c3
000
01f
d31
932
d22
01f
791
b33
bd3
470
702
b31
6d1
352
9b0
c51
ca2
bc1
3c2
c70
c91
5b0
cd2
c20
cd1
ca0
000
01f
300
01f
d33
331
2d2
cf3
01f
981
d33
2d0
301
3e2
3b0
610
4f1
412
01f
802
b32
01f
2c1
572
000
b43
850
3a1
ae2
960
902
c23
01f
cb0
9b2
433
a82
b73
2c0
b63
c61
bc3
b03
a93
870
d12
923
c31
a02
b91
832
802
a23
01f
000
01f
01f
540
2d0
cf3
b60
362
c51
2f2
2d1
ae2
330
342
500
371
6d1
2c2
ca0
d21
01f
b83
2e1
a83
321
472
000
7f0
bc2
9f3
cb0
800
b52
803
ba0
c92
463
d00
7f3
7f0
361
ce2
7f0
311
3f2
803
803
800
803
7f0
4a1
372
800
431
d02
3d3
7f0
9c1
803
cd1
9a2
7f3
800
301
800
492
7f3
000
d01
303
b22
a12
343
452
483
333
2f0
7f1
b92
463
8e2
631
d03
380
631
01f
c93
310
a12
cc2
2e3
c30
870
3f1
000
c32
ba3
411
01f
3c0
d01
2f3
430
442
5d2
410
9f3
752
a23
522
493
502
3e3
c61
aa2
473
ce0
800
393
800
432
2f3
000
2e2
901
831
811
3b2
c83
521
c72
2e2
bd3
310
310
3e1
472
9c1
c42
01f
01f
b71
2e2
ae0
4b3
b80
cd1
7f3
cd1
c52
000
b92
361
802
01f
c72
5b1
371
cc0
692
a50
ce1
b63
9f1
6a3
cc2
c61
4b2
a01
c13
d22
01f
403
b02
693
000
ca2
c60
c33
a80
c02
01f
d41
3e0
583
311
562
c81
c63
541
3b3
01f
01f
d12
ce3
01f
d10
3d2
ca0
322
000
360
cc1
802
872
431
8b2
c23
b81
9e2
803
3b0
a13
b01
b42
970
a51
323
882
a72
b41
440
bc1
800
b82
7f3
b00
a11
d32
423
bf1
802
000
3b1
480
833
3e0
01f
c50
511
4b2
b70
3a2
990
c10
b00
3e2
a50
4a1
b93
d20
382
d30
331
3c2
921
bc2
801
802
b83
c81
802
4e1
802
000
551
802
7f1
c42
a23
bd3
01f
802
7f2
3f0
350
361
802
530
3e1
7f2
c03
b31
5b0
802
350
802
353
bc0
802
b63
a92
d30
342
c01
7f2
000
cd0
2d1
522
803
800
3d1
d23
401
b40
a30
3f0
b02
b82
bd0
b41
a72
503
c80
911
bc2
a10
a21
802
931
b62
9d0
b62
d20
521
970
3f3
01f
b63
000
311
813
800
ad3
c31
362
b43
cb1
d13
b60
a51
2d0
331
2f2
c71
3c3
4a0
af0
ac1
b12
cd3
961
cf0
be1
613
700
be1
803
530
442
ce3
390
8c0
7f1
922
000
c90
af2
3c3
8e1
ca2
d20
b61
cf2
2c3
a81
c41
c80
801
cc3
582
c60
3b1
320
c50
c41
330
382
880
b90
5e1
a12
be0
af3
be0
5c3
320
ae2
c43
000
5b0
c93
9f1
4f0
01f
01f
01f
cd0
490
cd1
9b0
3a3
bf1
2d3
801
981
5a3
d41
ad0
a31
cd0
851
422
000
cd1
802
ce3
971
ab2
802
802
2f2
bd3
ad2
2e0
d12
3f0
ce1
7f0
aa2
300
412
4d3
bd3
b40
382
c60
bb1
d12
a33
d30
b71
803
3b0
822
803
000
c41
d22
b43
460
be1
01f
c03
ad1
5c2
c00
d41
482
c83
382
a72
7f2
b41
c51
6d2
c13
01f
b10
961
bb3
c80
391
a93
310
2d2
403
000
932
8b2
c13
ac1
412
7f3
ac2
b81
cd3
c20
cf3
320
872
803
d21
a40
803
d31
4c2
d23
d41
a42
9f3
01f
c80
a82
ca0
8e1
803
800
aa1
813
000
01f
01f
383
560
591
3d2
940
b80
ba2
9d3
3e0
d42
953
4d1
5d2
be1
803
d23
01f
952
2d3
c82
423
b82
d12
000
801
312
c81
ce0
462
4d0
a43
bc0
c12
9f3
b90
751
cc2
01f
7f0
4f2
d23
800
552
ae3
01f
c72
ce1
bf2
803
c42
613
c42
9e1
d13
000
3e0
c91
623
01f
d00
b21
a42
4a0
391
802
c83
01f
480
c82
460
c31
b72
7f0
391
973
300
321
7f0
7f0
9b2
7f0
cf1
732
8f3
801
2c2
c63
9b1
c52
9f0
9c1
b13
000
410
ae1
802
903
b02
01f
2f0
431
7f2
980
471
802
ce3
3e1
8e2
453
362
570
4e1
7f2
302
ba3
3c2
d30
4b2
301
d03
332
8d3
b41
b71
c82
801
b82
000
301
b32
450
763
01f
d40
4c1
672
340
683
420
573
430
d11
792
c73
01f
941
b22
a11
d42
7f1
2e2
3f0
801
6a3
433
c22
621
000
a40
4e2
d13
960
c01
2e2
880
3c2
443
801
cd2
b73
cc0
392
333
c90
7f1
b53
580
cf2
4c0
5e3
b72
bb1
ca2
3a2
7f3
492
391
be3
c82
bd3
000
6a0
c13
590
01f
01f
470
802
ad3
832
b53
8d0
3c3
340
3e1
5b3
c82
2d3
aa0
c10
403
410
541
312
483
9e0
501
a10
ca2
b93
302
5d0
7f2
000
c00
381
7f3
b10
513
9a0
351
801
803
671
7f3
920
be2
b01
5b2
ce0
5b1
9b2
571
4b2
310
361
383
d30
a31
642
a50
aa2
2c1
380
433
a92
313
000
460
4b1
ce2
b73
300
5e1
802
551
a12
923
c20
823
7f0
6b1
c22
760
341
9b3
01f
370
d02
6b3
9a0
7f1
451
2f2
413
01f
301
4c0
7f1
7f0
431
383
01f
b23
000
01f
01f
310
382
373
be0
c01
5a2
b00
b52
6a0
413
4e3
3d2
cb3
cf3
9c0
c31
7f3
8f0
3f2
6b3
d31
412
01f
310
6c3
000
890
9e2
7f3
800
802
393
800
941
b52
9e0
ca1
803
b82
7f3
aa2
370
ae2
c03
591
363
520
8b1
5e2
5d3
540
ae1
672
c90
391
393
ad0
5a1
2c3
6f1
cd0
000
4c0
6b1
460
660
921
940
801
422
7f0
2d1
7f3
460
cd1
603
321
cf1
972
2d0
b22
703
c52
cf2
5c0
ce1
802
510
410
361
c82
000
8d2
413
01f
370
c42
2d3
af0
363
01f
cc0
2d2
bc0
3b3
b30
ca1
c02
b83
d20
b41
a11
ca3
be1
802
c40
a82
bd3
871
803
bf1
c73
c80
373
000
800
b21
322
803
801
803
650
421
bf2
be3
9b0
7f2
b50
442
2d1
2f2
680
6e1
a33
303
01f
4d3
521
4c2
433
ce2
3d3
2c1
421
4d2
603
d40
7f1
4f2
000
cb1
d00
a92
7f3
800
7f0
d22
be1
9a2
803
7f0
be1
b12
c93
7f0
7f3
7f0
803
330
831
952
803
650
a31
803
800
a42
803
800
582
9a3
7f0
801
803
770
801
af3
7f0
512
803
aa1
422
803
000
9b0
bd1
9b3
c81
ca2
400
2d2
330
391
7f3
800
8f1
983
650
01f
b31
4e3
01f
610
ac0
ba2
311
962
350
ad1
2c2
d01
922
b23
b50
01f
000
301
4c3
431
cd3
661
c13
4f2
800
4b1
01f
d41
c52
303
d30
403
01f
2d0
301
bc2
c43
cb2
a23
d00
ae1
7f2
c33
590
7f1
802
2e3
681
a63
c80
b43
ba1
342
d43
000
9d1
350
3f1
4f2
c51
590
cb3
7f0
cb1
2c1
372
542
800
ad1
342
303
a11
cf1
af2
870
c01
592
7f3
351
553
2c0
430
ac1
bf2
c63
000
ce0
802
802
c60
2e3
800
d01
9b2
4a3
800
802
663
01f
7f1
c32
5e3
800
491
2f2
7a3
800
800
562
7f3
7f1
550
c32
c83
01f
7f3
000
922
aa3
661
c72
803
c53
940
2d1
d33
522
803
ce1
a53
3b3
501
4a1
bb0
381
800
3f3
01f
802
d23
2d0
a62
933
570
b53
620
9c1
000
443
3a0
9c1
433
3e3
800
a62
3a1
b52
7f3
802
b23
9b0
a91
b52
ae0
862
313
b72
440
8b2
9a3
c11
471
3a0
2c2
4f3
d20
8c2
963
000
4c0
510
372
803
351
c33
900
7f0
c73
a43
b10
5c1
a00
b51
a40
751
d31
ab3
950
b81
402
393
b70
bf0
801
3e2
981
b23
980
ce1
433
901
000
370
561
c03
610
681
802
3b1
ce2
9f3
450
4a1
aa2
a23
4a0
5f1
7f2
7f2
a50
7f2
533
3e1
802
590
802
4a1
852
8c3
c83
7f0
751
7f2
a63
a51
3b2
a33
9b1
c42
333
430
bc1
7f2
7f0
441
b52
000
981
ab3
be0
8d2
cf3
ab2
c52
7f3
be0
372
a43
a73
2f1
2c1
7f3
3f0
431
9d2
b90
a22
b00
461
a82
d03
970
c31
383
a80
ac1
313
a62
351
b02
9d3
000
8a2
d03
850
b81
d22
be3
490
933
520
801
6a2
d13
b10
c11
b43
01f
2c0
c42
403
3c0
801
7f2
cb3
c91
640
01f
a60
9f1
402
470
532
a63
2c0
b83
801
a60
801
000
961
802
380
4d1
383
a21
802
3a0
b81
802
01f
521
01f
b80
ab3
a00
921
3e2
cf3
af0
5a3
7f2
ae3
970
981
aa3
01f
af0
6b3
000
981
592
d03
801
801
b50
b21
a52
300
7f2
ce1
d23
7f0
c21
bd3
520
c21
882
3e3
363
c42
9d1
bc0
3d1
380
b01
2d3
b60
ca1
4f3
800
b51
000
893
9d1
c63
801
a12
3d3
c90
812
c50
c61
ba2
c63
d30
801
802
383
d10
cb1
a72
3c3
800
9a1
01f
802
613
832
393
400
9c2
401
ce2
493
3d2
01f
331
000
7f0
3e3
7f0
d41
9e2
2d3
2d1
802
af3
890
b81
c33
7f0
312
ae3
ca1
b93
c81
422
9c3
af0
9c1
b90
4d2
ce3
cb0
312
cc0
3b1
732
313
a60
a72
363
01f
c31
5c2
d21
442
000
aa0
b91
912
403
3f1
9f2
a63
ae2
333
360
a02
803
8f0
d12
800
9d1
ba0
a03
01f
b30
ae1
422
7f3
bf0
7f3
800
ca2
be0
8e1
3e2
803
330
441
312
3b0
5a2
a93
7f0
872
000
343
d41
bb1
682
d10
602
a40
553
493
5e2
b53
7f2
543
801
442
3b3
c01
392
c80
bb1
7f2
b13
a81
802
450
c11
803
aa0
803
b30
b12
cc3
b40
972
623
000
c50
d03
430
302
503
01f
cb2
922
331
a52
4c0
ce3
cf0
c40
b22
362
333
b91
01f
01f
01f
912
9b3
000
740
af1
cf3
bc0
c91
c40
ca1
ca2
b32
af3
01f
3d0
ca1
3d2
a71
802
650
c81
412
3b0
461
c13
342
4e3
410
bb2
d41
693
b70
b21
9c1
a41
4e2
ba3
000
9f0
8a2
a82
d20
ce2
c73
622
963
820
bd3
ab0
b22
b93
c12
ac3
3e2
ac3
01f
cc0
392
751
a13
7a1
4d0
431
d33
340
d32
b53
aa3
310
801
8e2
000
341
d22
391
781
4a3
583
332
cc3
331
ae3
01f
d30
742
b10
ab1
803
01f
cb1
a90
662
c83
01f
01f
cc2
363
431
9a2
000
880
cc1
c63
9f0
cb0
411
cb0
a91
473
bc0
c81
472
3e3
ca0
c21
2f1
ad3
01f
cd1
bd0
ce2
cb3
cc3
2c1
ce3
b60
c82
000
390
c51
a72
3c0
be1
2e2
b93
690
3b2
01f
c20
313
01f
01f
d10
7f3
890
7f3
bc0
bb0
ba1
cf2
b80
b61
c02
c80
c22
aa3
ca1
cf3
5c0
6a2
000
cd2
9b2
393
01f
ba2
ad3
352
b02
c71
2f3
372
451
502
b10
8a2
353
c20
371
892
b80
992
8d0
b71
c62
d40
bf0
452
000
3b1
c12
b03
802
c01
933
01f
d13
8a3
bc3
3d1
362
a53
01f
603
430
a13
01f
2c2
b43
460
ce1
000
bf0
412
01f
c10
4a0
d03
340
ca1
ca1
bf3
830
330
ac0
cc1
ac3
ca0
ba1
803
3b0
a31
803
c63
cb0
3b0
3e2
4c3
000
01f
921
9c2
323
800
801
802
9e0
ae2
983
c02
c83
c22
3a0
b21
aa2
d10
c82
400
410
c61
2c0
b91
592
01f
2e2
9f1
bd0
000
2c2
3e0
631
3f2
d13
310
442
ae1
ae1
a43
01f
4a3
01f
be2
cc3
3a0
301
bc2
3a3
d42
5e3
01f
2d1
2e1
7f2
590
531
000
490
a53
340
ae2
802
c33
9e2
01f
510
471
bd3
930
c72
a33
802
982
363
4c0
c22
2f3
c21
a42
bc3
323
bf0
2d3
bd3
312
393
b00
c61
3a3
000
b81
543
cf0
c21
422
951
7f2
803
4a0
601
803
4f0
4d1
c62
343
01f
400
591
803
c22
390
633
3d1
01f
cb0
2c1
d10
383
8a0
4f2
000
800
c41
803
800
3e1
803
7f0
7f0
932
383
7f0
d01
3e2
803
800
9e2
7f0
312
7f3
800
321
b02
7f3
470
c81
7f3
a12
ce3
800
800
4d1
3a2
800
803
c60
aa2
b62
7f3
7f0
2d2
000
b10
a12
01f
501
3a2
3d0
912
2f3
c90
ce1
801
2f3
2f1
471
340
cb1
c40
471
ce2
c00
9b2
d33
5b1
342
450
421
c02
000
01f
392
bb3
2f0
2e1
5e2
a93
c03
352
ba3
ca1
cb2
b43
c62
a83
b41
cd3
ad3
2d2
c23
2f1
8d3
b30
981
322
ac3
d30
c53
01f
01f
000
330
2e3
4f0
481
a81
01f
a40
8f1
ce3
c01
af0
800
a31
7f2
2e0
b61
961
953
380
d11
460
340
331
d12
01f
000
c40
c00
c82
b61
802
a21
9e2
bb0
b52
c92
3b0
c52
4c1
9a2
c00
491
be3
970
803
4d2
b03
b43
c71
472
ce3
01f
000
973
ad0
cf1
c53
810
c72
c50
331
01f
c11
b91
be2
c33
3f1
441
bd2
313
d32
351
bc2
563
320
4f0
312
3a3
01f
bb1
2f2
000
01f
460
802
cd3
01f
cf0
552
393
420
ac1
d43
491
872
d01
cb2
cf1
d22
463
370
b81
bc2
553
c52
390
331
802
3c3
7c1
483
c31
962
423
832
b10
d10
381
962
803
000
01f
481
500
803
b91
803
cb0
a83
481
d12
d33
530
c21
913
01f
c10
381
01f
bc1
be2
b53
443
bd2
303
a50
2f3
c91
3f2
000
500
802
cd3
491
803
802
ca3
9f0
7f2
4a2
7f2
383
301
ac3
a40
951
d32
ac0
c91
802
991
802
a43
c00
7f2
983
2e0
d42
aa3
d23
400
2e2
2d3
330
802
bf3
440
7f2
000
830
c22
d33
950
802
aa3
bb0
802
ca1
8e2
663
bd0
393
01f
ac0
ce2
a10
391
bc2
7f3
c30
bd2
940
a91
cd1
a92
ae2
b81
b12
310
941
ce1
c72
803
000
931
cf3
01f
01f
01f
412
c23
301
360
422
c33
801
452
510
ca2
4f2
353
c61
5e1
3e3
3a3
b20
801
622
000
a12
540
801
b82
9c0
d01
d02
d20
8e2
a62
a90
c51
bf0
391
2c3
481
572
c93
d00
bf1
4b2
d03
3c1
2f2
2d2
a70
4d2
a40
801
792
000
cb0
452
3b2
300
bd1
c51
01f
312
a31
d21
7c0
460
763
801
d02
533
01f
01f
01f
9f0
911
c03
000
d02
430
b41
d13
801
802
901
8f2
c02
360
d41
3e3
c10
802
801
aa2
380
321
b62
2c3
802
c32
d13
d02
c53
d43
c32
2d3
01f
000
3c0
660
463
650
d40
b92
cf1
01f
991
bc2
2f3
4c2
c80
4d1
d41
9e1
772
01f
9f1
403
360
302
ce3
000
ab0
cc0
bf1
522
ce0
311
512
803
c61
923
960
ae1
d32
803
b21
2e2
a22
b73
b00
2f2
493
a30
aa1
8c2
990
471
a22
9e3
d10
803
803
b11
c62
5f2
01f
332
000
c30
cf1
d32
d30
7f2
5d3
9d0
593
01f
af0
a41
522
910
cd3
ae0
c00
402
801
a82
8b3
01f
4b0
c71
963
c80
a93
902
943
950
311
be2
8e3
2c0
3a1
c92
cd3
5b0
611
bc2
593
000
b12
343
ab2
01f
d02
b32
d03
320
2d1
d12
c13
852
ba3
970
b62
5b2
cc3
522
3a0
3d2
b62
391
d22
550
aa2
400
3c1
791
aa2
b43
000
b13
510
891
cf3
01f
bd0
be1
302
c11
c01
b82
4a3
d01
c72
763
400
01f
941
3e0
b71
910
2d1
cf0
a81
800
7f2
8f3
000
802
cc2
3f3
01f
4b0
ba3
c51
363
ae1
342
310
381
cf3
01f
b51
300
bc0
01f
311
641
bf3
b62
000
7f0
3c1
7a3
4f0
460
b23
572
913
553
ca1
482
2c3
a51
350
bc2
9c3
c02
403
423
ce0
342
bd0
3a1
3a2
363
830
801
b72
800
9e1
383
800
361
302
800
571
453
000
a21
bb2
cb1
01f
320
491
470
ab1
b72
d33
8a0
461
800
531
ce2
311
800
973
c20
732
bf3
320
512
a20
342
ce3
c81
302
000
341
601
702
4a1
303
c30
2e0
b72
c92
493
890
c41
800
b62
c70
371
962
b81
d42
bf1
ad1
ca2
2d0
cc1
801
b52
a43
4f0
801
b62
803
000
a20
a52
9f0
392
410
01f
3a0
ad2
d13
9e2
d13
c70
c00
c02
2f3
6a1
c70
b01
990
c31
333
800
4d1
2d1
01f
a43
800
803
000
bc1
ad3
c82
ca2
8d3
a41
c21
8e3
cd2
ad3
980
01f
460
401
cc3
b90
c73
d12
d33
571
862
9d3
3b1
302
400
6f3
01f
650
4c2
cb3
000
b80
9a2
523
c01
ae0
d03
c40
cc1
c21
512
340
cc1
442
d43
803
01f
4f2
403
01f
552
500
c63
a73
01f
2d0
cb1
000
cb1
ad2
c61
ca2
ab2
2d0
b91
302
4f1
442
7f1
432
c63
3e3
8e1
910
491
352
4d3
ad0
2c3
d30
c90
303
b80
611
ad0
01f
c60
b22
000
c91
c82
802
a51
7f0
7f1
5e2
7f3
4f0
462
673
01f
2d0
650
6c3
01f
3b1
411
802
802
7f2
3b1
722
000
b60
2f1
bf2
01f
802
a83
a40
bd3
970
883
c70
c61
4a0
cd3
d30
bf1
c43
b10
910
453
01f
510
ac1
aa2
a03
360
5b1
9d2
441
000
860
572
2d1
331
c73
6c1
7f2
c93
2c0
b71
b12
cc3
01f
a00
01f
2d0
cf1
3f2
01f
cc3
c63
6d1
5a2
000
7f0
c21
803
7f0
d31
803
9f2
803
4b1
ce2
803
cf2
3d3
751
352
7f3
460
7f0
2d1
a73
7f0
901
803
7f0
ba1
b22
483
7f0
b82
7f3
800
7f0
c61
4e2
803
800
7f3
800
6a1
9f2
3c3
800
471
b22
803
000
ad1
bd1
2e2
a61
af2
4b3
802
7f3
501
8e2
4c3
c30
942
8e2
c53
3a0
341
a23
3e2
d33
ca0
b60
3f1
c12
c03
3e0
c53
01f
2f2
2f3
2c0
601
cc3
000
903
2f1
ce3
ac3
320
d30
ce1
682
3f2
ad1
432
803
471
b22
01f
be1
af3
aa0
ce1
3d2
c33
351
9d2
d43
ad0
800
c81
2f2
800
000
2c1
b83
321
2e2
3f2
3e0
bf3
ab1
a22
c12
730
aa1
d33
700
c11
2e2
cc0
7f3
ca0
593
ce0
2d1
800
5a2
4d3
583
4c0
b32
5b0
802
000
341
aa2
9d2
cd3
c91
bb2
c83
a13
6d1
303
cd0
301
800
920
d11
cd3
d42
443
4c0
7f1
493
352
473
d10
c21
bf2
01f
d32
6f3
ab0
b62
7f3
000
c61
bd3
2d1
390
322
3a0
3a2
9f1
bc2
5e2
361
622
2f3
401
01f
01f
01f
3d1
442
4c3
b43
322
b63
c91
572
951
7f2
000
2f0
d01
b43
9b2
c53
b41
932
ba3
361
d42
c73
3b0
441
952
3d1
b81
d32
4d3
ce1
573
800
8a2
673
a40
802
b51
d23
560
a91
c32
7f3
800
802
ae0
952
2d1
af2
800
ab1
803
000
421
af3
a43
01f
b30
463
330
3d1
aa0
b90
463
321
2c0
8e1
cd0
3a1
d20
cc0
401
801
a33
320
801
802
802
7f1
802
000
3e1
c52
803
341
7f2
913
471
ce0
341
302
8d3
2f0
802
802
c01
802
371
802
cb3
b61
953
aa2
801
362
801
802
4b3
be0
cd3
cb0
2d2
2d3
802
983
953
000
5a2
943
a70
321
4b2
bf3
c70
4d1
3c2
c90
393
360
4e3
01f
9f2
c71
300
bb1
503
ca1
cc2
910
9f0
d22
cf0
d22
8b0
ce1
b51
3c2
000
cd0
b41
462
662
01f
b91
990
af1
b33
5d2
be1
b72
d21
333
801
342
c23
01f
9d1
ce2
bf0
453
650
803
c93
561
b92
c20
7f1
b72
000
bc0
a61
c40
cc1
323
01f
391
313
b91
ba3
9b1
820
5f1
4b2
2f1
562
511
b72
b33
3e1
c30
9c0
440
b92
a33
390
cc2
b63
c60
c82
a60
ac1
a42
c73
000
b71
b83
ad1
4b0
4b3
b82
c10
2c1
352
4e3
473
3d0
01f
a51
2d0
8b1
801
c92
cd3
360
ad1
442
360
542
8d0
bf1
cd3
800
3e2
910
b23
000
c70
d00
802
b71
522
4a3
2e2
970
ce1
7f2
cb3
c21
312
413
b90
802
2f0
7f2
311
472
c43
a23
a32
b50
9a3
c73
c41
c72
000
2e1
2f1
993
300
961
8e1
552
b43
362
ad3
cb1
2f2
931
483
01f
cb2
c63
841
ca3
b61
542
01f
c63
310
b91
c23
390
4b1
d12
483
000
bb2
aa3
d00
821
a42
a03
390
3a2
be0
cf2
803
801
c02
c43
ab2
953
2f0
a01
b92
c63
803
b50
c82
b83
911
362
a20
a81
832
803
621
b32
803
9a1
b43
be0
951
800
c73
000
4e2
bf3
01f
aa0
7f2
c63
472
cb0
6e2
363
480
3f1
470
ae3
350
803
a51
bc3
01f
d00
802
c83
7f2
bb3
8a0
5c3
c82
413
300
381
802
7f3
4b0
571
9e2
633
000
800
392
a90
872
6c0
cd1
cf2
660
ae2
d30
b21
b63
01f
420
491
7f0
ae0
812
800
3a1
350
9a2
a92
d13
cb0
800
c12
01f
bc0
801
000
381
800
bb1
411
422
833
500
b81
c23
311
802
ca2
ca1
7f2
b63
c90
bf2
c43
c51
412
313
670
2e1
3a3
2f0
c61
490
9e3
c51
7d2
803
01f
000
d30
602
c93
921
4f3
c41
b12
01f
cd0
382
303
a10
371
361
cb3
b20
ac2
453
4c1
3f1
4b2
3e3
01f
c91
802
470
ab2
463
660
371
a93
000
411
d22
ab3
3f1
802
992
603
401
382
773
802
803
350
511
802
7f0
7d1
351
4c2
2c3
803
01f
b01
bf3
891
7f2
803
833
4b0
ce1
802
3d3
d30
872
9e3
000
bf0
c11
362
303
3a0
ba1
aa3
b01
462
c03
cd0
c61
5d3
01f
cc0
c53
550
423
5e0
523
3f0
b12
c72
891
693
480
c71
563
2e3
000
310
ca1
3e3
a82
c03
7f0
b62
b33
780
602
383
01f
01f
7f0
4e1
6a0
7f2
503
c70
c22
4c1
c70
4d1
432
7f3
4b0
d40
ca2
c53
01f
2c1
353
000
640
6a1
c02
2c1
8d2
cf1
2d2
8d2
bf3
3c3
01f
320
a11
a23
01f
470
582
c23
2f0
611
ae2
a42
cc0
801
8e0
b41
d31
ca2
3c0
471
000
d43
610
af2
962
4d3
c41
c82
cf2
331
cf0
c71
b82
a10
af3
ca0
430
3b3
8d0
b71
392
2e3
343
580
991
6b3
000
cf0
cd1
562
710
3f1
513
730
6e2
7e0
b83
01f
c80
3e3
463
d23
cc0
01f
320
b83
a30
a52
9f1
573
480
803
a90
672
000
01f
800
4e1
3b3
551
2f2
491
803
971
c82
623
2e0
d01
822
803
370
361
ca2
803
a61
313
440
c22
313
5a0
cc3
300
313
01f
d31
6d2
000
5a0
571
7f0
511
412
5e3
3f0
7f1
6e2
380
421
7f3
01f
801
493
b90
511
443
c71
2d3
9a0
a80
c52
ce0
a51
b22
b90
4d2
9e3
d30
4c1
d33
992
503
000
a42
883
01f
800
381
533
5f0
802
d43
01f
800
432
353
ba3
320
be3
660
c81
ab2
5a3
342
650
952
b90
3f1
831
962
a43
a31
a23
bb0
9f2
000
330
343
891
7f2
b03
930
622
303
711
432
c63
2d2
01f
c13
7f1
af3
01f
4e1
ab2
ac1
bb2
440
3d3
c70
a01
c72
bc0
ac1
353
a70
d11
2e2
4c3
471
373
000
800
442
803
01f
a21
7f3
800
2c2
803
800
af2
803
800
a21
803
360
803
800
361
7f3
c42
c03
7f0
971
803
7f0
a82
803
800
311
8b2
803
800
bd3
801
342
2c3
7f0
2d2
7f3
7f0
4f2
7f3
000
420
711
331
3b2
923
510
591
c03
01f
a00
ce1
c12
3e2
c93
480
b51
653
7f3
800
ba2
c62
390
b12
3f3
9c2
490
690
bb3
bf1
a32
ca3
000
01f
5f1
b93
401
322
cd3
7a2
393
cc0
a53
390
4d1
340
c82
5f3
be0
d41
2e2
ce0
432
01f
5c0
2e0
a71
ca1
b93
420
ad2
cd3
790
351
cc2
320
000
c50
ab1
313
500
461
d11
cf1
ca3
653
ba1
ab0
971
ca2
01f
01f
a31
870
921
8e0
cf1
ac1
803
cd0
352
6e3
4a0
762
000
961
423
830
921
493
490
7f3
3e0
d42
be1
c83
a80
a42
310
4c1
922
7f0
771
540
2e1
8b0
370
973
671
cf3
490
d01
3d3
930
5b1
362
d11
803
532
000
a50
803
a01
c43
950
bc1
aa2
431
440
4c2
cf3
801
b02
893
420
8f1
422
01f
01f
b90
d21
d12
4c3
c50
5f3
a80
c71
01f
5f0
4c3
000
9b0
c21
802
c30
a41
323
9d3
a20
301
c62
801
553
b10
a22
b71
803
af1
312
9e3
5e0
8d1
470
a72
300
b61
a12
b71
3c0
a81
c52
c13
bb1
ab3
d20
341
8f1
593
000
ba0
333
d31
610
7f0
951
01f
d20
690
401
302
9e3
720
d31
2f0
551
9c0
4a2
463
cd0
7f1
c40
2d2
ce2
4f0
981
000
c51
802
3a3
3b1
7f3
5a0
ca2
cb3
6a1
802
5d1
802
9f3
7f1
722
711
a13
7f2
cc0
7f2
843
7f2
940
c42
383
cd0
7f2
673
903
922
a92
802
000
4c1
ad2
d40
aa1
a01
a32
941
490
7f1
a02
443
4e1
7f2
d00
6e1
cc2
303
b60
5b2
351
612
b93
b50
a12
513
a20
c42
c93
440
4b2
c33
b72
b03
ac0
8e2
000
c61
ba1
752
d13
b60
531
692
9b3
c70
b82
2f0
be3
bc0
4f2
9e3
442
d33
7f1
491
2d1
303
c12
b90
2f1
3a3
361
01f
a91
502
000
c63
d23
cf0
c21
a03
bf3
340
551
802
440
802
563
01f
01f
cf2
980
433
370
cd1
643
480
ba1
302
c83
9a0
bd1
5f2
803
361
762
000
b10
351
3a2
7f2
01f
a10
d22
362
4e0
c70
ad1
b32
b33
a72
5e3
560
441
4a1
302
890
361
ce3
310
333
2f0
6d1
ce0
5a3
000
a92
2d3
901
452
803
bb0
b02
803
800
a43
b62
801
3b3
c00
ce2
c60
a31
842
802
a83
01f
342
4d3
451
ba2
493
3e0
2e1
842
633
391
7f2
303
c90
b82
000
c71
bc3
6f0
481
370
3b2
470
5b2
4c0
c23
343
b01
a82
400
ae1
353
440
ca1
c83
481
802
a33
c73
2c2
cb0
9e0
362
4f2
813
000
b01
922
c50
c31
b52
b83
cc0
a51
6c2
803
bc0
b01
833
391
d32
cf3
4c2
440
b62
3b3
550
301
542
7f3
470
a31
8f3
682
c13
a71
803
562
330
682
ba3
480
501
7f3
c20
b11
7f3
c13
000
a21
a02
2d3
4b1
802
7f3
3f1
7f3
d11
c12
b82
be3
360
391
7f2
563
791
802
613
b40
bc1
c20
7f2
be3
662
a50
802
303
ac0
ca1
2d2
8b0
631
be2
d43
01f
000
