0641
0a07
0732
0813
07d8
1868
1729
126a
166b
17ec
116d
15ce
19f0
1352
0bb4
0915
0762
0906
0e07
0ba8
1729
068b
100e
19b0
1191
14b2
12b3
15f6
1078
1743
1584
1825
0766
06af
19b3
0835
19f8
0ae4
0b48
17ca
188b
18cc
11ad
178e
100f
1690
1251
07d2
0a33
0838
0bc2
0663
176b
172c
196f
1651
1469
0911
06c1
19c7
1288
14cc
082e
1010
1a31
0693
1994
1796
18b8
0000
