1000
1281
1002
1263
1824
1005
1006
1007
1008
1009
100a
100b
100c
100d
100e
0b92
07b4
0ed5
0e56
0757
08f8
1360
12c1
1042
1703
19e5
1567
1008
07a9
074a
08ab
0a4c
174f
0eb1
0ff2
0d13
12f4
0b37
06f8
1780
1001
1005
1006
1127
0809
150c
13cd
196f
1771
1794
18b7
1980
1321
17a2
1123
1004
1007
1008
1009
0a4a
136c
100d
1290
1011
1692
1254
1015
1496
19b7
14a0
1322
16a5
11e6
158b
072d
100f
1170
07d2
12b4
10f5
1016
1757
0978
0a64
1885
0fe7
0fe8
0d09
0a0a
0cce
080f
1432
1313
13b4
0996
0997
1943
1006
1007
1188
1749
0fea
0d2b
07ee
09cf
0b10
0d71
0f92
0db3
1735
1496
1920
0e82
14a4
06e5
1a27
1008
1189
100b
100c
16ed
100e
1010
15d1
1793
1934
1875
0000
