1000
1281
1002
1263
1824
1005
1006
1007
1008
1009
100a
100b
100c
100d
100e
0b92
07b4
0ed5
0e56
0757
08f8
1360
12c1
1042
1703
19e5
1567
1008
07a9
074a
08ab
0a4c
174f
0eb1
0ff2
0d13
12f4
0b37
06f8
1780
1001
1005
1006
1127
0809
150c
13cd
196f
1771
1794
18b7
1980
1321
17a2
1123
1004
1007
1008
1009
0a4a
136c
100d
1290
1011
1692
1254
1015
1496
19b7
14a0
1322
16a5
11e6
158b
072d
100f
1170
07d2
12b4
10f5
1016
1757
0978
0a64
1885
0fe7
0fe8
0d09
0a0a
0cce
080f
1432
1313
13b4
0996
0997
1943
1006
1007
1188
1749
0fea
0d2b
07ee
09cf
0b10
0d71
0f92
0db3
1735
1496
1920
0e82
14a4
06e5
1a27
1008
1189
100b
100c
16ed
100e
1010
15d1
1793
1934
1875
0000
16c2
1603
0724
0ee6
1768
07a9
18cc
18ed
08af
0651
1117
1138
08c5
07c6
0807
1589
16aa
0b2d
08ee
18ef
1570
1717
1000
0662
19a4
1005
0aa7
1629
100a
0c0c
100f
0996
07e0
0624
07e5
0986
0949
07ea
090d
15af
1570
1992
08d3
1474
10d5
1664
1889
17ea
186d
0cb0
1812
0774
09b5
1458
1740
1441
0de3
0a24
08c5
0826
1427
1388
100a
0d6c
16ed
100e
0c30
0dd1
0ab2
0db4
0735
09f6
0697
11c2
1003
09c8
0b89
198e
198f
19d0
1431
1592
17f3
0c77
1800
1001
0603
0944
186b
1812
1836
0000
09c0
07e3
1724
0fe5
1606
0de8
1489
088a
15cb
088d
1810
0812
1975
18f6
16d8
1001
1542
1003
1984
16c8
19a9
070b
0a2c
116e
18ef
06d1
0b52
13b5
1376
1838
0fe0
0901
0ec5
0c26
16a7
0989
0d4a
11cc
184d
0c8e
0a10
19d1
0633
0718
1501
19c5
14e8
1549
09cc
18ed
16ae
06cf
0830
06d1
0c55
1981
08a5
1587
1448
0c0a
142c
0bce
1010
1591
0bf3
1415
1016
1957
0778
06a1
0b62
09c3
0a84
1005
1366
09c7
0fe8
0fe9
156a
114b
136c
0dae
19f0
1852
1661
12e2
1963
16a6
1007
1008
1969
180b
170c
178f
08b0
0ad1
0a12
05f3
13d4
1415
1776
19b7
19f8
0a40
0b02
0663
1985
0747
134c
1930
1551
17b3
18d5
0000
07e1
0602
18c3
07e4
12e5
0a46
0887
1888
0e29
19aa
192c
100d
15ae
1230
0778
0fe1
0842
09e3
06a4
1006
1007
0fe9
164a
19ec
13ed
192e
07af
19d3
15d4
1995
0697
1000
0642
0663
1005
13c6
09e7
07c8
1749
158b
0c0c
19ee
0671
1812
17b8
1780
1202
1943
1007
1448
0869
09ca
11ec
06ed
0d8e
13f0
1971
08b2
07f3
1254
1a15
1985
0b27
05e9
16ca
0a2b
0c0c
0ff0
0df1
19b7
1538
1760
1461
1002
1523
0d64
1245
1006
1627
17a8
1769
100b
100c
176d
0670
0795
0ff6
0c22
1625
1009
170b
140c
072e
0a4f
0b30
0f31
0b92
0a73
0a75
19b7
0761
0862
11c3
1904
1945
13e7
0c69
11ab
06ac
0d0d
0b6e
0ff1
0ff2
0c95
0d16
1a37
0000
0944
1687
09c9
1a2c
07b2
06d3
0640
194d
1870
16b1
17d2
19f3
19c0
0621
0622
1044
0847
14e8
19a9
096c
112d
074e
1a01
1882
060c
060d
174f
0892
19d3
08d6
0746
0627
0feb
186d
0dcf
0a50
1011
07b4
1476
17d7
1000
1561
15e6
1a27
1868
1009
13ca
178b
174c
148f
09d0
0e74
0d75
0cb6
1422
1003
1684
1727
0989
0a6c
0fed
07ee
13b1
1572
1814
1762
16c3
14c6
0889
100a
098b
074c
0fed
0b50
0e11
07d4
0855
0000
18e7
084b
182c
0a8d
07b3
1675
0981
1a02
06a4
09a5
0966
092c
0bb2
1815
1836
06c0
06c1
08a6
1568
1989
174a
0acb
076c
138d
09ce
0cb0
14d2
06d5
1842
0fe8
182b
192c
0892
1774
0bf6
092b
136d
06ef
0b10
1011
17b2
0c34
16b6
1917
1300
12e5
1526
0809
100c
100d
11ef
18b3
0875
0c96
0700
0661
1a02
1905
1666
14c7
11c8
0d29
070a
072b
08ec
0f2d
0f8e
18f2
0682
1563
1726
182a
100b
0c0d
100f
08b0
0b51
0e15
0678
0000
