ec0
e41
ba2
b23
f26
dc7
fe9
13aa
100f
1010
1011
1376
1157
1658
1502
1003
e45
1527
1368
1009
feb
154d
174e
ff0
ff1
bf5
d56
f17
8d8
b82
fe3
a84
e68
be9
142a
172b
138c
d2d
8ae
122f
1710
f13
1014
1395
1016
d98
921
ea2
fe3
c64
e66
fe7
fea
b4b
10ed
166e
aef
1011
1012
1533
a14
1395
1096
11c5
b69
116a
d4c
9ef
ff0
ab1
995
bd6
12b7
1658
1000
ba3
1004
1005
fe7
948
9eb
a2c
c8d
154e
fd2
ab3
1775
1676
1617
000
