1966
116b
198c
0c51
0a52
0ff5
18a1
1003
07b2
0877
1681
1a02
07e3
1006
0bc8
12eb
198c
1510
17f1
0a73
17e0
1545
08c8
19aa
0ccc
136e
0810
16b2
1633
1a25
15e6
1527
06c9
0a4d
0dce
0c31
0812
1654
1755
1898
0ae5
15c7
112a
0a2c
178e
0950
15f2
0fe6
0747
196a
18cb
06cc
064d
1650
0694
1695
1556
1837
18d8
1760
1604
13a5
0688
18ac
0000
1966
116b
198c
0c51
0a52
0ff5
18a1
1003
07b2
0877
1681
1a02
07e3
1006
0bc8
12eb
198c
1510
17f1
0a73
17e0
1545
08c8
19aa
0ccc
136e
0810
16b2
1633
1a25
15e6
1527
06c9
0a4d
0dce
0c31
0812
1654
1755
1898
0ae5
15c7
112a
0a2c
178e
0950
15f2
0fe6
0747
196a
18cb
06cc
064d
1650
0694
1695
1556
1837
18d8
1760
1604
13a5
0688
18ac
0000
1966
116b
198c
0c51
0a52
0ff5
18a1
1003
07b2
0877
1681
1a02
07e3
1006
0bc8
12eb
198c
1510
17f1
0a73
17e0
1545
08c8
19aa
0ccc
136e
0810
16b2
1633
1a25
15e6
1527
06c9
0a4d
0dce
0c31
0812
1654
1755
1898
0ae5
15c7
112a
0a2c
178e
0950
15f2
0fe6
0747
196a
18cb
06cc
064d
1650
0694
1695
1556
1837
18d8
1760
1604
13a5
0688
18ac
0000
1966
116b
198c
0c51
0a52
0ff5
18a1
1003
07b2
0877
1681
1a02
07e3
1006
0bc8
12eb
198c
1510
17f1
0a73
17e0
1545
08c8
19aa
0ccc
136e
0810
16b2
1633
1a25
15e6
1527
06c9
0a4d
0dce
0c31
0812
1654
1755
1898
0ae5
15c7
112a
0a2c
178e
0950
15f2
0fe6
0747
196a
18cb
06cc
064d
1650
0694
1695
1556
1837
18d8
1760
1604
13a5
0688
18ac
0000
1966
116b
198c
0c51
0a52
0ff5
18a1
1003
07b2
0877
1681
1a02
07e3
1006
0bc8
12eb
198c
1510
17f1
0a73
17e0
1545
08c8
19aa
0ccc
136e
0810
16b2
1633
1a25
15e6
1527
06c9
0a4d
0dce
0c31
0812
1654
1755
1898
0ae5
15c7
112a
0a2c
178e
0950
15f2
0fe6
0747
196a
18cb
06cc
064d
1650
0694
1695
1556
1837
18d8
1760
1604
13a5
0688
18ac
0000
1966
116b
198c
0c51
0a52
0ff5
18a1
1003
07b2
0877
1681
1a02
07e3
1006
0bc8
12eb
198c
1510
17f1
0a73
17e0
1545
08c8
19aa
0ccc
136e
0810
16b2
1633
1a25
15e6
1527
06c9
0a4d
0dce
0c31
0812
1654
1755
1898
0ae5
15c7
112a
0a2c
178e
0950
15f2
0fe6
0747
196a
18cb
06cc
064d
1650
0694
1695
1556
1837
18d8
1760
1604
13a5
0688
18ac
0000
1966
116b
198c
0c51
0a52
0ff5
18a1
1003
07b2
0877
1681
1a02
07e3
1006
0bc8
12eb
198c
1510
17f1
0a73
17e0
1545
08c8
19aa
0ccc
136e
0810
16b2
1633
1a25
15e6
1527
06c9
0a4d
0dce
0c31
0812
1654
1755
1898
0ae5
15c7
112a
0a2c
178e
0950
15f2
0fe6
0747
196a
18cb
06cc
064d
1650
0694
1695
1556
1837
18d8
1760
1604
13a5
0688
18ac
0000
1966
116b
198c
0c51
0a52
0ff5
18a1
1003
07b2
0877
1681
1a02
07e3
1006
0bc8
12eb
198c
1510
17f1
0a73
17e0
1545
08c8
19aa
0ccc
136e
0810
16b2
1633
1a25
15e6
1527
06c9
0a4d
0dce
0c31
0812
1654
1755
1898
0ae5
15c7
112a
0a2c
178e
0950
15f2
0fe6
0747
196a
18cb
06cc
064d
1650
0694
1695
1556
1837
18d8
1760
1604
13a5
0688
18ac
0000
1966
116b
198c
0c51
0a52
0ff5
18a1
1003
07b2
0877
1681
1a02
07e3
1006
0bc8
12eb
198c
1510
17f1
0a73
17e0
1545
08c8
19aa
0ccc
136e
0810
16b2
1633
1a25
15e6
1527
06c9
0a4d
0dce
0c31
0812
1654
1755
1898
0ae5
15c7
112a
0a2c
178e
0950
15f2
0fe6
0747
196a
18cb
06cc
064d
1650
0694
1695
1556
1837
18d8
1760
1604
13a5
0688
18ac
0000
1966
116b
198c
0c51
0a52
0ff5
18a1
1003
07b2
0877
1681
1a02
07e3
1006
0bc8
12eb
198c
1510
17f1
0a73
17e0
1545
08c8
19aa
0ccc
136e
0810
16b2
1633
1a25
15e6
1527
06c9
0a4d
0dce
0c31
0812
1654
1755
1898
0ae5
15c7
112a
0a2c
178e
0950
15f2
0fe6
0747
196a
18cb
06cc
064d
1650
0694
1695
1556
1837
18d8
1760
1604
13a5
0688
18ac
0000
1966
116b
198c
0c51
0a52
0ff5
18a1
1003
07b2
0877
1681
1a02
07e3
1006
0bc8
12eb
198c
1510
17f1
0a73
17e0
1545
08c8
19aa
0ccc
136e
0810
16b2
1633
1a25
15e6
1527
06c9
0a4d
0dce
0c31
0812
1654
1755
1898
0ae5
15c7
112a
0a2c
178e
0950
15f2
0fe6
0747
196a
18cb
06cc
064d
1650
0694
1695
1556
1837
18d8
1760
1604
13a5
0688
18ac
0000
1966
116b
198c
0c51
0a52
0ff5
18a1
1003
07b2
0877
1681
1a02
07e3
1006
0bc8
12eb
198c
1510
17f1
0a73
17e0
1545
08c8
19aa
0ccc
136e
0810
16b2
1633
1a25
15e6
1527
06c9
0a4d
0dce
0c31
0812
1654
1755
1898
0ae5
15c7
112a
0a2c
178e
0950
15f2
0fe6
0747
196a
18cb
06cc
064d
1650
0694
1695
1556
1837
18d8
1760
1604
13a5
0688
18ac
0000
1966
116b
198c
0c51
0a52
0ff5
18a1
1003
07b2
0877
1681
1a02
07e3
1006
0bc8
12eb
198c
1510
17f1
0a73
17e0
1545
08c8
19aa
0ccc
136e
0810
16b2
1633
1a25
15e6
1527
06c9
0a4d
0dce
0c31
0812
1654
1755
1898
0ae5
15c7
112a
0a2c
178e
0950
15f2
0fe6
0747
196a
18cb
06cc
064d
1650
0694
1695
1556
1837
18d8
1760
1604
13a5
0688
18ac
0000
1966
116b
198c
0c51
0a52
0ff5
18a1
1003
07b2
0877
1681
1a02
07e3
1006
0bc8
12eb
198c
1510
17f1
0a73
17e0
1545
08c8
19aa
0ccc
136e
0810
16b2
1633
1a25
15e6
1527
06c9
0a4d
0dce
0c31
0812
1654
1755
1898
0ae5
15c7
112a
0a2c
178e
0950
15f2
0fe6
0747
196a
18cb
06cc
064d
1650
0694
1695
1556
1837
18d8
1760
1604
13a5
0688
18ac
0000
1966
116b
198c
0c51
0a52
0ff5
18a1
1003
07b2
0877
1681
1a02
07e3
1006
0bc8
12eb
198c
1510
17f1
0a73
17e0
1545
08c8
19aa
0ccc
136e
0810
16b2
1633
1a25
15e6
1527
06c9
0a4d
0dce
0c31
0812
1654
1755
1898
0ae5
15c7
112a
0a2c
178e
0950
15f2
0fe6
0747
196a
18cb
06cc
064d
1650
0694
1695
1556
1837
18d8
1760
1604
13a5
0688
18ac
0000
1966
116b
198c
0c51
0a52
0ff5
18a1
1003
07b2
0877
1681
1a02
07e3
1006
0bc8
12eb
198c
1510
17f1
0a73
17e0
1545
08c8
19aa
0ccc
136e
0810
16b2
1633
1a25
15e6
1527
06c9
0a4d
0dce
0c31
0812
1654
1755
1898
0ae5
15c7
112a
0a2c
178e
0950
15f2
0fe6
0747
196a
18cb
06cc
064d
1650
0694
1695
1556
1837
18d8
1760
1604
13a5
0688
18ac
0000
1420
16c1
108d
100e
1750
1212
0bd6
0997
0c58
0d45
0886
0867
0d8a
112d
128e
100f
1810
0a80
0a61
0ac4
0fe7
0fe8
0e6c
0a2f
07f1
1860
1001
17e6
16c7
1949
168a
100b
188e
1150
0957
06c3
0644
1006
1127
1228
164c
18cd
16a4
1467
194a
15eb
088d
0635
1a60
10e2
1303
1604
07a6
06c9
06aa
1a4d
1870
0636
0698
0600
1947
070b
0cac
084d
090e
1830
1555
1656
1257
1018
0000
1420
16c1
108d
100e
1750
1212
0bd6
0997
0c58
0d45
0886
0867
0d8a
112d
128e
100f
1810
0a80
0a61
0ac4
0fe7
0fe8
0e6c
0a2f
07f1
1860
1001
17e6
16c7
1949
168a
100b
188e
1150
0957
06c3
0644
1006
1127
1228
164c
18cd
16a4
1467
194a
15eb
088d
0635
1a60
10e2
1303
1604
07a6
06c9
06aa
1a4d
1870
0636
0698
0600
1947
070b
0cac
084d
090e
1830
1555
1656
1257
1018
0000
1420
16c1
108d
100e
1750
1212
0bd6
0997
0c58
0d45
0886
0867
0d8a
112d
128e
100f
1810
0a80
0a61
0ac4
0fe7
0fe8
0e6c
0a2f
07f1
1860
1001
17e6
16c7
1949
168a
100b
188e
1150
0957
06c3
0644
1006
1127
1228
164c
18cd
16a4
1467
194a
15eb
088d
0635
1a60
10e2
1303
1604
07a6
06c9
06aa
1a4d
1870
0636
0698
0600
1947
070b
0cac
084d
090e
1830
1555
1656
1257
1018
0000
1420
16c1
108d
100e
1750
1212
0bd6
0997
0c58
0d45
0886
0867
0d8a
112d
128e
100f
1810
0a80
0a61
0ac4
0fe7
0fe8
0e6c
0a2f
07f1
1860
1001
17e6
16c7
1949
168a
100b
188e
1150
0957
06c3
0644
1006
1127
1228
164c
18cd
16a4
1467
194a
15eb
088d
0635
1a60
10e2
1303
1604
07a6
06c9
06aa
1a4d
1870
0636
0698
0600
1947
070b
0cac
084d
090e
1830
1555
1656
1257
1018
0000
1420
16c1
108d
100e
1750
1212
0bd6
0997
0c58
0d45
0886
0867
0d8a
112d
128e
100f
1810
0a80
0a61
0ac4
0fe7
0fe8
0e6c
0a2f
07f1
1860
1001
17e6
16c7
1949
168a
100b
188e
1150
0957
06c3
0644
1006
1127
1228
164c
18cd
16a4
1467
194a
15eb
088d
0635
1a60
10e2
1303
1604
07a6
06c9
06aa
1a4d
1870
0636
0698
0600
1947
070b
0cac
084d
090e
1830
1555
1656
1257
1018
0000
1420
16c1
108d
100e
1750
1212
0bd6
0997
0c58
0d45
0886
0867
0d8a
112d
128e
100f
1810
0a80
0a61
0ac4
0fe7
0fe8
0e6c
0a2f
07f1
1860
1001
17e6
16c7
1949
168a
100b
188e
1150
0957
06c3
0644
1006
1127
1228
164c
18cd
16a4
1467
194a
15eb
088d
0635
1a60
10e2
1303
1604
07a6
06c9
06aa
1a4d
1870
0636
0698
0600
1947
070b
0cac
084d
090e
1830
1555
1656
1257
1018
0000
1420
16c1
108d
100e
1750
1212
0bd6
0997
0c58
0d45
0886
0867
0d8a
112d
128e
100f
1810
0a80
0a61
0ac4
0fe7
0fe8
0e6c
0a2f
07f1
1860
1001
17e6
16c7
1949
168a
100b
188e
1150
0957
06c3
0644
1006
1127
1228
164c
18cd
16a4
1467
194a
15eb
088d
0635
1a60
10e2
1303
1604
07a6
06c9
06aa
1a4d
1870
0636
0698
0600
1947
070b
0cac
084d
090e
1830
1555
1656
1257
1018
0000
1420
16c1
108d
100e
1750
1212
0bd6
0997
0c58
0d45
0886
0867
0d8a
112d
128e
100f
1810
0a80
0a61
0ac4
0fe7
0fe8
0e6c
0a2f
07f1
1860
1001
17e6
16c7
1949
168a
100b
188e
1150
0957
06c3
0644
1006
1127
1228
164c
18cd
16a4
1467
194a
15eb
088d
0635
1a60
10e2
1303
1604
07a6
06c9
06aa
1a4d
1870
0636
0698
0600
1947
070b
0cac
084d
090e
1830
1555
1656
1257
1018
0000
1420
16c1
108d
100e
1750
1212
0bd6
0997
0c58
0d45
0886
0867
0d8a
112d
128e
100f
1810
0a80
0a61
0ac4
0fe7
0fe8
0e6c
0a2f
07f1
1860
1001
17e6
16c7
1949
168a
100b
188e
1150
0957
06c3
0644
1006
1127
1228
164c
18cd
16a4
1467
194a
15eb
088d
0635
1a60
10e2
1303
1604
07a6
06c9
06aa
1a4d
1870
0636
0698
0600
1947
070b
0cac
084d
090e
1830
1555
1656
1257
1018
0000
1420
16c1
108d
100e
1750
1212
0bd6
0997
0c58
0d45
0886
0867
0d8a
112d
128e
100f
1810
0a80
0a61
0ac4
0fe7
0fe8
0e6c
0a2f
07f1
1860
1001
17e6
16c7
1949
168a
100b
188e
1150
0957
06c3
0644
1006
1127
1228
164c
18cd
16a4
1467
194a
15eb
088d
0635
1a60
10e2
1303
1604
07a6
06c9
06aa
1a4d
1870
0636
0698
0600
1947
070b
0cac
084d
090e
1830
1555
1656
1257
1018
0000
1420
16c1
108d
100e
1750
1212
0bd6
0997
0c58
0d45
0886
0867
0d8a
112d
128e
100f
1810
0a80
0a61
0ac4
0fe7
0fe8
0e6c
0a2f
07f1
1860
1001
17e6
16c7
1949
168a
100b
188e
1150
0957
06c3
0644
1006
1127
1228
164c
18cd
16a4
1467
194a
15eb
088d
0635
1a60
10e2
1303
1604
07a6
06c9
06aa
1a4d
1870
0636
0698
0600
1947
070b
0cac
084d
090e
1830
1555
1656
1257
1018
0000
1420
16c1
108d
100e
1750
1212
0bd6
0997
0c58
0d45
0886
0867
0d8a
112d
128e
100f
1810
0a80
0a61
0ac4
0fe7
0fe8
0e6c
0a2f
07f1
1860
1001
17e6
16c7
1949
168a
100b
188e
1150
0957
06c3
0644
1006
1127
1228
164c
18cd
16a4
1467
194a
15eb
088d
0635
1a60
10e2
1303
1604
07a6
06c9
06aa
1a4d
1870
0636
0698
0600
1947
070b
0cac
084d
090e
1830
1555
1656
1257
1018
0000
1420
16c1
108d
100e
1750
1212
0bd6
0997
0c58
0d45
0886
0867
0d8a
112d
128e
100f
1810
0a80
0a61
0ac4
0fe7
0fe8
0e6c
0a2f
07f1
1860
1001
17e6
16c7
1949
168a
100b
188e
1150
0957
06c3
0644
1006
1127
1228
164c
18cd
16a4
1467
194a
15eb
088d
0635
1a60
10e2
1303
1604
07a6
06c9
06aa
1a4d
1870
0636
0698
0600
1947
070b
0cac
084d
090e
1830
1555
1656
1257
1018
0000
1420
16c1
108d
100e
1750
1212
0bd6
0997
0c58
0d45
0886
0867
0d8a
112d
128e
100f
1810
0a80
0a61
0ac4
0fe7
0fe8
0e6c
0a2f
07f1
1860
1001
17e6
16c7
1949
168a
100b
188e
1150
0957
06c3
0644
1006
1127
1228
164c
18cd
16a4
1467
194a
15eb
088d
0635
1a60
10e2
1303
1604
07a6
06c9
06aa
1a4d
1870
0636
0698
0600
1947
070b
0cac
084d
090e
1830
1555
1656
1257
1018
0000
1420
16c1
108d
100e
1750
1212
0bd6
0997
0c58
0d45
0886
0867
0d8a
112d
128e
100f
1810
0a80
0a61
0ac4
0fe7
0fe8
0e6c
0a2f
07f1
1860
1001
17e6
16c7
1949
168a
100b
188e
1150
0957
06c3
0644
1006
1127
1228
164c
18cd
16a4
1467
194a
15eb
088d
0635
1a60
10e2
1303
1604
07a6
06c9
06aa
1a4d
1870
0636
0698
0600
1947
070b
0cac
084d
090e
1830
1555
1656
1257
1018
0000
1420
16c1
108d
100e
1750
1212
0bd6
0997
0c58
0d45
0886
0867
0d8a
112d
128e
100f
1810
0a80
0a61
0ac4
0fe7
0fe8
0e6c
0a2f
07f1
1860
1001
17e6
16c7
1949
168a
100b
188e
1150
0957
06c3
0644
1006
1127
1228
164c
18cd
16a4
1467
194a
15eb
088d
0635
1a60
10e2
1303
1604
07a6
06c9
06aa
1a4d
1870
0636
0698
0600
1947
070b
0cac
084d
090e
1830
1555
1656
1257
1018
0000
17e1
1466
16a7
15aa
118b
086d
1a70
0711
1514
1635
0618
1341
1422
17e3
0b25
0b2b
0b2c
082d
14af
1893
1a40
1001
18e2
1aa3
1665
1006
14a7
1a0b
112c
172d
092e
16cf
05d6
16ae
18b1
1620
19e1
1862
17c6
0b30
0f71
15b4
1777
16d8
0940
0be1
0aa2
16a3
1004
0b85
1627
0788
128a
0a0c
13ee
19c0
1609
100a
190b
0acc
084d
18f0
1951
0612
09d3
0694
18e0
19c1
18c3
1984
08a8
08cf
0bd0
0ff1
0bd2
0ad6
0b77
0718
0000
17e1
1466
16a7
15aa
118b
086d
1a70
0711
1514
1635
0618
1341
1422
17e3
0b25
0b2b
0b2c
082d
14af
1893
1a40
1001
18e2
1aa3
1665
1006
14a7
1a0b
112c
172d
092e
16cf
05d6
16ae
18b1
1620
19e1
1862
17c6
0b30
0f71
15b4
1777
16d8
0940
0be1
0aa2
16a3
1004
0b85
1627
0788
128a
0a0c
13ee
19c0
1609
100a
190b
0acc
084d
18f0
1951
0612
09d3
0694
18e0
19c1
18c3
1984
08a8
08cf
0bd0
0ff1
0bd2
0ad6
0b77
0718
0000
17e1
1466
16a7
15aa
118b
086d
1a70
0711
1514
1635
0618
1341
1422
17e3
0b25
0b2b
0b2c
082d
14af
1893
1a40
1001
18e2
1aa3
1665
1006
14a7
1a0b
112c
172d
092e
16cf
05d6
16ae
18b1
1620
19e1
1862
17c6
0b30
0f71
15b4
1777
16d8
0940
0be1
0aa2
16a3
1004
0b85
1627
0788
128a
0a0c
13ee
19c0
1609
100a
190b
0acc
084d
18f0
1951
0612
09d3
0694
18e0
19c1
18c3
1984
08a8
08cf
0bd0
0ff1
0bd2
0ad6
0b77
0718
0000
17e1
1466
16a7
15aa
118b
086d
1a70
0711
1514
1635
0618
1341
1422
17e3
0b25
0b2b
0b2c
082d
14af
1893
1a40
1001
18e2
1aa3
1665
1006
14a7
1a0b
112c
172d
092e
16cf
05d6
16ae
18b1
1620
19e1
1862
17c6
0b30
0f71
15b4
1777
16d8
0940
0be1
0aa2
16a3
1004
0b85
1627
0788
128a
0a0c
13ee
19c0
1609
100a
190b
0acc
084d
18f0
1951
0612
09d3
0694
18e0
19c1
18c3
1984
08a8
08cf
0bd0
0ff1
0bd2
0ad6
0b77
0718
0000
17e1
1466
16a7
15aa
118b
086d
1a70
0711
1514
1635
0618
1341
1422
17e3
0b25
0b2b
0b2c
082d
14af
1893
1a40
1001
18e2
1aa3
1665
1006
14a7
1a0b
112c
172d
092e
16cf
05d6
16ae
18b1
1620
19e1
1862
17c6
0b30
0f71
15b4
1777
16d8
0940
0be1
0aa2
16a3
1004
0b85
1627
0788
128a
0a0c
13ee
19c0
1609
100a
190b
0acc
084d
18f0
1951
0612
09d3
0694
18e0
19c1
18c3
1984
08a8
08cf
0bd0
0ff1
0bd2
0ad6
0b77
0718
0000
17e1
1466
16a7
15aa
118b
086d
1a70
0711
1514
1635
0618
1341
1422
17e3
0b25
0b2b
0b2c
082d
14af
1893
1a40
1001
18e2
1aa3
1665
1006
14a7
1a0b
112c
172d
092e
16cf
05d6
16ae
18b1
1620
19e1
1862
17c6
0b30
0f71
15b4
1777
16d8
0940
0be1
0aa2
16a3
1004
0b85
1627
0788
128a
0a0c
13ee
19c0
1609
100a
190b
0acc
084d
18f0
1951
0612
09d3
0694
18e0
19c1
18c3
1984
08a8
08cf
0bd0
0ff1
0bd2
0ad6
0b77
0718
0000
17e1
1466
16a7
15aa
118b
086d
1a70
0711
1514
1635
0618
1341
1422
17e3
0b25
0b2b
0b2c
082d
14af
1893
1a40
1001
18e2
1aa3
1665
1006
14a7
1a0b
112c
172d
092e
16cf
05d6
16ae
18b1
1620
19e1
1862
17c6
0b30
0f71
15b4
1777
16d8
0940
0be1
0aa2
16a3
1004
0b85
1627
0788
128a
0a0c
13ee
19c0
1609
100a
190b
0acc
084d
18f0
1951
0612
09d3
0694
18e0
19c1
18c3
1984
08a8
08cf
0bd0
0ff1
0bd2
0ad6
0b77
0718
0000
17e1
1466
16a7
15aa
118b
086d
1a70
0711
1514
1635
0618
1341
1422
17e3
0b25
0b2b
0b2c
082d
14af
1893
1a40
1001
18e2
1aa3
1665
1006
14a7
1a0b
112c
172d
092e
16cf
05d6
16ae
18b1
1620
19e1
1862
17c6
0b30
0f71
15b4
1777
16d8
0940
0be1
0aa2
16a3
1004
0b85
1627
0788
128a
0a0c
13ee
19c0
1609
100a
190b
0acc
084d
18f0
1951
0612
09d3
0694
18e0
19c1
18c3
1984
08a8
08cf
0bd0
0ff1
0bd2
0ad6
0b77
0718
0000
17e1
1466
16a7
15aa
118b
086d
1a70
0711
1514
1635
0618
1341
1422
17e3
0b25
0b2b
0b2c
082d
14af
1893
1a40
1001
18e2
1aa3
1665
1006
14a7
1a0b
112c
172d
092e
16cf
05d6
16ae
18b1
1620
19e1
1862
17c6
0b30
0f71
15b4
1777
16d8
0940
0be1
0aa2
16a3
1004
0b85
1627
0788
128a
0a0c
13ee
19c0
1609
100a
190b
0acc
084d
18f0
1951
0612
09d3
0694
18e0
19c1
18c3
1984
08a8
08cf
0bd0
0ff1
0bd2
0ad6
0b77
0718
0000
17e1
1466
16a7
15aa
118b
086d
1a70
0711
1514
1635
0618
1341
1422
17e3
0b25
0b2b
0b2c
082d
14af
1893
1a40
1001
18e2
1aa3
1665
1006
14a7
1a0b
112c
172d
092e
16cf
05d6
16ae
18b1
1620
19e1
1862
17c6
0b30
0f71
15b4
1777
16d8
0940
0be1
0aa2
16a3
1004
0b85
1627
0788
128a
0a0c
13ee
19c0
1609
100a
190b
0acc
084d
18f0
1951
0612
09d3
0694
18e0
19c1
18c3
1984
08a8
08cf
0bd0
0ff1
0bd2
0ad6
0b77
0718
0000
17e1
1466
16a7
15aa
118b
086d
1a70
0711
1514
1635
0618
1341
1422
17e3
0b25
0b2b
0b2c
082d
14af
1893
1a40
1001
18e2
1aa3
1665
1006
14a7
1a0b
112c
172d
092e
16cf
05d6
16ae
18b1
1620
19e1
1862
17c6
0b30
0f71
15b4
1777
16d8
0940
0be1
0aa2
16a3
1004
0b85
1627
0788
128a
0a0c
13ee
19c0
1609
100a
190b
0acc
084d
18f0
1951
0612
09d3
0694
18e0
19c1
18c3
1984
08a8
08cf
0bd0
0ff1
0bd2
0ad6
0b77
0718
0000
17e1
1466
16a7
15aa
118b
086d
1a70
0711
1514
1635
0618
1341
1422
17e3
0b25
0b2b
0b2c
082d
14af
1893
1a40
1001
18e2
1aa3
1665
1006
14a7
1a0b
112c
172d
092e
16cf
05d6
16ae
18b1
1620
19e1
1862
17c6
0b30
0f71
15b4
1777
16d8
0940
0be1
0aa2
16a3
1004
0b85
1627
0788
128a
0a0c
13ee
19c0
1609
100a
190b
0acc
084d
18f0
1951
0612
09d3
0694
18e0
19c1
18c3
1984
08a8
08cf
0bd0
0ff1
0bd2
0ad6
0b77
0718
0000
17e1
1466
16a7
15aa
118b
086d
1a70
0711
1514
1635
0618
1341
1422
17e3
0b25
0b2b
0b2c
082d
14af
1893
1a40
1001
18e2
1aa3
1665
1006
14a7
1a0b
112c
172d
092e
16cf
05d6
16ae
18b1
1620
19e1
1862
17c6
0b30
0f71
15b4
1777
16d8
0940
0be1
0aa2
16a3
1004
0b85
1627
0788
128a
0a0c
13ee
19c0
1609
100a
190b
0acc
084d
18f0
1951
0612
09d3
0694
18e0
19c1
18c3
1984
08a8
08cf
0bd0
0ff1
0bd2
0ad6
0b77
0718
0000
17e1
1466
16a7
15aa
118b
086d
1a70
0711
1514
1635
0618
1341
1422
17e3
0b25
0b2b
0b2c
082d
14af
1893
1a40
1001
18e2
1aa3
1665
1006
14a7
1a0b
112c
172d
092e
16cf
05d6
16ae
18b1
1620
19e1
1862
17c6
0b30
0f71
15b4
1777
16d8
0940
0be1
0aa2
16a3
1004
0b85
1627
0788
128a
0a0c
13ee
19c0
1609
100a
190b
0acc
084d
18f0
1951
0612
09d3
0694
18e0
19c1
18c3
1984
08a8
08cf
0bd0
0ff1
0bd2
0ad6
0b77
0718
0000
17e1
1466
16a7
15aa
118b
086d
1a70
0711
1514
1635
0618
1341
1422
17e3
0b25
0b2b
0b2c
082d
14af
1893
1a40
1001
18e2
1aa3
1665
1006
14a7
1a0b
112c
172d
092e
16cf
05d6
16ae
18b1
1620
19e1
1862
17c6
0b30
0f71
15b4
1777
16d8
0940
0be1
0aa2
16a3
1004
0b85
1627
0788
128a
0a0c
13ee
19c0
1609
100a
190b
0acc
084d
18f0
1951
0612
09d3
0694
18e0
19c1
18c3
1984
08a8
08cf
0bd0
0ff1
0bd2
0ad6
0b77
0718
0000
17e1
1466
16a7
15aa
118b
086d
1a70
0711
1514
1635
0618
1341
1422
17e3
0b25
0b2b
0b2c
082d
14af
1893
1a40
1001
18e2
1aa3
1665
1006
14a7
1a0b
112c
172d
092e
16cf
05d6
16ae
18b1
1620
19e1
1862
17c6
0b30
0f71
15b4
1777
16d8
0940
0be1
0aa2
16a3
1004
0b85
1627
0788
128a
0a0c
13ee
19c0
1609
100a
190b
0acc
084d
18f0
1951
0612
09d3
0694
18e0
19c1
18c3
1984
08a8
08cf
0bd0
0ff1
0bd2
0ad6
0b77
0718
0000
1500
0b08
08c9
186a
126b
13ce
188f
18b2
0936
0fb7
1782
0945
0d86
0d87
0b48
0a8a
08cb
15ed
12cf
1810
0b58
0a20
0901
0e22
0de7
0c48
0d0c
094d
0ab1
0a72
1835
1961
1742
1928
12a9
170e
1650
06a2
09c5
1966
14e7
0609
0fea
0b8b
15f3
17b8
0b01
1007
168b
0931
06b3
0697
1822
1543
1004
08c5
0c86
06e7
06ca
19ef
1010
1792
1873
17f4
05e8
062a
09ab
0bcc
084d
07ee
140f
1550
0952
0c73
1614
1015
1016
1017
1338
0000
1500
0b08
08c9
186a
126b
13ce
188f
18b2
0936
0fb7
1782
0945
0d86
0d87
0b48
0a8a
08cb
15ed
12cf
1810
0b58
0a20
0901
0e22
0de7
0c48
0d0c
094d
0ab1
0a72
1835
1961
1742
1928
12a9
170e
1650
06a2
09c5
1966
14e7
0609
0fea
0b8b
15f3
17b8
0b01
1007
168b
0931
06b3
0697
1822
1543
1004
08c5
0c86
06e7
06ca
19ef
1010
1792
1873
17f4
05e8
062a
09ab
0bcc
084d
07ee
140f
1550
0952
0c73
1614
1015
1016
1017
1338
0000
1500
0b08
08c9
186a
126b
13ce
188f
18b2
0936
0fb7
1782
0945
0d86
0d87
0b48
0a8a
08cb
15ed
12cf
1810
0b58
0a20
0901
0e22
0de7
0c48
0d0c
094d
0ab1
0a72
1835
1961
1742
1928
12a9
170e
1650
06a2
09c5
1966
14e7
0609
0fea
0b8b
15f3
17b8
0b01
1007
168b
0931
06b3
0697
1822
1543
1004
08c5
0c86
06e7
06ca
19ef
1010
1792
1873
17f4
05e8
062a
09ab
0bcc
084d
07ee
140f
1550
0952
0c73
1614
1015
1016
1017
1338
0000
1500
0b08
08c9
186a
126b
13ce
188f
18b2
0936
0fb7
1782
0945
0d86
0d87
0b48
0a8a
08cb
15ed
12cf
1810
0b58
0a20
0901
0e22
0de7
0c48
0d0c
094d
0ab1
0a72
1835
1961
1742
1928
12a9
170e
1650
06a2
09c5
1966
14e7
0609
0fea
0b8b
15f3
17b8
0b01
1007
168b
0931
06b3
0697
1822
1543
1004
08c5
0c86
06e7
06ca
19ef
1010
1792
1873
17f4
05e8
062a
09ab
0bcc
084d
07ee
140f
1550
0952
0c73
1614
1015
1016
1017
1338
0000
1500
0b08
08c9
186a
126b
13ce
188f
18b2
0936
0fb7
1782
0945
0d86
0d87
0b48
0a8a
08cb
15ed
12cf
1810
0b58
0a20
0901
0e22
0de7
0c48
0d0c
094d
0ab1
0a72
1835
1961
1742
1928
12a9
170e
1650
06a2
09c5
1966
14e7
0609
0fea
0b8b
15f3
17b8
0b01
1007
168b
0931
06b3
0697
1822
1543
1004
08c5
0c86
06e7
06ca
19ef
1010
1792
1873
17f4
05e8
062a
09ab
0bcc
084d
07ee
140f
1550
0952
0c73
1614
1015
1016
1017
1338
0000
1500
0b08
08c9
186a
126b
13ce
188f
18b2
0936
0fb7
1782
0945
0d86
0d87
0b48
0a8a
08cb
15ed
12cf
1810
0b58
0a20
0901
0e22
0de7
0c48
0d0c
094d
0ab1
0a72
1835
1961
1742
1928
12a9
170e
1650
06a2
09c5
1966
14e7
0609
0fea
0b8b
15f3
17b8
0b01
1007
168b
0931
06b3
0697
1822
1543
1004
08c5
0c86
06e7
06ca
19ef
1010
1792
1873
17f4
05e8
062a
09ab
0bcc
084d
07ee
140f
1550
0952
0c73
1614
1015
1016
1017
1338
0000
1500
0b08
08c9
186a
126b
13ce
188f
18b2
0936
0fb7
1782
0945
0d86
0d87
0b48
0a8a
08cb
15ed
12cf
1810
0b58
0a20
0901
0e22
0de7
0c48
0d0c
094d
0ab1
0a72
1835
1961
1742
1928
12a9
170e
1650
06a2
09c5
1966
14e7
0609
0fea
0b8b
15f3
17b8
0b01
1007
168b
0931
06b3
0697
1822
1543
1004
08c5
0c86
06e7
06ca
19ef
1010
1792
1873
17f4
05e8
062a
09ab
0bcc
084d
07ee
140f
1550
0952
0c73
1614
1015
1016
1017
1338
0000
1500
0b08
08c9
186a
126b
13ce
188f
18b2
0936
0fb7
1782
0945
0d86
0d87
0b48
0a8a
08cb
15ed
12cf
1810
0b58
0a20
0901
0e22
0de7
0c48
0d0c
094d
0ab1
0a72
1835
1961
1742
1928
12a9
170e
1650
06a2
09c5
1966
14e7
0609
0fea
0b8b
15f3
17b8
0b01
1007
168b
0931
06b3
0697
1822
1543
1004
08c5
0c86
06e7
06ca
19ef
1010
1792
1873
17f4
05e8
062a
09ab
0bcc
084d
07ee
140f
1550
0952
0c73
1614
1015
1016
1017
1338
0000
1500
0b08
08c9
186a
126b
13ce
188f
18b2
0936
0fb7
1782
0945
0d86
0d87
0b48
0a8a
08cb
15ed
12cf
1810
0b58
0a20
0901
0e22
0de7
0c48
0d0c
094d
0ab1
0a72
1835
1961
1742
1928
12a9
170e
1650
06a2
09c5
1966
14e7
0609
0fea
0b8b
15f3
17b8
0b01
1007
168b
0931
06b3
0697
1822
1543
1004
08c5
0c86
06e7
06ca
19ef
1010
1792
1873
17f4
05e8
062a
09ab
0bcc
084d
07ee
140f
1550
0952
0c73
1614
1015
1016
1017
1338
0000
1500
0b08
08c9
186a
126b
13ce
188f
18b2
0936
0fb7
1782
0945
0d86
0d87
0b48
0a8a
08cb
15ed
12cf
1810
0b58
0a20
0901
0e22
0de7
0c48
0d0c
094d
0ab1
0a72
1835
1961
1742
1928
12a9
170e
1650
06a2
09c5
1966
14e7
0609
0fea
0b8b
15f3
17b8
0b01
1007
168b
0931
06b3
0697
1822
1543
1004
08c5
0c86
06e7
06ca
19ef
1010
1792
1873
17f4
05e8
062a
09ab
0bcc
084d
07ee
140f
1550
0952
0c73
1614
1015
1016
1017
1338
0000
1500
0b08
08c9
186a
126b
13ce
188f
18b2
0936
0fb7
1782
0945
0d86
0d87
0b48
0a8a
08cb
15ed
12cf
1810
0b58
0a20
0901
0e22
0de7
0c48
0d0c
094d
0ab1
0a72
1835
1961
1742
1928
12a9
170e
1650
06a2
09c5
1966
14e7
0609
0fea
0b8b
15f3
17b8
0b01
1007
168b
0931
06b3
0697
1822
1543
1004
08c5
0c86
06e7
06ca
19ef
1010
1792
1873
17f4
05e8
062a
09ab
0bcc
084d
07ee
140f
1550
0952
0c73
1614
1015
1016
1017
1338
0000
1500
0b08
08c9
186a
126b
13ce
188f
18b2
0936
0fb7
1782
0945
0d86
0d87
0b48
0a8a
08cb
15ed
12cf
1810
0b58
0a20
0901
0e22
0de7
0c48
0d0c
094d
0ab1
0a72
1835
1961
1742
1928
12a9
170e
1650
06a2
09c5
1966
14e7
0609
0fea
0b8b
15f3
17b8
0b01
1007
168b
0931
06b3
0697
1822
1543
1004
08c5
0c86
06e7
06ca
19ef
1010
1792
1873
17f4
05e8
062a
09ab
0bcc
084d
07ee
140f
1550
0952
0c73
1614
1015
1016
1017
1338
0000
1500
0b08
08c9
186a
126b
13ce
188f
18b2
0936
0fb7
1782
0945
0d86
0d87
0b48
0a8a
08cb
15ed
12cf
1810
0b58
0a20
0901
0e22
0de7
0c48
0d0c
094d
0ab1
0a72
1835
1961
1742
1928
12a9
170e
1650
06a2
09c5
1966
14e7
0609
0fea
0b8b
15f3
17b8
0b01
1007
168b
0931
06b3
0697
1822
1543
1004
08c5
0c86
06e7
06ca
19ef
1010
1792
1873
17f4
05e8
062a
09ab
0bcc
084d
07ee
140f
1550
0952
0c73
1614
1015
1016
1017
1338
0000
1500
0b08
08c9
186a
126b
13ce
188f
18b2
0936
0fb7
1782
0945
0d86
0d87
0b48
0a8a
08cb
15ed
12cf
1810
0b58
0a20
0901
0e22
0de7
0c48
0d0c
094d
0ab1
0a72
1835
1961
1742
1928
12a9
170e
1650
06a2
09c5
1966
14e7
0609
0fea
0b8b
15f3
17b8
0b01
1007
168b
0931
06b3
0697
1822
1543
1004
08c5
0c86
06e7
06ca
19ef
1010
1792
1873
17f4
05e8
062a
09ab
0bcc
084d
07ee
140f
1550
0952
0c73
1614
1015
1016
1017
1338
0000
1500
0b08
08c9
186a
126b
13ce
188f
18b2
0936
0fb7
1782
0945
0d86
0d87
0b48
0a8a
08cb
15ed
12cf
1810
0b58
0a20
0901
0e22
0de7
0c48
0d0c
094d
0ab1
0a72
1835
1961
1742
1928
12a9
170e
1650
06a2
09c5
1966
14e7
0609
0fea
0b8b
15f3
17b8
0b01
1007
168b
0931
06b3
0697
1822
1543
1004
08c5
0c86
06e7
06ca
19ef
1010
1792
1873
17f4
05e8
062a
09ab
0bcc
084d
07ee
140f
1550
0952
0c73
1614
1015
1016
1017
1338
0000
1500
0b08
08c9
186a
126b
13ce
188f
18b2
0936
0fb7
1782
0945
0d86
0d87
0b48
0a8a
08cb
15ed
12cf
1810
0b58
0a20
0901
0e22
0de7
0c48
0d0c
094d
0ab1
0a72
1835
1961
1742
1928
12a9
170e
1650
06a2
09c5
1966
14e7
0609
0fea
0b8b
15f3
17b8
0b01
1007
168b
0931
06b3
0697
1822
1543
1004
08c5
0c86
06e7
06ca
19ef
1010
1792
1873
17f4
05e8
062a
09ab
0bcc
084d
07ee
140f
1550
0952
0c73
1614
1015
1016
1017
1338
0000
1941
17a5
12aa
14b3
0c35
0756
1887
190b
13ec
0817
19e0
0942
0963
14a5
0746
0b87
082b
070c
164d
1845
0eeb
0a2c
100d
07ef
0ff0
1012
1436
192a
092e
158f
17f0
1451
18f2
1314
18d5
1877
0861
076f
07b0
19c4
0785
080c
18d5
1ad6
18d8
0960
0723
0765
06e7
07ed
170f
1510
1a91
1a74
1815
18d6
0000
1941
17a5
12aa
14b3
0c35
0756
1887
190b
13ec
0817
19e0
0942
0963
14a5
0746
0b87
082b
070c
164d
1845
0eeb
0a2c
100d
07ef
0ff0
1012
1436
192a
092e
158f
17f0
1451
18f2
1314
18d5
1877
0861
076f
07b0
19c4
0785
080c
18d5
1ad6
18d8
0960
0723
0765
06e7
07ed
170f
1510
1a91
1a74
1815
18d6
0000
1941
17a5
12aa
14b3
0c35
0756
1887
190b
13ec
0817
19e0
0942
0963
14a5
0746
0b87
082b
070c
164d
1845
0eeb
0a2c
100d
07ef
0ff0
1012
1436
192a
092e
158f
17f0
1451
18f2
1314
18d5
1877
0861
076f
07b0
19c4
0785
080c
18d5
1ad6
18d8
0960
0723
0765
06e7
07ed
170f
1510
1a91
1a74
1815
18d6
0000
1941
17a5
12aa
14b3
0c35
0756
1887
190b
13ec
0817
19e0
0942
0963
14a5
0746
0b87
082b
070c
164d
1845
0eeb
0a2c
100d
07ef
0ff0
1012
1436
192a
092e
158f
17f0
1451
18f2
1314
18d5
1877
0861
076f
07b0
19c4
0785
080c
18d5
1ad6
18d8
0960
0723
0765
06e7
07ed
170f
1510
1a91
1a74
1815
18d6
0000
1941
17a5
12aa
14b3
0c35
0756
1887
190b
13ec
0817
19e0
0942
0963
14a5
0746
0b87
082b
070c
164d
1845
0eeb
0a2c
100d
07ef
0ff0
1012
1436
192a
092e
158f
17f0
1451
18f2
1314
18d5
1877
0861
076f
07b0
19c4
0785
080c
18d5
1ad6
18d8
0960
0723
0765
06e7
07ed
170f
1510
1a91
1a74
1815
18d6
0000
1941
17a5
12aa
14b3
0c35
0756
1887
190b
13ec
0817
19e0
0942
0963
14a5
0746
0b87
082b
070c
164d
1845
0eeb
0a2c
100d
07ef
0ff0
1012
1436
192a
092e
158f
17f0
1451
18f2
1314
18d5
1877
0861
076f
07b0
19c4
0785
080c
18d5
1ad6
18d8
0960
0723
0765
06e7
07ed
170f
1510
1a91
1a74
1815
18d6
0000
1941
17a5
12aa
14b3
0c35
0756
1887
190b
13ec
0817
19e0
0942
0963
14a5
0746
0b87
082b
070c
164d
1845
0eeb
0a2c
100d
07ef
0ff0
1012
1436
192a
092e
158f
17f0
1451
18f2
1314
18d5
1877
0861
076f
07b0
19c4
0785
080c
18d5
1ad6
18d8
0960
0723
0765
06e7
07ed
170f
1510
1a91
1a74
1815
18d6
0000
1941
17a5
12aa
14b3
0c35
0756
1887
190b
13ec
0817
19e0
0942
0963
14a5
0746
0b87
082b
070c
164d
1845
0eeb
0a2c
100d
07ef
0ff0
1012
1436
192a
092e
158f
17f0
1451
18f2
1314
18d5
1877
0861
076f
07b0
19c4
0785
080c
18d5
1ad6
18d8
0960
0723
0765
06e7
07ed
170f
1510
1a91
1a74
1815
18d6
0000
1941
17a5
12aa
14b3
0c35
0756
1887
190b
13ec
0817
19e0
0942
0963
14a5
0746
0b87
082b
070c
164d
1845
0eeb
0a2c
100d
07ef
0ff0
1012
1436
192a
092e
158f
17f0
1451
18f2
1314
18d5
1877
0861
076f
07b0
19c4
0785
080c
18d5
1ad6
18d8
0960
0723
0765
06e7
07ed
170f
1510
1a91
1a74
1815
18d6
0000
1941
17a5
12aa
14b3
0c35
0756
1887
190b
13ec
0817
19e0
0942
0963
14a5
0746
0b87
082b
070c
164d
1845
0eeb
0a2c
100d
07ef
0ff0
1012
1436
192a
092e
158f
17f0
1451
18f2
1314
18d5
1877
0861
076f
07b0
19c4
0785
080c
18d5
1ad6
18d8
0960
0723
0765
06e7
07ed
170f
1510
1a91
1a74
1815
18d6
0000
1941
17a5
12aa
14b3
0c35
0756
1887
190b
13ec
0817
19e0
0942
0963
14a5
0746
0b87
082b
070c
164d
1845
0eeb
0a2c
100d
07ef
0ff0
1012
1436
192a
092e
158f
17f0
1451
18f2
1314
18d5
1877
0861
076f
07b0
19c4
0785
080c
18d5
1ad6
18d8
0960
0723
0765
06e7
07ed
170f
1510
1a91
1a74
1815
18d6
0000
1941
17a5
12aa
14b3
0c35
0756
1887
190b
13ec
0817
19e0
0942
0963
14a5
0746
0b87
082b
070c
164d
1845
0eeb
0a2c
100d
07ef
0ff0
1012
1436
192a
092e
158f
17f0
1451
18f2
1314
18d5
1877
0861
076f
07b0
19c4
0785
080c
18d5
1ad6
18d8
0960
0723
0765
06e7
07ed
170f
1510
1a91
1a74
1815
18d6
0000
1941
17a5
12aa
14b3
0c35
0756
1887
190b
13ec
0817
19e0
0942
0963
14a5
0746
0b87
082b
070c
164d
1845
0eeb
0a2c
100d
07ef
0ff0
1012
1436
192a
092e
158f
17f0
1451
18f2
1314
18d5
1877
0861
076f
07b0
19c4
0785
080c
18d5
1ad6
18d8
0960
0723
0765
06e7
07ed
170f
1510
1a91
1a74
1815
18d6
0000
1941
17a5
12aa
14b3
0c35
0756
1887
190b
13ec
0817
19e0
0942
0963
14a5
0746
0b87
082b
070c
164d
1845
0eeb
0a2c
100d
07ef
0ff0
1012
1436
192a
092e
158f
17f0
1451
18f2
1314
18d5
1877
0861
076f
07b0
19c4
0785
080c
18d5
1ad6
18d8
0960
0723
0765
06e7
07ed
170f
1510
1a91
1a74
1815
18d6
0000
1941
17a5
12aa
14b3
0c35
0756
1887
190b
13ec
0817
19e0
0942
0963
14a5
0746
0b87
082b
070c
164d
1845
0eeb
0a2c
100d
07ef
0ff0
1012
1436
192a
092e
158f
17f0
1451
18f2
1314
18d5
1877
0861
076f
07b0
19c4
0785
080c
18d5
1ad6
18d8
0960
0723
0765
06e7
07ed
170f
1510
1a91
1a74
1815
18d6
0000
1941
17a5
12aa
14b3
0c35
0756
1887
190b
13ec
0817
19e0
0942
0963
14a5
0746
0b87
082b
070c
164d
1845
0eeb
0a2c
100d
07ef
0ff0
1012
1436
192a
092e
158f
17f0
1451
18f2
1314
18d5
1877
0861
076f
07b0
19c4
0785
080c
18d5
1ad6
18d8
0960
0723
0765
06e7
07ed
170f
1510
1a91
1a74
1815
18d6
0000
0a31
08d5
08f7
1728
18c9
168a
100b
1845
1686
1909
080c
15cf
0aa1
0c86
1528
174a
18cd
1997
146c
1512
1858
1aa2
08e9
0b6c
094d
19ae
05cf
09b0
0691
13d2
1013
0ff4
0695
1016
1577
1018
1900
19a8
19a9
194e
138f
1910
0991
0895
0856
17f8
0661
0682
0809
19cc
1011
15f2
1757
1978
0000
0a31
08d5
08f7
1728
18c9
168a
100b
1845
1686
1909
080c
15cf
0aa1
0c86
1528
174a
18cd
1997
146c
1512
1858
1aa2
08e9
0b6c
094d
19ae
05cf
09b0
0691
13d2
1013
0ff4
0695
1016
1577
1018
1900
19a8
19a9
194e
138f
1910
0991
0895
0856
17f8
0661
0682
0809
19cc
1011
15f2
1757
1978
0000
0a31
08d5
08f7
1728
18c9
168a
100b
1845
1686
1909
080c
15cf
0aa1
0c86
1528
174a
18cd
1997
146c
1512
1858
1aa2
08e9
0b6c
094d
19ae
05cf
09b0
0691
13d2
1013
0ff4
0695
1016
1577
1018
1900
19a8
19a9
194e
138f
1910
0991
0895
0856
17f8
0661
0682
0809
19cc
1011
15f2
1757
1978
0000
0a31
08d5
08f7
1728
18c9
168a
100b
1845
1686
1909
080c
15cf
0aa1
0c86
1528
174a
18cd
1997
146c
1512
1858
1aa2
08e9
0b6c
094d
19ae
05cf
09b0
0691
13d2
1013
0ff4
0695
1016
1577
1018
1900
19a8
19a9
194e
138f
1910
0991
0895
0856
17f8
0661
0682
0809
19cc
1011
15f2
1757
1978
0000
0a31
08d5
08f7
1728
18c9
168a
100b
1845
1686
1909
080c
15cf
0aa1
0c86
1528
174a
18cd
1997
146c
1512
1858
1aa2
08e9
0b6c
094d
19ae
05cf
09b0
0691
13d2
1013
0ff4
0695
1016
1577
1018
1900
19a8
19a9
194e
138f
1910
0991
0895
0856
17f8
0661
0682
0809
19cc
1011
15f2
1757
1978
0000
0a31
08d5
08f7
1728
18c9
168a
100b
1845
1686
1909
080c
15cf
0aa1
0c86
1528
174a
18cd
1997
146c
1512
1858
1aa2
08e9
0b6c
094d
19ae
05cf
09b0
0691
13d2
1013
0ff4
0695
1016
1577
1018
1900
19a8
19a9
194e
138f
1910
0991
0895
0856
17f8
0661
0682
0809
19cc
1011
15f2
1757
1978
0000
0a31
08d5
08f7
1728
18c9
168a
100b
1845
1686
1909
080c
15cf
0aa1
0c86
1528
174a
18cd
1997
146c
1512
1858
1aa2
08e9
0b6c
094d
19ae
05cf
09b0
0691
13d2
1013
0ff4
0695
1016
1577
1018
1900
19a8
19a9
194e
138f
1910
0991
0895
0856
17f8
0661
0682
0809
19cc
1011
15f2
1757
1978
0000
0a31
08d5
08f7
1728
18c9
168a
100b
1845
1686
1909
080c
15cf
0aa1
0c86
1528
174a
18cd
1997
146c
1512
1858
1aa2
08e9
0b6c
094d
19ae
05cf
09b0
0691
13d2
1013
0ff4
0695
1016
1577
1018
1900
19a8
19a9
194e
138f
1910
0991
0895
0856
17f8
0661
0682
0809
19cc
1011
15f2
1757
1978
0000
0a31
08d5
08f7
1728
18c9
168a
100b
1845
1686
1909
080c
15cf
0aa1
0c86
1528
174a
18cd
1997
146c
1512
1858
1aa2
08e9
0b6c
094d
19ae
05cf
09b0
0691
13d2
1013
0ff4
0695
1016
1577
1018
1900
19a8
19a9
194e
138f
1910
0991
0895
0856
17f8
0661
0682
0809
19cc
1011
15f2
1757
1978
0000
0a31
08d5
08f7
1728
18c9
168a
100b
1845
1686
1909
080c
15cf
0aa1
0c86
1528
174a
18cd
1997
146c
1512
1858
1aa2
08e9
0b6c
094d
19ae
05cf
09b0
0691
13d2
1013
0ff4
0695
1016
1577
1018
1900
19a8
19a9
194e
138f
1910
0991
0895
0856
17f8
0661
0682
0809
19cc
1011
15f2
1757
1978
0000
0a31
08d5
08f7
1728
18c9
168a
100b
1845
1686
1909
080c
15cf
0aa1
0c86
1528
174a
18cd
1997
146c
1512
1858
1aa2
08e9
0b6c
094d
19ae
05cf
09b0
0691
13d2
1013
0ff4
0695
1016
1577
1018
1900
19a8
19a9
194e
138f
1910
0991
0895
0856
17f8
0661
0682
0809
19cc
1011
15f2
1757
1978
0000
0a31
08d5
08f7
1728
18c9
168a
100b
1845
1686
1909
080c
15cf
0aa1
0c86
1528
174a
18cd
1997
146c
1512
1858
1aa2
08e9
0b6c
094d
19ae
05cf
09b0
0691
13d2
1013
0ff4
0695
1016
1577
1018
1900
19a8
19a9
194e
138f
1910
0991
0895
0856
17f8
0661
0682
0809
19cc
1011
15f2
1757
1978
0000
0a31
08d5
08f7
1728
18c9
168a
100b
1845
1686
1909
080c
15cf
0aa1
0c86
1528
174a
18cd
1997
146c
1512
1858
1aa2
08e9
0b6c
094d
19ae
05cf
09b0
0691
13d2
1013
0ff4
0695
1016
1577
1018
1900
19a8
19a9
194e
138f
1910
0991
0895
0856
17f8
0661
0682
0809
19cc
1011
15f2
1757
1978
0000
0a31
08d5
08f7
1728
18c9
168a
100b
1845
1686
1909
080c
15cf
0aa1
0c86
1528
174a
18cd
1997
146c
1512
1858
1aa2
08e9
0b6c
094d
19ae
05cf
09b0
0691
13d2
1013
0ff4
0695
1016
1577
1018
1900
19a8
19a9
194e
138f
1910
0991
0895
0856
17f8
0661
0682
0809
19cc
1011
15f2
1757
1978
0000
0a31
08d5
08f7
1728
18c9
168a
100b
1845
1686
1909
080c
15cf
0aa1
0c86
1528
174a
18cd
1997
146c
1512
1858
1aa2
08e9
0b6c
094d
19ae
05cf
09b0
0691
13d2
1013
0ff4
0695
1016
1577
1018
1900
19a8
19a9
194e
138f
1910
0991
0895
0856
17f8
0661
0682
0809
19cc
1011
15f2
1757
1978
0000
0a31
08d5
08f7
1728
18c9
168a
100b
1845
1686
1909
080c
15cf
0aa1
0c86
1528
174a
18cd
1997
146c
1512
1858
1aa2
08e9
0b6c
094d
19ae
05cf
09b0
0691
13d2
1013
0ff4
0695
1016
1577
1018
1900
19a8
19a9
194e
138f
1910
0991
0895
0856
17f8
0661
0682
0809
19cc
1011
15f2
1757
1978
0000
1624
086c
090d
070e
06f0
1876
1857
14f8
0907
08c8
140a
100b
12ec
106d
12ce
07f0
06b1
06b6
1907
18e8
1a09
11cc
1710
1a31
0633
1a55
0784
14d0
1711
06ec
14af
1010
1131
1482
0a24
0f08
0aab
100d
07af
18b0
1571
1014
1858
1583
15c4
07e7
0988
0fe9
080a
09eb
06ec
0971
1755
0801
0723
07cc
07ed
146f
1570
0000
1624
086c
090d
070e
06f0
1876
1857
14f8
0907
08c8
140a
100b
12ec
106d
12ce
07f0
06b1
06b6
1907
18e8
1a09
11cc
1710
1a31
0633
1a55
0784
14d0
1711
06ec
14af
1010
1131
1482
0a24
0f08
0aab
100d
07af
18b0
1571
1014
1858
1583
15c4
07e7
0988
0fe9
080a
09eb
06ec
0971
1755
0801
0723
07cc
07ed
146f
1570
0000
1624
086c
090d
070e
06f0
1876
1857
14f8
0907
08c8
140a
100b
12ec
106d
12ce
07f0
06b1
06b6
1907
18e8
1a09
11cc
1710
1a31
0633
1a55
0784
14d0
1711
06ec
14af
1010
1131
1482
0a24
0f08
0aab
100d
07af
18b0
1571
1014
1858
1583
15c4
07e7
0988
0fe9
080a
09eb
06ec
0971
1755
0801
0723
07cc
07ed
146f
1570
0000
1624
086c
090d
070e
06f0
1876
1857
14f8
0907
08c8
140a
100b
12ec
106d
12ce
07f0
06b1
06b6
1907
18e8
1a09
11cc
1710
1a31
0633
1a55
0784
14d0
1711
06ec
14af
1010
1131
1482
0a24
0f08
0aab
100d
07af
18b0
1571
1014
1858
1583
15c4
07e7
0988
0fe9
080a
09eb
06ec
0971
1755
0801
0723
07cc
07ed
146f
1570
0000
1624
086c
090d
070e
06f0
1876
1857
14f8
0907
08c8
140a
100b
12ec
106d
12ce
07f0
06b1
06b6
1907
18e8
1a09
11cc
1710
1a31
0633
1a55
0784
14d0
1711
06ec
14af
1010
1131
1482
0a24
0f08
0aab
100d
07af
18b0
1571
1014
1858
1583
15c4
07e7
0988
0fe9
080a
09eb
06ec
0971
1755
0801
0723
07cc
07ed
146f
1570
0000
1624
086c
090d
070e
06f0
1876
1857
14f8
0907
08c8
140a
100b
12ec
106d
12ce
07f0
06b1
06b6
1907
18e8
1a09
11cc
1710
1a31
0633
1a55
0784
14d0
1711
06ec
14af
1010
1131
1482
0a24
0f08
0aab
100d
07af
18b0
1571
1014
1858
1583
15c4
07e7
0988
0fe9
080a
09eb
06ec
0971
1755
0801
0723
07cc
07ed
146f
1570
0000
1624
086c
090d
070e
06f0
1876
1857
14f8
0907
08c8
140a
100b
12ec
106d
12ce
07f0
06b1
06b6
1907
18e8
1a09
11cc
1710
1a31
0633
1a55
0784
14d0
1711
06ec
14af
1010
1131
1482
0a24
0f08
0aab
100d
07af
18b0
1571
1014
1858
1583
15c4
07e7
0988
0fe9
080a
09eb
06ec
0971
1755
0801
0723
07cc
07ed
146f
1570
0000
1624
086c
090d
070e
06f0
1876
1857
14f8
0907
08c8
140a
100b
12ec
106d
12ce
07f0
06b1
06b6
1907
18e8
1a09
11cc
1710
1a31
0633
1a55
0784
14d0
1711
06ec
14af
1010
1131
1482
0a24
0f08
0aab
100d
07af
18b0
1571
1014
1858
1583
15c4
07e7
0988
0fe9
080a
09eb
06ec
0971
1755
0801
0723
07cc
07ed
146f
1570
0000
1624
086c
090d
070e
06f0
1876
1857
14f8
0907
08c8
140a
100b
12ec
106d
12ce
07f0
06b1
06b6
1907
18e8
1a09
11cc
1710
1a31
0633
1a55
0784
14d0
1711
06ec
14af
1010
1131
1482
0a24
0f08
0aab
100d
07af
18b0
1571
1014
1858
1583
15c4
07e7
0988
0fe9
080a
09eb
06ec
0971
1755
0801
0723
07cc
07ed
146f
1570
0000
1624
086c
090d
070e
06f0
1876
1857
14f8
0907
08c8
140a
100b
12ec
106d
12ce
07f0
06b1
06b6
1907
18e8
1a09
11cc
1710
1a31
0633
1a55
0784
14d0
1711
06ec
14af
1010
1131
1482
0a24
0f08
0aab
100d
07af
18b0
1571
1014
1858
1583
15c4
07e7
0988
0fe9
080a
09eb
06ec
0971
1755
0801
0723
07cc
07ed
146f
1570
0000
1624
086c
090d
070e
06f0
1876
1857
14f8
0907
08c8
140a
100b
12ec
106d
12ce
07f0
06b1
06b6
1907
18e8
1a09
11cc
1710
1a31
0633
1a55
0784
14d0
1711
06ec
14af
1010
1131
1482
0a24
0f08
0aab
100d
07af
18b0
1571
1014
1858
1583
15c4
07e7
0988
0fe9
080a
09eb
06ec
0971
1755
0801
0723
07cc
07ed
146f
1570
0000
1624
086c
090d
070e
06f0
1876
1857
14f8
0907
08c8
140a
100b
12ec
106d
12ce
07f0
06b1
06b6
1907
18e8
1a09
11cc
1710
1a31
0633
1a55
0784
14d0
1711
06ec
14af
1010
1131
1482
0a24
0f08
0aab
100d
07af
18b0
1571
1014
1858
1583
15c4
07e7
0988
0fe9
080a
09eb
06ec
0971
1755
0801
0723
07cc
07ed
146f
1570
0000
1624
086c
090d
070e
06f0
1876
1857
14f8
0907
08c8
140a
100b
12ec
106d
12ce
07f0
06b1
06b6
1907
18e8
1a09
11cc
1710
1a31
0633
1a55
0784
14d0
1711
06ec
14af
1010
1131
1482
0a24
0f08
0aab
100d
07af
18b0
1571
1014
1858
1583
15c4
07e7
0988
0fe9
080a
09eb
06ec
0971
1755
0801
0723
07cc
07ed
146f
1570
0000
1624
086c
090d
070e
06f0
1876
1857
14f8
0907
08c8
140a
100b
12ec
106d
12ce
07f0
06b1
06b6
1907
18e8
1a09
11cc
1710
1a31
0633
1a55
0784
14d0
1711
06ec
14af
1010
1131
1482
0a24
0f08
0aab
100d
07af
18b0
1571
1014
1858
1583
15c4
07e7
0988
0fe9
080a
09eb
06ec
0971
1755
0801
0723
07cc
07ed
146f
1570
0000
1624
086c
090d
070e
06f0
1876
1857
14f8
0907
08c8
140a
100b
12ec
106d
12ce
07f0
06b1
06b6
1907
18e8
1a09
11cc
1710
1a31
0633
1a55
0784
14d0
1711
06ec
14af
1010
1131
1482
0a24
0f08
0aab
100d
07af
18b0
1571
1014
1858
1583
15c4
07e7
0988
0fe9
080a
09eb
06ec
0971
1755
0801
0723
07cc
07ed
146f
1570
0000
1624
086c
090d
070e
06f0
1876
1857
14f8
0907
08c8
140a
100b
12ec
106d
12ce
07f0
06b1
06b6
1907
18e8
1a09
11cc
1710
1a31
0633
1a55
0784
14d0
1711
06ec
14af
1010
1131
1482
0a24
0f08
0aab
100d
07af
18b0
1571
1014
1858
1583
15c4
07e7
0988
0fe9
080a
09eb
06ec
0971
1755
0801
0723
07cc
07ed
146f
1570
0000
1743
0fe5
0a06
1728
14a9
0eca
0c2b
0c8c
16ee
0a31
0895
0cf6
1266
1007
11e8
17e9
176a
0ecd
0fee
09b0
0a51
1876
12a1
1582
1524
0b8c
0a6d
08ae
0a73
0b57
1241
1904
1625
1006
18c7
1928
190b
196c
0dcf
17f6
1898
0940
1943
11a4
09c7
09c8
1a89
076c
0eed
1ab0
12d1
0913
18f7
1ab8
0887
19e9
13ad
152e
076f
17d1
1015
17d8
09c2
0703
15cb
17ec
1a4d
18ee
1713
1a17
1498
0747
07c8
0a89
06d5
0000
1743
0fe5
0a06
1728
14a9
0eca
0c2b
0c8c
16ee
0a31
0895
0cf6
1266
1007
11e8
17e9
176a
0ecd
0fee
09b0
0a51
1876
12a1
1582
1524
0b8c
0a6d
08ae
0a73
0b57
1241
1904
1625
1006
18c7
1928
190b
196c
0dcf
17f6
1898
0940
1943
11a4
09c7
09c8
1a89
076c
0eed
1ab0
12d1
0913
18f7
1ab8
0887
19e9
13ad
152e
076f
17d1
1015
17d8
09c2
0703
15cb
17ec
1a4d
18ee
1713
1a17
1498
0747
07c8
0a89
06d5
0000
1743
0fe5
0a06
1728
14a9
0eca
0c2b
0c8c
16ee
0a31
0895
0cf6
1266
1007
11e8
17e9
176a
0ecd
0fee
09b0
0a51
1876
12a1
1582
1524
0b8c
0a6d
08ae
0a73
0b57
1241
1904
1625
1006
18c7
1928
190b
196c
0dcf
17f6
1898
0940
1943
11a4
09c7
09c8
1a89
076c
0eed
1ab0
12d1
0913
18f7
1ab8
0887
19e9
13ad
152e
076f
17d1
1015
17d8
09c2
0703
15cb
17ec
1a4d
18ee
1713
1a17
1498
0747
07c8
0a89
06d5
0000
1743
0fe5
0a06
1728
14a9
0eca
0c2b
0c8c
16ee
0a31
0895
0cf6
1266
1007
11e8
17e9
176a
0ecd
0fee
09b0
0a51
1876
12a1
1582
1524
0b8c
0a6d
08ae
0a73
0b57
1241
1904
1625
1006
18c7
1928
190b
196c
0dcf
17f6
1898
0940
1943
11a4
09c7
09c8
1a89
076c
0eed
1ab0
12d1
0913
18f7
1ab8
0887
19e9
13ad
152e
076f
17d1
1015
17d8
09c2
0703
15cb
17ec
1a4d
18ee
1713
1a17
1498
0747
07c8
0a89
06d5
0000
1743
0fe5
0a06
1728
14a9
0eca
0c2b
0c8c
16ee
0a31
0895
0cf6
1266
1007
11e8
17e9
176a
0ecd
0fee
09b0
0a51
1876
12a1
1582
1524
0b8c
0a6d
08ae
0a73
0b57
1241
1904
1625
1006
18c7
1928
190b
196c
0dcf
17f6
1898
0940
1943
11a4
09c7
09c8
1a89
076c
0eed
1ab0
12d1
0913
18f7
1ab8
0887
19e9
13ad
152e
076f
17d1
1015
17d8
09c2
0703
15cb
17ec
1a4d
18ee
1713
1a17
1498
0747
07c8
0a89
06d5
0000
1743
0fe5
0a06
1728
14a9
0eca
0c2b
0c8c
16ee
0a31
0895
0cf6
1266
1007
11e8
17e9
176a
0ecd
0fee
09b0
0a51
1876
12a1
1582
1524
0b8c
0a6d
08ae
0a73
0b57
1241
1904
1625
1006
18c7
1928
190b
196c
0dcf
17f6
1898
0940
1943
11a4
09c7
09c8
1a89
076c
0eed
1ab0
12d1
0913
18f7
1ab8
0887
19e9
13ad
152e
076f
17d1
1015
17d8
09c2
0703
15cb
17ec
1a4d
18ee
1713
1a17
1498
0747
07c8
0a89
06d5
0000
1743
0fe5
0a06
1728
14a9
0eca
0c2b
0c8c
16ee
0a31
0895
0cf6
1266
1007
11e8
17e9
176a
0ecd
0fee
09b0
0a51
1876
12a1
1582
1524
0b8c
0a6d
08ae
0a73
0b57
1241
1904
1625
1006
18c7
1928
190b
196c
0dcf
17f6
1898
0940
1943
11a4
09c7
09c8
1a89
076c
0eed
1ab0
12d1
0913
18f7
1ab8
0887
19e9
13ad
152e
076f
17d1
1015
17d8
09c2
0703
15cb
17ec
1a4d
18ee
1713
1a17
1498
0747
07c8
0a89
06d5
0000
1743
0fe5
0a06
1728
14a9
0eca
0c2b
0c8c
16ee
0a31
0895
0cf6
1266
1007
11e8
17e9
176a
0ecd
0fee
09b0
0a51
1876
12a1
1582
1524
0b8c
0a6d
08ae
0a73
0b57
1241
1904
1625
1006
18c7
1928
190b
196c
0dcf
17f6
1898
0940
1943
11a4
09c7
09c8
1a89
076c
0eed
1ab0
12d1
0913
18f7
1ab8
0887
19e9
13ad
152e
076f
17d1
1015
17d8
09c2
0703
15cb
17ec
1a4d
18ee
1713
1a17
1498
0747
07c8
0a89
06d5
0000
1743
0fe5
0a06
1728
14a9
0eca
0c2b
0c8c
16ee
0a31
0895
0cf6
1266
1007
11e8
17e9
176a
0ecd
0fee
09b0
0a51
1876
12a1
1582
1524
0b8c
0a6d
08ae
0a73
0b57
1241
1904
1625
1006
18c7
1928
190b
196c
0dcf
17f6
1898
0940
1943
11a4
09c7
09c8
1a89
076c
0eed
1ab0
12d1
0913
18f7
1ab8
0887
19e9
13ad
152e
076f
17d1
1015
17d8
09c2
0703
15cb
17ec
1a4d
18ee
1713
1a17
1498
0747
07c8
0a89
06d5
0000
1743
0fe5
0a06
1728
14a9
0eca
0c2b
0c8c
16ee
0a31
0895
0cf6
1266
1007
11e8
17e9
176a
0ecd
0fee
09b0
0a51
1876
12a1
1582
1524
0b8c
0a6d
08ae
0a73
0b57
1241
1904
1625
1006
18c7
1928
190b
196c
0dcf
17f6
1898
0940
1943
11a4
09c7
09c8
1a89
076c
0eed
1ab0
12d1
0913
18f7
1ab8
0887
19e9
13ad
152e
076f
17d1
1015
17d8
09c2
0703
15cb
17ec
1a4d
18ee
1713
1a17
1498
0747
07c8
0a89
06d5
0000
1743
0fe5
0a06
1728
14a9
0eca
0c2b
0c8c
16ee
0a31
0895
0cf6
1266
1007
11e8
17e9
176a
0ecd
0fee
09b0
0a51
1876
12a1
1582
1524
0b8c
0a6d
08ae
0a73
0b57
1241
1904
1625
1006
18c7
1928
190b
196c
0dcf
17f6
1898
0940
1943
11a4
09c7
09c8
1a89
076c
0eed
1ab0
12d1
0913
18f7
1ab8
0887
19e9
13ad
152e
076f
17d1
1015
17d8
09c2
0703
15cb
17ec
1a4d
18ee
1713
1a17
1498
0747
07c8
0a89
06d5
0000
1743
0fe5
0a06
1728
14a9
0eca
0c2b
0c8c
16ee
0a31
0895
0cf6
1266
1007
11e8
17e9
176a
0ecd
0fee
09b0
0a51
1876
12a1
1582
1524
0b8c
0a6d
08ae
0a73
0b57
1241
1904
1625
1006
18c7
1928
190b
196c
0dcf
17f6
1898
0940
1943
11a4
09c7
09c8
1a89
076c
0eed
1ab0
12d1
0913
18f7
1ab8
0887
19e9
13ad
152e
076f
17d1
1015
17d8
09c2
0703
15cb
17ec
1a4d
18ee
1713
1a17
1498
0747
07c8
0a89
06d5
0000
1743
0fe5
0a06
1728
14a9
0eca
0c2b
0c8c
16ee
0a31
0895
0cf6
1266
1007
11e8
17e9
176a
0ecd
0fee
09b0
0a51
1876
12a1
1582
1524
0b8c
0a6d
08ae
0a73
0b57
1241
1904
1625
1006
18c7
1928
190b
196c
0dcf
17f6
1898
0940
1943
11a4
09c7
09c8
1a89
076c
0eed
1ab0
12d1
0913
18f7
1ab8
0887
19e9
13ad
152e
076f
17d1
1015
17d8
09c2
0703
15cb
17ec
1a4d
18ee
1713
1a17
1498
0747
07c8
0a89
06d5
0000
1743
0fe5
0a06
1728
14a9
0eca
0c2b
0c8c
16ee
0a31
0895
0cf6
1266
1007
11e8
17e9
176a
0ecd
0fee
09b0
0a51
1876
12a1
1582
1524
0b8c
0a6d
08ae
0a73
0b57
1241
1904
1625
1006
18c7
1928
190b
196c
0dcf
17f6
1898
0940
1943
11a4
09c7
09c8
1a89
076c
0eed
1ab0
12d1
0913
18f7
1ab8
0887
19e9
13ad
152e
076f
17d1
1015
17d8
09c2
0703
15cb
17ec
1a4d
18ee
1713
1a17
1498
0747
07c8
0a89
06d5
0000
1743
0fe5
0a06
1728
14a9
0eca
0c2b
0c8c
16ee
0a31
0895
0cf6
1266
1007
11e8
17e9
176a
0ecd
0fee
09b0
0a51
1876
12a1
1582
1524
0b8c
0a6d
08ae
0a73
0b57
1241
1904
1625
1006
18c7
1928
190b
196c
0dcf
17f6
1898
0940
1943
11a4
09c7
09c8
1a89
076c
0eed
1ab0
12d1
0913
18f7
1ab8
0887
19e9
13ad
152e
076f
17d1
1015
17d8
09c2
0703
15cb
17ec
1a4d
18ee
1713
1a17
1498
0747
07c8
0a89
06d5
0000
1743
0fe5
0a06
1728
14a9
0eca
0c2b
0c8c
16ee
0a31
0895
0cf6
1266
1007
11e8
17e9
176a
0ecd
0fee
09b0
0a51
1876
12a1
1582
1524
0b8c
0a6d
08ae
0a73
0b57
1241
1904
1625
1006
18c7
1928
190b
196c
0dcf
17f6
1898
0940
1943
11a4
09c7
09c8
1a89
076c
0eed
1ab0
12d1
0913
18f7
1ab8
0887
19e9
13ad
152e
076f
17d1
1015
17d8
09c2
0703
15cb
17ec
1a4d
18ee
1713
1a17
1498
0747
07c8
0a89
06d5
0000
15a3
1465
1a4a
184b
184f
1a58
1943
0707
1751
1892
1561
07c3
13c6
0727
0988
194a
19eb
06cc
06ad
1645
0bc7
15ca
0fec
134e
156f
07f0
0b31
11b3
0ee7
1615
19d8
0038
1944
1809
18eb
16ec
18f8
0621
1934
1935
1856
1517
0000
15a3
1465
1a4a
184b
184f
1a58
1943
0707
1751
1892
1561
07c3
13c6
0727
0988
194a
19eb
06cc
06ad
1645
0bc7
15ca
0fec
134e
156f
07f0
0b31
11b3
0ee7
1615
19d8
0038
1944
1809
18eb
16ec
18f8
0621
1934
1935
1856
1517
0000
15a3
1465
1a4a
184b
184f
1a58
1943
0707
1751
1892
1561
07c3
13c6
0727
0988
194a
19eb
06cc
06ad
1645
0bc7
15ca
0fec
134e
156f
07f0
0b31
11b3
0ee7
1615
19d8
0038
1944
1809
18eb
16ec
18f8
0621
1934
1935
1856
1517
0000
15a3
1465
1a4a
184b
184f
1a58
1943
0707
1751
1892
1561
07c3
13c6
0727
0988
194a
19eb
06cc
06ad
1645
0bc7
15ca
0fec
134e
156f
07f0
0b31
11b3
0ee7
1615
19d8
0038
1944
1809
18eb
16ec
18f8
0621
1934
1935
1856
1517
0000
15a3
1465
1a4a
184b
184f
1a58
1943
0707
1751
1892
1561
07c3
13c6
0727
0988
194a
19eb
06cc
06ad
1645
0bc7
15ca
0fec
134e
156f
07f0
0b31
11b3
0ee7
1615
19d8
0038
1944
1809
18eb
16ec
18f8
0621
1934
1935
1856
1517
0000
15a3
1465
1a4a
184b
184f
1a58
1943
0707
1751
1892
1561
07c3
13c6
0727
0988
194a
19eb
06cc
06ad
1645
0bc7
15ca
0fec
134e
156f
07f0
0b31
11b3
0ee7
1615
19d8
0038
1944
1809
18eb
16ec
18f8
0621
1934
1935
1856
1517
0000
15a3
1465
1a4a
184b
184f
1a58
1943
0707
1751
1892
1561
07c3
13c6
0727
0988
194a
19eb
06cc
06ad
1645
0bc7
15ca
0fec
134e
156f
07f0
0b31
11b3
0ee7
1615
19d8
0038
1944
1809
18eb
16ec
18f8
0621
1934
1935
1856
1517
0000
15a3
1465
1a4a
184b
184f
1a58
1943
0707
1751
1892
1561
07c3
13c6
0727
0988
194a
19eb
06cc
06ad
1645
0bc7
15ca
0fec
134e
156f
07f0
0b31
11b3
0ee7
1615
19d8
0038
1944
1809
18eb
16ec
18f8
0621
1934
1935
1856
1517
0000
15a3
1465
1a4a
184b
184f
1a58
1943
0707
1751
1892
1561
07c3
13c6
0727
0988
194a
19eb
06cc
06ad
1645
0bc7
15ca
0fec
134e
156f
07f0
0b31
11b3
0ee7
1615
19d8
0038
1944
1809
18eb
16ec
18f8
0621
1934
1935
1856
1517
0000
15a3
1465
1a4a
184b
184f
1a58
1943
0707
1751
1892
1561
07c3
13c6
0727
0988
194a
19eb
06cc
06ad
1645
0bc7
15ca
0fec
134e
156f
07f0
0b31
11b3
0ee7
1615
19d8
0038
1944
1809
18eb
16ec
18f8
0621
1934
1935
1856
1517
0000
15a3
1465
1a4a
184b
184f
1a58
1943
0707
1751
1892
1561
07c3
13c6
0727
0988
194a
19eb
06cc
06ad
1645
0bc7
15ca
0fec
134e
156f
07f0
0b31
11b3
0ee7
1615
19d8
0038
1944
1809
18eb
16ec
18f8
0621
1934
1935
1856
1517
0000
15a3
1465
1a4a
184b
184f
1a58
1943
0707
1751
1892
1561
07c3
13c6
0727
0988
194a
19eb
06cc
06ad
1645
0bc7
15ca
0fec
134e
156f
07f0
0b31
11b3
0ee7
1615
19d8
0038
1944
1809
18eb
16ec
18f8
0621
1934
1935
1856
1517
0000
15a3
1465
1a4a
184b
184f
1a58
1943
0707
1751
1892
1561
07c3
13c6
0727
0988
194a
19eb
06cc
06ad
1645
0bc7
15ca
0fec
134e
156f
07f0
0b31
11b3
0ee7
1615
19d8
0038
1944
1809
18eb
16ec
18f8
0621
1934
1935
1856
1517
0000
15a3
1465
1a4a
184b
184f
1a58
1943
0707
1751
1892
1561
07c3
13c6
0727
0988
194a
19eb
06cc
06ad
1645
0bc7
15ca
0fec
134e
156f
07f0
0b31
11b3
0ee7
1615
19d8
0038
1944
1809
18eb
16ec
18f8
0621
1934
1935
1856
1517
0000
15a3
1465
1a4a
184b
184f
1a58
1943
0707
1751
1892
1561
07c3
13c6
0727
0988
194a
19eb
06cc
06ad
1645
0bc7
15ca
0fec
134e
156f
07f0
0b31
11b3
0ee7
1615
19d8
0038
1944
1809
18eb
16ec
18f8
0621
1934
1935
1856
1517
0000
15a3
1465
1a4a
184b
184f
1a58
1943
0707
1751
1892
1561
07c3
13c6
0727
0988
194a
19eb
06cc
06ad
1645
0bc7
15ca
0fec
134e
156f
07f0
0b31
11b3
0ee7
1615
19d8
0038
1944
1809
18eb
16ec
18f8
0621
1934
1935
1856
1517
0000
18a7
16c8
174e
07cf
0c18
0c25
1009
13cb
138c
124d
164e
1167
16c8
16a9
16ac
160d
14a0
0c82
07c3
1845
0c67
092c
0953
19a3
17a9
076d
1a8e
17ef
08b3
0677
0a18
1966
1947
198b
072e
192f
18e1
1762
1a24
188a
074e
166f
12d0
0872
1654
1435
0697
1984
066c
06ad
18d1
1497
1598
0000
18a7
16c8
174e
07cf
0c18
0c25
1009
13cb
138c
124d
164e
1167
16c8
16a9
16ac
160d
14a0
0c82
07c3
1845
0c67
092c
0953
19a3
17a9
076d
1a8e
17ef
08b3
0677
0a18
1966
1947
198b
072e
192f
18e1
1762
1a24
188a
074e
166f
12d0
0872
1654
1435
0697
1984
066c
06ad
18d1
1497
1598
0000
18a7
16c8
174e
07cf
0c18
0c25
1009
13cb
138c
124d
164e
1167
16c8
16a9
16ac
160d
14a0
0c82
07c3
1845
0c67
092c
0953
19a3
17a9
076d
1a8e
17ef
08b3
0677
0a18
1966
1947
198b
072e
192f
18e1
1762
1a24
188a
074e
166f
12d0
0872
1654
1435
0697
1984
066c
06ad
18d1
1497
1598
0000
18a7
16c8
174e
07cf
0c18
0c25
1009
13cb
138c
124d
164e
1167
16c8
16a9
16ac
160d
14a0
0c82
07c3
1845
0c67
092c
0953
19a3
17a9
076d
1a8e
17ef
08b3
0677
0a18
1966
1947
198b
072e
192f
18e1
1762
1a24
188a
074e
166f
12d0
0872
1654
1435
0697
1984
066c
06ad
18d1
1497
1598
0000
18a7
16c8
174e
07cf
0c18
0c25
1009
13cb
138c
124d
164e
1167
16c8
16a9
16ac
160d
14a0
0c82
07c3
1845
0c67
092c
0953
19a3
17a9
076d
1a8e
17ef
08b3
0677
0a18
1966
1947
198b
072e
192f
18e1
1762
1a24
188a
074e
166f
12d0
0872
1654
1435
0697
1984
066c
06ad
18d1
1497
1598
0000
18a7
16c8
174e
07cf
0c18
0c25
1009
13cb
138c
124d
164e
1167
16c8
16a9
16ac
160d
14a0
0c82
07c3
1845
0c67
092c
0953
19a3
17a9
076d
1a8e
17ef
08b3
0677
0a18
1966
1947
198b
072e
192f
18e1
1762
1a24
188a
074e
166f
12d0
0872
1654
1435
0697
1984
066c
06ad
18d1
1497
1598
0000
18a7
16c8
174e
07cf
0c18
0c25
1009
13cb
138c
124d
164e
1167
16c8
16a9
16ac
160d
14a0
0c82
07c3
1845
0c67
092c
0953
19a3
17a9
076d
1a8e
17ef
08b3
0677
0a18
1966
1947
198b
072e
192f
18e1
1762
1a24
188a
074e
166f
12d0
0872
1654
1435
0697
1984
066c
06ad
18d1
1497
1598
0000
18a7
16c8
174e
07cf
0c18
0c25
1009
13cb
138c
124d
164e
1167
16c8
16a9
16ac
160d
14a0
0c82
07c3
1845
0c67
092c
0953
19a3
17a9
076d
1a8e
17ef
08b3
0677
0a18
1966
1947
198b
072e
192f
18e1
1762
1a24
188a
074e
166f
12d0
0872
1654
1435
0697
1984
066c
06ad
18d1
1497
1598
0000
18a7
16c8
174e
07cf
0c18
0c25
1009
13cb
138c
124d
164e
1167
16c8
16a9
16ac
160d
14a0
0c82
07c3
1845
0c67
092c
0953
19a3
17a9
076d
1a8e
17ef
08b3
0677
0a18
1966
1947
198b
072e
192f
18e1
1762
1a24
188a
074e
166f
12d0
0872
1654
1435
0697
1984
066c
06ad
18d1
1497
1598
0000
18a7
16c8
174e
07cf
0c18
0c25
1009
13cb
138c
124d
164e
1167
16c8
16a9
16ac
160d
14a0
0c82
07c3
1845
0c67
092c
0953
19a3
17a9
076d
1a8e
17ef
08b3
0677
0a18
1966
1947
198b
072e
192f
18e1
1762
1a24
188a
074e
166f
12d0
0872
1654
1435
0697
1984
066c
06ad
18d1
1497
1598
0000
18a7
16c8
174e
07cf
0c18
0c25
1009
13cb
138c
124d
164e
1167
16c8
16a9
16ac
160d
14a0
0c82
07c3
1845
0c67
092c
0953
19a3
17a9
076d
1a8e
17ef
08b3
0677
0a18
1966
1947
198b
072e
192f
18e1
1762
1a24
188a
074e
166f
12d0
0872
1654
1435
0697
1984
066c
06ad
18d1
1497
1598
0000
18a7
16c8
174e
07cf
0c18
0c25
1009
13cb
138c
124d
164e
1167
16c8
16a9
16ac
160d
14a0
0c82
07c3
1845
0c67
092c
0953
19a3
17a9
076d
1a8e
17ef
08b3
0677
0a18
1966
1947
198b
072e
192f
18e1
1762
1a24
188a
074e
166f
12d0
0872
1654
1435
0697
1984
066c
06ad
18d1
1497
1598
0000
18a7
16c8
174e
07cf
0c18
0c25
1009
13cb
138c
124d
164e
1167
16c8
16a9
16ac
160d
14a0
0c82
07c3
1845
0c67
092c
0953
19a3
17a9
076d
1a8e
17ef
08b3
0677
0a18
1966
1947
198b
072e
192f
18e1
1762
1a24
188a
074e
166f
12d0
0872
1654
1435
0697
1984
066c
06ad
18d1
1497
1598
0000
18a7
16c8
174e
07cf
0c18
0c25
1009
13cb
138c
124d
164e
1167
16c8
16a9
16ac
160d
14a0
0c82
07c3
1845
0c67
092c
0953
19a3
17a9
076d
1a8e
17ef
08b3
0677
0a18
1966
1947
198b
072e
192f
18e1
1762
1a24
188a
074e
166f
12d0
0872
1654
1435
0697
1984
066c
06ad
18d1
1497
1598
0000
18a7
16c8
174e
07cf
0c18
0c25
1009
13cb
138c
124d
164e
1167
16c8
16a9
16ac
160d
14a0
0c82
07c3
1845
0c67
092c
0953
19a3
17a9
076d
1a8e
17ef
08b3
0677
0a18
1966
1947
198b
072e
192f
18e1
1762
1a24
188a
074e
166f
12d0
0872
1654
1435
0697
1984
066c
06ad
18d1
1497
1598
0000
18a7
16c8
174e
07cf
0c18
0c25
1009
13cb
138c
124d
164e
1167
16c8
16a9
16ac
160d
14a0
0c82
07c3
1845
0c67
092c
0953
19a3
17a9
076d
1a8e
17ef
08b3
0677
0a18
1966
1947
198b
072e
192f
18e1
1762
1a24
188a
074e
166f
12d0
0872
1654
1435
0697
1984
066c
06ad
18d1
1497
1598
0000
1a20
1881
1664
1aa9
1a2a
0ad0
19d7
0881
09e7
176a
18eb
19b1
06e6
0707
06cc
0891
1853
18cc
180d
15f1
1772
09c5
086c
190e
172f
1533
1a54
17d5
1656
1937
16b8
1581
1443
1944
1846
1587
19cb
098f
07f0
0b75
1a78
19c2
094b
1a0f
1714
1635
14f6
0000
1a20
1881
1664
1aa9
1a2a
0ad0
19d7
0881
09e7
176a
18eb
19b1
06e6
0707
06cc
0891
1853
18cc
180d
15f1
1772
09c5
086c
190e
172f
1533
1a54
17d5
1656
1937
16b8
1581
1443
1944
1846
1587
19cb
098f
07f0
0b75
1a78
19c2
094b
1a0f
1714
1635
14f6
0000
1a20
1881
1664
1aa9
1a2a
0ad0
19d7
0881
09e7
176a
18eb
19b1
06e6
0707
06cc
0891
1853
18cc
180d
15f1
1772
09c5
086c
190e
172f
1533
1a54
17d5
1656
1937
16b8
1581
1443
1944
1846
1587
19cb
098f
07f0
0b75
1a78
19c2
094b
1a0f
1714
1635
14f6
0000
1a20
1881
1664
1aa9
1a2a
0ad0
19d7
0881
09e7
176a
18eb
19b1
06e6
0707
06cc
0891
1853
18cc
180d
15f1
1772
09c5
086c
190e
172f
1533
1a54
17d5
1656
1937
16b8
1581
1443
1944
1846
1587
19cb
098f
07f0
0b75
1a78
19c2
094b
1a0f
1714
1635
14f6
0000
1a20
1881
1664
1aa9
1a2a
0ad0
19d7
0881
09e7
176a
18eb
19b1
06e6
0707
06cc
0891
1853
18cc
180d
15f1
1772
09c5
086c
190e
172f
1533
1a54
17d5
1656
1937
16b8
1581
1443
1944
1846
1587
19cb
098f
07f0
0b75
1a78
19c2
094b
1a0f
1714
1635
14f6
0000
1a20
1881
1664
1aa9
1a2a
0ad0
19d7
0881
09e7
176a
18eb
19b1
06e6
0707
06cc
0891
1853
18cc
180d
15f1
1772
09c5
086c
190e
172f
1533
1a54
17d5
1656
1937
16b8
1581
1443
1944
1846
1587
19cb
098f
07f0
0b75
1a78
19c2
094b
1a0f
1714
1635
14f6
0000
1a20
1881
1664
1aa9
1a2a
0ad0
19d7
0881
09e7
176a
18eb
19b1
06e6
0707
06cc
0891
1853
18cc
180d
15f1
1772
09c5
086c
190e
172f
1533
1a54
17d5
1656
1937
16b8
1581
1443
1944
1846
1587
19cb
098f
07f0
0b75
1a78
19c2
094b
1a0f
1714
1635
14f6
0000
1a20
1881
1664
1aa9
1a2a
0ad0
19d7
0881
09e7
176a
18eb
19b1
06e6
0707
06cc
0891
1853
18cc
180d
15f1
1772
09c5
086c
190e
172f
1533
1a54
17d5
1656
1937
16b8
1581
1443
1944
1846
1587
19cb
098f
07f0
0b75
1a78
19c2
094b
1a0f
1714
1635
14f6
0000
1a20
1881
1664
1aa9
1a2a
0ad0
19d7
0881
09e7
176a
18eb
19b1
06e6
0707
06cc
0891
1853
18cc
180d
15f1
1772
09c5
086c
190e
172f
1533
1a54
17d5
1656
1937
16b8
1581
1443
1944
1846
1587
19cb
098f
07f0
0b75
1a78
19c2
094b
1a0f
1714
1635
14f6
0000
1a20
1881
1664
1aa9
1a2a
0ad0
19d7
0881
09e7
176a
18eb
19b1
06e6
0707
06cc
0891
1853
18cc
180d
15f1
1772
09c5
086c
190e
172f
1533
1a54
17d5
1656
1937
16b8
1581
1443
1944
1846
1587
19cb
098f
07f0
0b75
1a78
19c2
094b
1a0f
1714
1635
14f6
0000
1a20
1881
1664
1aa9
1a2a
0ad0
19d7
0881
09e7
176a
18eb
19b1
06e6
0707
06cc
0891
1853
18cc
180d
15f1
1772
09c5
086c
190e
172f
1533
1a54
17d5
1656
1937
16b8
1581
1443
1944
1846
1587
19cb
098f
07f0
0b75
1a78
19c2
094b
1a0f
1714
1635
14f6
0000
1a20
1881
1664
1aa9
1a2a
0ad0
19d7
0881
09e7
176a
18eb
19b1
06e6
0707
06cc
0891
1853
18cc
180d
15f1
1772
09c5
086c
190e
172f
1533
1a54
17d5
1656
1937
16b8
1581
1443
1944
1846
1587
19cb
098f
07f0
0b75
1a78
19c2
094b
1a0f
1714
1635
14f6
0000
1a20
1881
1664
1aa9
1a2a
0ad0
19d7
0881
09e7
176a
18eb
19b1
06e6
0707
06cc
0891
1853
18cc
180d
15f1
1772
09c5
086c
190e
172f
1533
1a54
17d5
1656
1937
16b8
1581
1443
1944
1846
1587
19cb
098f
07f0
0b75
1a78
19c2
094b
1a0f
1714
1635
14f6
0000
1a20
1881
1664
1aa9
1a2a
0ad0
19d7
0881
09e7
176a
18eb
19b1
06e6
0707
06cc
0891
1853
18cc
180d
15f1
1772
09c5
086c
190e
172f
1533
1a54
17d5
1656
1937
16b8
1581
1443
1944
1846
1587
19cb
098f
07f0
0b75
1a78
19c2
094b
1a0f
1714
1635
14f6
0000
1a20
1881
1664
1aa9
1a2a
0ad0
19d7
0881
09e7
176a
18eb
19b1
06e6
0707
06cc
0891
1853
18cc
180d
15f1
1772
09c5
086c
190e
172f
1533
1a54
17d5
1656
1937
16b8
1581
1443
1944
1846
1587
19cb
098f
07f0
0b75
1a78
19c2
094b
1a0f
1714
1635
14f6
0000
1a20
1881
1664
1aa9
1a2a
0ad0
19d7
0881
09e7
176a
18eb
19b1
06e6
0707
06cc
0891
1853
18cc
180d
15f1
1772
09c5
086c
190e
172f
1533
1a54
17d5
1656
1937
16b8
1581
1443
1944
1846
1587
19cb
098f
07f0
0b75
1a78
19c2
094b
1a0f
1714
1635
14f6
0000
1668
16cc
188e
1803
1247
17a8
1849
17ea
1480
12c1
17e3
15a4
12a5
1006
1427
1549
15aa
15ab
188e
18ef
0da1
1844
1903
0805
0b26
0647
1608
16e9
06ab
0e8c
17ae
08b2
07c3
1949
1957
1658
0a22
06e7
06c8
12aa
1aeb
06ec
17ae
18ef
0611
1778
1910
10b1
1652
19d6
0000
1668
16cc
188e
1803
1247
17a8
1849
17ea
1480
12c1
17e3
15a4
12a5
1006
1427
1549
15aa
15ab
188e
18ef
0da1
1844
1903
0805
0b26
0647
1608
16e9
06ab
0e8c
17ae
08b2
07c3
1949
1957
1658
0a22
06e7
06c8
12aa
1aeb
06ec
17ae
18ef
0611
1778
1910
10b1
1652
19d6
0000
1668
16cc
188e
1803
1247
17a8
1849
17ea
1480
12c1
17e3
15a4
12a5
1006
1427
1549
15aa
15ab
188e
18ef
0da1
1844
1903
0805
0b26
0647
1608
16e9
06ab
0e8c
17ae
08b2
07c3
1949
1957
1658
0a22
06e7
06c8
12aa
1aeb
06ec
17ae
18ef
0611
1778
1910
10b1
1652
19d6
0000
1668
16cc
188e
1803
1247
17a8
1849
17ea
1480
12c1
17e3
15a4
12a5
1006
1427
1549
15aa
15ab
188e
18ef
0da1
1844
1903
0805
0b26
0647
1608
16e9
06ab
0e8c
17ae
08b2
07c3
1949
1957
1658
0a22
06e7
06c8
12aa
1aeb
06ec
17ae
18ef
0611
1778
1910
10b1
1652
19d6
0000
1668
16cc
188e
1803
1247
17a8
1849
17ea
1480
12c1
17e3
15a4
12a5
1006
1427
1549
15aa
15ab
188e
18ef
0da1
1844
1903
0805
0b26
0647
1608
16e9
06ab
0e8c
17ae
08b2
07c3
1949
1957
1658
0a22
06e7
06c8
12aa
1aeb
06ec
17ae
18ef
0611
1778
1910
10b1
1652
19d6
0000
1668
16cc
188e
1803
1247
17a8
1849
17ea
1480
12c1
17e3
15a4
12a5
1006
1427
1549
15aa
15ab
188e
18ef
0da1
1844
1903
0805
0b26
0647
1608
16e9
06ab
0e8c
17ae
08b2
07c3
1949
1957
1658
0a22
06e7
06c8
12aa
1aeb
06ec
17ae
18ef
0611
1778
1910
10b1
1652
19d6
0000
1668
16cc
188e
1803
1247
17a8
1849
17ea
1480
12c1
17e3
15a4
12a5
1006
1427
1549
15aa
15ab
188e
18ef
0da1
1844
1903
0805
0b26
0647
1608
16e9
06ab
0e8c
17ae
08b2
07c3
1949
1957
1658
0a22
06e7
06c8
12aa
1aeb
06ec
17ae
18ef
0611
1778
1910
10b1
1652
19d6
0000
1668
16cc
188e
1803
1247
17a8
1849
17ea
1480
12c1
17e3
15a4
12a5
1006
1427
1549
15aa
15ab
188e
18ef
0da1
1844
1903
0805
0b26
0647
1608
16e9
06ab
0e8c
17ae
08b2
07c3
1949
1957
1658
0a22
06e7
06c8
12aa
1aeb
06ec
17ae
18ef
0611
1778
1910
10b1
1652
19d6
0000
1668
16cc
188e
1803
1247
17a8
1849
17ea
1480
12c1
17e3
15a4
12a5
1006
1427
1549
15aa
15ab
188e
18ef
0da1
1844
1903
0805
0b26
0647
1608
16e9
06ab
0e8c
17ae
08b2
07c3
1949
1957
1658
0a22
06e7
06c8
12aa
1aeb
06ec
17ae
18ef
0611
1778
1910
10b1
1652
19d6
0000
1668
16cc
188e
1803
1247
17a8
1849
17ea
1480
12c1
17e3
15a4
12a5
1006
1427
1549
15aa
15ab
188e
18ef
0da1
1844
1903
0805
0b26
0647
1608
16e9
06ab
0e8c
17ae
08b2
07c3
1949
1957
1658
0a22
06e7
06c8
12aa
1aeb
06ec
17ae
18ef
0611
1778
1910
10b1
1652
19d6
0000
1668
16cc
188e
1803
1247
17a8
1849
17ea
1480
12c1
17e3
15a4
12a5
1006
1427
1549
15aa
15ab
188e
18ef
0da1
1844
1903
0805
0b26
0647
1608
16e9
06ab
0e8c
17ae
08b2
07c3
1949
1957
1658
0a22
06e7
06c8
12aa
1aeb
06ec
17ae
18ef
0611
1778
1910
10b1
1652
19d6
0000
1668
16cc
188e
1803
1247
17a8
1849
17ea
1480
12c1
17e3
15a4
12a5
1006
1427
1549
15aa
15ab
188e
18ef
0da1
1844
1903
0805
0b26
0647
1608
16e9
06ab
0e8c
17ae
08b2
07c3
1949
1957
1658
0a22
06e7
06c8
12aa
1aeb
06ec
17ae
18ef
0611
1778
1910
10b1
1652
19d6
0000
1668
16cc
188e
1803
1247
17a8
1849
17ea
1480
12c1
17e3
15a4
12a5
1006
1427
1549
15aa
15ab
188e
18ef
0da1
1844
1903
0805
0b26
0647
1608
16e9
06ab
0e8c
17ae
08b2
07c3
1949
1957
1658
0a22
06e7
06c8
12aa
1aeb
06ec
17ae
18ef
0611
1778
1910
10b1
1652
19d6
0000
1668
16cc
188e
1803
1247
17a8
1849
17ea
1480
12c1
17e3
15a4
12a5
1006
1427
1549
15aa
15ab
188e
18ef
0da1
1844
1903
0805
0b26
0647
1608
16e9
06ab
0e8c
17ae
08b2
07c3
1949
1957
1658
0a22
06e7
06c8
12aa
1aeb
06ec
17ae
18ef
0611
1778
1910
10b1
1652
19d6
0000
1668
16cc
188e
1803
1247
17a8
1849
17ea
1480
12c1
17e3
15a4
12a5
1006
1427
1549
15aa
15ab
188e
18ef
0da1
1844
1903
0805
0b26
0647
1608
16e9
06ab
0e8c
17ae
08b2
07c3
1949
1957
1658
0a22
06e7
06c8
12aa
1aeb
06ec
17ae
18ef
0611
1778
1910
10b1
1652
19d6
0000
1668
16cc
188e
1803
1247
17a8
1849
17ea
1480
12c1
17e3
15a4
12a5
1006
1427
1549
15aa
15ab
188e
18ef
0da1
1844
1903
0805
0b26
0647
1608
16e9
06ab
0e8c
17ae
08b2
07c3
1949
1957
1658
0a22
06e7
06c8
12aa
1aeb
06ec
17ae
18ef
0611
1778
1910
10b1
1652
19d6
0000
