0941
1003
16a4
1009
198a
13cb
1a0c
184e
1473
0954
0836
09c0
0fe5
0fe6
0fe7
0c28
0de9
092b
0650
0951
10d3
05f5
0c36
07b7
1838
0740
1442
1103
16e4
1005
13c6
0fea
0feb
0dec
06ad
0f8f
0e90
05f1
19f7
1838
1800
0d21
0c22
08a3
1865
0a47
0868
0daa
100c
120d
07af
16d4
1000
1221
18a2
0769
0d4a
0e6b
0fec
0fed
1412
1013
17b5
1636
0758
1662
1003
1664
0dc5
06a6
19ea
088b
0aec
0b2d
172f
05f1
0ff2
0cb3
0af4
1725
0706
08a7
0ae8
0c49
110a
0c8c
0fed
0fee
068f
08b2
07f3
08d4
0995
06f7
0918
08a0
0641
0702
14e9
07ca
100e
0c2f
17b1
0994
1635
0617
0918
0000
