1002
1003
1947
1188
1349
176a
180e
0750
0ff1
0695
0637
06d8
1000
1001
1002
1584
0b46
17cb
13cf
17d0
1013
0995
1157
1238
18c1
0c64
19a5
0d07
0fe8
0e8b
0fec
170e
18d2
1013
1634
17b5
13f6
12f7
18d8
17a3
1a04
1847
1508
16e9
180a
100b
152c
174d
074f
1950
07d3
0af6
1926
0928
08a9
0aec
09ed
156f
1352
0897
0b78
0960
1782
1763
19a5
072a
074b
182d
16ee
06c1
0625
17ac
18ed
12ce
172f
1970
0921
1563
15c4
0c87
17a9
0ccb
100d
168e
068f
05f0
1791
0614
06f6
0677
0000
