0941
1003
16a4
1009
198a
13cb
1a0c
184e
1473
0954
0836
09c0
0fe5
0fe6
0fe7
0c28
0de9
092b
0650
0951
10d3
05f5
0c36
07b7
1838
0740
1442
1103
16e4
1005
13c6
0fea
0feb
0dec
06ad
0f8f
0e90
05f1
19f7
1838
1800
0d21
0c22
08a3
1865
0a47
0868
0daa
100c
120d
07af
16d4
1000
1221
18a2
0769
0d4a
0e6b
0fec
0fed
1412
1013
17b5
1636
0758
1662
1003
1664
0dc5
06a6
19ea
088b
0aec
0b2d
172f
05f1
0ff2
0cb3
0af4
1725
0706
08a7
0ae8
0c49
110a
0c8c
0fed
0fee
068f
08b2
07f3
08d4
0995
06f7
0918
08a0
0641
0702
14e9
07ca
100e
0c2f
17b1
0994
1635
0617
0918
0000
18c1
0bc2
0fe3
0bc4
1805
0fe9
188c
074e
1331
1012
19b3
19d4
1676
1657
16d8
07a1
0663
0624
1485
14e6
1867
1589
17aa
158d
100e
0ed4
08f5
0956
0cf7
09b8
08e3
0704
1a08
100d
19ce
09ef
19b2
16f3
1001
08c3
0fe5
0be6
19a7
0f69
068a
0e2b
0b4c
1a2f
07f1
1a32
1614
1635
1458
06c1
0ac7
0688
100a
122b
100c
100d
100e
1511
1792
1854
05e8
192a
100b
11ec
0bce
16d1
1332
0935
1a38
1920
1181
19c2
1004
11a6
0aca
06ec
0b8f
0a30
0a71
08d2
0973
0996
0717
1860
1008
196b
126c
100d
14af
1010
13f1
1512
16b7
0000
0701
0ea2
1004
0e27
09e8
1009
1a0a
19d1
1857
1998
08a0
0681
0d06
0647
162a
0721
0fe2
1004
0b27
1548
12a9
08eb
192d
1172
12d3
1697
1958
15a0
0bc2
1984
1005
1006
1449
13ad
17ee
1541
0662
14c3
1244
07c5
08e6
176f
1950
17d1
18d2
12f3
1955
1843
1004
07a6
0607
0b68
15aa
0aed
14d0
19f1
05f4
1915
18f6
1017
1418
1a00
1005
1006
18e8
19c9
100a
100b
186c
17ad
192e
09af
1a30
1831
0a54
06d5
0b60
0883
0f48
188b
132c
08ed
078e
196f
1890
1391
0ff2
0ff3
1014
17b5
1836
06b7
0838
0000
1002
1003
1947
1188
1349
176a
180e
0750
0ff1
0695
0637
06d8
1000
1001
1002
1584
0b46
17cb
13cf
17d0
1013
0995
1157
1238
18c1
0c64
19a5
0d07
0fe8
0e8b
0fec
170e
18d2
1013
1634
17b5
13f6
12f7
18d8
17a3
1a04
1847
1508
16e9
180a
100b
152c
174d
074f
1950
07d3
0af6
1926
0928
08a9
0aec
09ed
156f
1352
0897
0b78
0960
1782
1763
19a5
072a
074b
182d
16ee
06c1
0625
17ac
18ed
12ce
172f
1970
0921
1563
15c4
0c87
17a9
0ccb
100d
168e
068f
05f0
1791
0614
06f6
0677
0000
0641
0a07
0732
0813
07d8
1868
1729
126a
166b
17ec
116d
15ce
19f0
1352
0bb4
0915
0762
0906
0e07
0ba8
1729
068b
100e
19b0
1191
14b2
12b3
15f6
1078
1743
1584
1825
0766
06af
19b3
0835
19f8
0ae4
0b48
17ca
188b
18cc
11ad
178e
100f
1690
1251
07d2
0a33
0838
0bc2
0663
176b
172c
196f
1651
1469
0911
06c1
19c7
1288
14cc
082e
1010
1a31
0693
1994
1796
18b8
0000
0fe1
0ce2
0a8d
07d8
0e00
0643
0624
17aa
100b
192c
12cd
100e
174f
1977
06a6
0ba7
0968
16a9
06ea
086b
09ac
100e
1311
1012
1733
1974
1956
18b7
1438
1800
0721
0fe2
0ce3
11e4
0786
18c7
1569
0a8a
19d1
1760
0605
0868
0a29
100f
1650
1011
12f2
1734
07d7
07b8
05e2
09e6
0a47
12f0
1872
17b7
190b
0791
07d4
0ff5
0c43
0864
1527
146c
0c6e
18cf
17d0
1451
0792
0953
1494
10b5
1736
14d7
0bd8
0000
