0111111100000
0111111100001
1000000000011
1001111000100
0111111100101
0111111100110
1000000001000
1000000001001
0111111101010
0111111101011
0111111101100
1000000001101
1010001101110
0100001001111
0111111110000
0110110110001
1000000010010
1000000010011
0011101010100
0111111110101
0011111110110
0011110110111
1001011000000
0100010000010
0111011000011
0100101100100
1000000000101
0110111100110
0111111100111
0111111101000
0111111101001
0111111101010
0111111101011
0111111101100
0111111101101
0111111101110
1000000010010
1000000010011
1000000010110
1000000010111
1000000011000
1001101100000
1000000000001
1000000000010
1000000000011
1000000000100
1000000000101
1000000000110
1001001000111
0100100001011
0111111101100
0100001101101
0111111101110
0111111101111
0110100110000
0111111110001
0110011100001
0110011100010
1010001000011
0111111100101
0111111100110
1011000101000
1001111001001
0111111101010
0111111101011
1000000001101
1000000001110
0111111101111
0111111110000
1000000010010
0011101110100
0101000010101
1001011110111
1100100011000
1000000000001
1000000000010
1000000000011
1000000000100
1010110100110
1100001100111
1000000001000
0111111101010
0101011001011
0111111101100
0100100001110
0111111110001
0111111110010
0111111110011
1010101110100
1000000010101
0101011110110
0111111110111
0111111111000
1000000000010
1000100100011
1000000000100
0011111000101
0101001100110
0110001100111
0111111101000
0110010101010
0111111101011
0111111101100
0111111101101
0111111101110
1000000001111
1000000010000
0011111010010
1100011110011
1000000010100
1000000010101
1000000010110
1000000010111
1000000011000
0011101000011
0110111000100
0100110100110
0011100100111
1000110101010
0111111101011
0111111101100
0111111101101
1010111001110
1010011101111
0110100010000
0111111110001
0111111110010
0111111110011
1000000010100
1000000010101
0011100000001
0101100000010
1000010100011
1000000000100
1100010100101
1010101000110
1000000001000
1000000001001
1000111101010
1000000001011
1010111001101
0111111110001
0111111110010
0111111110011
0111111110100
0111111110101
0111111110110
0111111110111
0111111111000
0000000000000
