0100000100000
0111111100010
0111111100100
1100001100110
1001110000111
0110110101000
1010100001001
1011010001011
1011101101100
1001111101101
1100010101110
1011010110001
1011101110010
1000010010100
1001010110110
0100101011000
1000000000010
1000000000011
1011001000110
1000000000111
1000000001000
1000100101101
1100011101111
0111111110000
0111111110001
0101100010010
1000010110100
0100000010111
0100100111000
1000000000000
0111111100010
0111111100100
1000000000110
1000000000111
1001110101000
0111111101010
0111111101011
0111111101100
0111111101101
0101001101110
0111111101111
0111111110000
0111111110001
0111111110010
1000000000000
0011111100001
1000000000100
1000000000101
1000000000110
1000000000111
1000000001000
1000000001010
1000000001011
1000011001100
1010001001101
1011000001110
1000000001111
1000000010000
1000001010001
1000000010100
1010011010101
0110110110110
1000000000010
1000000000011
1001110000100
0111111100101
0111111100110
0111111100111
0111111101000
1000000001001
1011011101010
0111111101011
0111111101100
0111111101101
0111111101110
1001100101111
0011111110001
0111111110011
1000000010101
1010001110110
1000000011000
1000000000000
1000000000001
1100011100011
1010011000100
1001011001000
1000000001001
1010100101010
1000000001100
1000000001101
0100111101110
1000000001111
1000000010000
1000000010001
1010001110010
1011010110100
1000000010101
0100001110111
1001100011000
0111111100000
0111111100001
0111111100010
0111111100011
0111111100101
0111111100110
0111111100111
0101010101000
0100111101001
1011001001010
1011100101011
0100111001100
0101110001101
0111100101111
0110000010001
1001100110011
0111111110100
0111111110101
1001011110111
0111000000001
0110110000110
0100111001000
1011000101101
1000010001110
1001001101111
1000000010000
1000000010001
1011111010010
0111111110011
1001110110110
1011111010111
0110101111000
0000000000000
