0100001000000
0111000000001
0011100100100
0110100000111
1010011101000
0100110010000
0100111110001
0100101010010
0100100010011
0100010110100
0111100000010
1011010100110
0100110001011
0111011010000
0100010010011
1010111010101
1010011010110
1011010110111
1011101111000
0101110100001
0011111000011
0111100100101
0011100001010
1001110001100
0100110111000
1010001000001
0011111000011
1100001100101
1000000000110
1010110101001
1011111101011
1001010001101
1000101001110
1011010010000
0011110110011
1010111110100
1100011010101
0011110110110
1001110010111
0110101100000
0100101100001
0100000000101
1011101100110
0011111000111
1010011001000
0110011101010
1100100010000
0111111110011
0111011110110
0110100011000
1011001000000
0100010100001
0110010100010
0111101000011
1100010000101
0111111100111
1011101001000
1001110001100
1011011101101
0111111101110
0101010010010
0101011010111
0110101100001
0110001100010
0110011000011
0100010100101
0111111100110
0111111100111
0111011101000
0011101101100
0100100001111
0111111110011
0110010010111
0011111111000
0101101100010
0110111000110
0011101100111
0100001001000
0111100101101
0100000010001
1001001010010
1100000110110
0100010110111
0000000000000
