0100001000000
0111111100100
0111111100101
0110111000110
1011110001001
0111111101010
0111111101011
1001101101101
0111111101111
1001110010000
0100001110001
1000010010010
1000010110011
1010110110110
1000000010111
0011101111000
1001110000001
1100000100010
1000000000011
1000000000100
0101011000101
0100100000110
1000000000111
1000000001000
1100000001001
0111111101010
0101101001011
1000000001100
1011010101101
0111001101110
0111111101111
0111111110000
0111010010010
0110111110011
0110001110100
0111111110101
0100101111000
1000000000110
1000000000111
1000000001000
1011000001001
0111111101101
0111111101110
0110001101111
0111111110000
0111111110001
0111111110010
1000000010100
1000111010110
1000000010111
1000000011000
0111111100001
0111111100010
1011000000011
1000000000100
0110001000101
0111111100110
0111111100111
1000000001000
0111111101010
0111111101011
0111111101100
1000000001101
0111111110000
0110001110001
1000011010010
0111111110011
0111111110101
0100111010110
1010010010111
1000000000000
1000000000001
1000000000010
1000000000011
1000000000100
0111101000101
1000000001000
1000000001001
0111100001010
0111111101011
0111111101100
0111111101101
0100010101111
0111111110000
0111111110001
0111111110010
0101101110111
1011110011000
1000000000000
1000000000001
0100101000010
0111111100011
0111111100100
1000000000101
1000000000110
0111111100111
0111111101000
1011101001001
1000000001010
0111111101011
0111111101100
0110101101101
1000000001110
0100010001111
0111111110000
0111111110001
1000100010010
0101011110100
0111111110101
0100001010110
1010101010111
1011010111000
0111111100010
0100000000111
1000000001010
1001000101011
0011101001100
1000000001111
0111111110001
0111111110010
0101110010011
0111111110101
0111111110110
0011111110111
1000000000000
0100011100011
0111111100100
0111100000111
0111111101000
0111111101001
1000000001011
0101110001100
0111001001101
1000000001111
1000000010000
0111111110001
0111111110010
0100111110011
1000000010101
0111111110110
0111111110111
1000000011000
0000000000000
