0111110000000
0110011000001
0101010000010
0111111100100
0011110000101
0111111100110
0100010101000
0111111101010
0110110001100
1000101101101
0100010101111
0101010110000
0100000010010
1011110010011
0011110010100
1010010010110
1001010110111
1000000011000
1001000100000
1000000000010
1000000000100
0100110000110
1000000000111
1000000001000
1000000001001
0111111101010
0111111101011
1001010101101
1011011001110
0101001001111
0111111110000
0111111110001
0111111110010
0111111110101
0111111110110
0111111110111
0111111111000
1001111000000
0111001100010
0011100100011
1000000000110
1000000000111
1000000001000
1011011001100
0111111101111
0111111110000
0111111110001
0111111110010
0111111110011
0111111110101
0111111110110
0110101010111
1001011000000
0111111100010
1000001100100
0100101000110
0111111100111
1000000001001
0111111101011
0111111101100
1000000001101
1000000001110
0110001110000
0111111110001
1010101010011
0111111110110
0110111010111
1000000000001
1000101100010
1000000000011
1000000000100
0111111100101
0111001100110
0100000000111
1000000001000
1000000001001
0011111001010
0111111101011
0111111101100
0111111101101
1000000001111
0111111110000
0111111110001
0111111110010
0111111110011
1000000010100
1000000010101
0100100011000
1000000000000
1000000000001
1000000000010
0111111100100
1000000000101
1000000000110
0101110100111
0111111101000
0111111101001
1000000001010
0111111101100
0111111101101
0111111101110
1000000001111
0111111110001
0111111110010
0111111110110
0111111110111
1011010111000
1001000100100
0111111100101
0111111100110
0111111100111
1000101001010
1000000001011
0110110001100
0111100001101
0110000101110
1000000001111
1000000010000
0110111010010
0101100110011
1011111000000
1000001100001
1010000000010
1000000000011
0110011100100
0110010000101
0110101100110
0111111100111
0100100101000
0111111101001
0100100101010
0101110101011
0100100001101
0111100101110
0111100010010
0111111110011
1011000110110
0111111110111
0111111111000
0000000000000
