0111111100000
0111111100001
1011001000010
1000000000011
1000000000100
0111111100101
1000000000111
1100011101000
1010101001001
1000000001110
0100001110000
0101111010001
1011010110011
0100011110100
0111111110101
0101010010110
1100010010111
1000000000000
0111110000010
0110100000011
0101110100100
0110110100101
0111111100110
0111111100111
0111111101000
0111111101001
0111111101010
0111111101011
0100001101100
0100000101110
1000000010000
1000000010001
1000000010010
1000000010011
1000000010100
1000000010101
1001111010110
1000000010111
0100000011000
1000011100000
1000000000001
1000000000010
1010011100011
1000000000100
1000000000101
1000011100110
1010010100111
0111111101000
0111000001001
0110000001010
0111100101011
0111111101100
0111111101101
0111111101110
0101110010001
0110000010010
1011001010100
1000001110101
1011000110110
1000000011000
0101110100000
0111111100001
0100100100010
0110010100100
0111111100101
0111111100110
0100100100111
1000000001000
0110011101010
0111011001011
1000000001100
1011001001101
0100101101110
1000000010001
1100011010010
0111111110011
0100011110100
0100100110111
1100010000000
1000000000001
1000000000010
1000000000011
1011011100100
0111000000110
0101100100111
1100001101000
0111111101010
0111111101011
0011110101100
0111111101101
0111111101110
1001101110000
0011111010100
1000000010101
0011111110110
0101010110111
0111111111000
1001110000001
1000000000010
1000000000011
0100010000101
0110100000110
0111111100111
0111111101000
0111111101001
1011111101010
0111110001011
0111111101100
0111111101101
0110001101110
1000000001111
1000000010000
1000000010001
1000000010010
1000000010011
1000000010100
1000000010101
1000000010110
1001001010111
1100010111000
0101110000000
0101001100001
0100000000010
0011100100011
0101011000100
0110100100110
1011111101001
0111111101100
0110101101101
1000000001111
0100000010001
0111111110010
0111111110011
1000000010100
1000000010101
1000000010110
1001001111000
0111111100001
0110010000010
1000000000011
1000000000100
1100010000101
1000000000111
1000000001000
1000000001010
1001001101011
1001101001100
0111111101110
0111111110001
0111111110010
0111111110011
0111111110100
0111111110101
0111111110110
0111111110111
1000010111000
0000000000000
