0110000100000
1100001100010
1000011000011
0111010100101
0110010001010
1100010101011
0101111010010
0111111110100
1011001110101
1010010010111
0111011100001
0111000100011
0100110100100
0101101100101
0111111100110
0011111101000
0111111101001
0110111001010
0110010001011
0100011001101
0111111101110
0111111101111
1000010110001
1100000110010
0110100110011
1000000000011
0101011000101
1010110000110
1000010000111
0101110101001
0100001001010
1000000001011
1000000001100
1001001001110
1011010110001
1000000010010
1010001010011
1100001010100
1001100110101
1000000010110
1001000010111
0111111100000
0111111100001
0111111100010
0100110000101
0111111100110
0011100000111
1100000101000
0111111101001
0110011001010
0111111101011
0101011101100
0111111101110
0111111110000
1011110010010
0111111110011
0111111010101
1000000000001
1000000000010
1100000000011
1000011100100
1010001100110
1010010000111
1000000001000
1000000001001
0111111101010
1011111001100
1000000001101
1011010001110
0111000001111
0101101010000
1001011010010
1000011110100
1000000010101
0100000011000
1000000000000
0111111100010
0111111100011
0100011100100
1010110000101
0111111100110
0111111100111
0111000101000
1100011101001
0110001001010
0111111101011
0111111101100
1000001101101
0111111101111
0111111110000
1000000010010
1010101110011
0111111110100
0111111110101
1010010110110
1011001010111
1000000000010
1000000000011
1011011000100
0101001100101
1000000000110
1000000000111
1000000001010
0011101001100
0110001110000
0101001110001
0111110110010
1100011010011
1100001110111
0110001100000
1100000100010
0111111100011
0110111000100
0011110100111
0101000101000
0100111101010
1001001101011
0111100001100
0101010101101
0100011010000
0111111110001
0111111110010
1010010110011
0101111110101
0111111110110
1000011011000
0000000000000
