0111111100000
0111111100001
1000000000010
1000001000100
0110011100110
1000000001000
1000000001001
1001110101111
1100010110001
1000010110010
1011011010101
1011101110111
0100101100010
0111111100011
0111111100101
0111111100110
0111111100111
0111111101000
0111111101001
0111001101100
0011100101101
1010111010000
1000000010001
0100000010100
0111111110101
0111111110110
0110101010111
1000000000000
1010100100010
1000000000011
1000000000100
0011101100101
0110101100110
0110000100111
0100010101001
0101010101010
0111111101011
0100000101100
0111111101101
0111111101110
1000011010000
1011001010001
1010110110010
1000000010110
1011011111000
1000100100011
1000000000100
1000111000101
1001101000110
1000000000111
1000000001000
1010100001001
1000000001011
1000011101100
1000000001101
1010100001110
1000000001111
1001111110000
1000000010001
1011100010100
1001111010101
0100000010110
0100001110111
1001100000000
1100010100001
1001111100010
1010100100011
0111111100101
0111111100110
0111111100111
0111111101000
0110111001010
0111111101011
0101100001100
0111111101101
0110111101110
1011100101111
1001011110000
0011111010010
1011111010100
1000000010101
0101000010111
0111111111000
1000000000001
1000101100010
1001101100011
0111111100110
0111111100111
0111111101000
0111111101001
1100010001010
0111111101011
0111111101100
0111111101101
0101000001110
1001111001111
1000000010000
1000000010010
0100001110100
0111000010101
0111111110110
0111111110111
0110100011000
0011101000000
0100011100010
0111111100100
0110000001000
1000000001010
0100011001011
0111111101100
0111111101101
0111111101110
1000000001111
0111011110001
0111111110010
0111111110011
1100001010100
1000000010101
1000100110110
0111100000001
1000000000011
1000000000100
1010011100110
1011101100111
1001001001010
0111111101101
0111111101110
0110101101111
0100100010000
0111111110001
0111111110010
1001000010011
0111111110100
0111111110101
1010010011000
0000000000000
