0111111100000
0111111100001
1000000000011
1011011000100
0111111100101
0111111100110
1000111000111
1000000001000
1001100101001
0111111101010
0100000101011
1000111101101
1000000001110
0111111101111
0111111110000
0100011010001
1000000010011
0101011110101
0111111110110
0111111100010
0111111100011
0101001100101
0111111100110
0111111100111
0111111101000
0111111101001
0111111101010
0111111101011
0100011001111
1000000010000
1000000010001
1000000010010
1000000010011
1011100010100
1000000010101
1000000010110
1000000010111
1011101011000
1000000000000
1000000000001
1000000000010
1000000000011
1011001100100
1000000000110
0111111101000
0110000101010
0101010101011
0111111101100
0111111101101
0111111101110
0011110101111
0111111110001
1001000010101
1010001110111
0101000000000
0111111100001
0101010100010
0111111100101
0111111100110
1000000001000
0111111101010
0111111101011
1000000001100
1000000001101
0111111101110
0111111101111
0101101010000
1000000010001
0111111110011
0111111110100
0111111110101
1000000010110
0110010010111
0111111111000
1000000000001
1000000000010
1000000000011
1000000000100
1011110101001
0111111101100
0100000101101
0110111101111
0110110110001
0110110010110
0111000110111
1000000000010
1011011100011
0111111100101
0111111100110
0111111100111
0111111101000
0111111101001
0111111101011
0111111101100
0111111101101
0111111101110
1000000001111
1000000010000
1000000010001
1000000010010
1000000010011
1000000010100
1000000010101
1000110110110
1000000010111
0011100011000
0110101100000
0100011100001
0100000000010
0110001100011
0101001000101
0111111100110
1000101101000
1001101101001
0111111101011
0101010101100
1000010101111
0011100010000
0111111110010
0111111110011
1000000010100
1000000010101
1000010110110
1000011110111
1000000011000
0100110000001
1000000000011
1000000000100
1000000000111
1000000001000
1000000001001
1011010101010
1000000001011
1000001001100
0100001101101
0111111101110
0111111110001
0111111110010
0111111110011
0111111110100
0111111110101
0111111110110
0111111110111
0000000000000
