0100001000000
1011011000001
1011101000010
0111101100101
0111111100110
0100000101000
0111111101010
1011101101110
0111111101111
0011111010000
1100011110001
0011110110011
0111110110101
1011111110110
1100001100001
1000111100011
0100110100101
0111111000110
1000011001000
1000000001001
0011101101010
1000000001100
1001101101101
1000000001110
1000000010000
1000000010001
1000000010010
1001000010101
1010100010111
0101001000110
0011111001000
1001001001101
1010011110000
0101111010001
0011101010010
1010100010100
1010010111000
0111111100000
0111111100001
0110011100010
0110100000011
0101110100100
0111111100101
0111111100110
1010010000111
0111111101000
0111111101001
0111111101010
0111111101011
1000000001100
0111111101101
0111111101111
0111111110000
1000000010001
0111100110100
0100100110101
1001001110110
0110010010111
0111111111000
1011100000000
1011100000001
1010000100010
1011100100011
1000000000101
1100011100110
1001010101000
0110001001001
1001010101010
0101011101111
0100111010001
0111111110110
0111111110111
0101111000000
1011000000001
0100010000011
0100001100100
1010100001010
0111111101011
0011100101100
1000000001111
1011000110010
0101010110011
1010110010101
0101011000000
0111111100001
0101100000010
0111111100101
0111100100110
1001100001000
1100011101001
0111111101010
0111111101011
1000001001101
1010110001110
1001111110001
1000101110010
1000000010011
1000010110100
1000000010101
1010101010110
0111100000000
1001100000010
1001110100011
1010111000101
1100010100110
1000100000111
1010001101000
0110001001001
1000000001010
1000000001011
0110000001100
0111111101101
0101110001110
0111111110001
1010100110011
0100100010100
0111010010101
0111010010110
0011101110111
0000000000000
