1011111000001
1100010000010
0111111100011
0111111100100
1001001000111
1001110001000
0101110101001
0111111101010
1011011101011
1000000001100
0100011101110
1011000110001
0100001010100
1100001011000
1011010100000
1001110000010
1010101100100
0101111100101
1000000000111
1000000001000
1000000001100
1000000001101
0110011001111
0110100110000
0111111110001
0100001110010
0111111110011
1011110010100
0111111110110
0100001110111
0110110011000
1011010100010
0011101100011
0101011100100
1000000000110
1000000000111
1000010001000
0100011001011
0111111101100
0111111101101
0111110101110
0111111110000
0111111110001
0111111110010
1000000010100
0011111110101
1000000010111
1000000011000
1000000000000
0111111100001
0111111100010
1000000000011
1000000000100
0111111100110
0011100100111
1000000001000
1001101001001
0100010101010
0111111101011
1000000001101
0101010001110
0011100110000
1011001110010
0100011110011
1000000010100
0100011110101
0011110110111
0110000011000
1011110000001
1000000000010
1000000000011
1000000000100
0111111100110
0100010000111
1000000001000
1000000001001
0101100101010
0111111101011
0111111101100
0111111101101
0111111101110
0100101110000
0111111110001
0111111110010
0111111110011
1010001010100
1001100010101
1000000010110
1000000000000
1000000000001
0011111000010
0101011000011
1000000000101
1010111000110
0111111100111
0111111101000
1000000001001
1011001101010
0111111101011
0111111101100
1001001001110
0111111110000
0101101010001
1000000010010
0100111010100
0110111110101
1000000010110
0111111100001
0101000100010
0101011100011
0101011000101
0111111100110
0111111100111
0110010001000
1001110001001
1000000001010
1000000001011
0100010101101
0101010101110
1000000001111
1011001010000
0111111110001
0110011110010
1100100010011
0111111110101
0111111110110
1011110110111
1010100111000
0111111100011
0110101000101
0110011000111
0111111101000
1000000001011
0100000101100
0100100001101
1000000010000
0101110010001
0100101110010
0101000010011
1000111110100
1010110010101
0110100010110
0000000000000
