1011111000001
1100010000010
0111111100011
0111111100100
1001001000111
1001110001000
0101110101001
0111111101010
1011011101011
1000000001100
0100011101110
1011000110001
0100001010100
1100001011000
1011010100000
1001110000010
1010101100100
0101111100101
1000000000111
1000000001000
1000000001100
1000000001101
0110011001111
0110100110000
0111111110001
0100001110010
0111111110011
1011110010100
0111111110110
0100001110111
0110110011000
1011010100010
0011101100011
0101011100100
1000000000110
1000000000111
1000010001000
0100011001011
0111111101100
0111111101101
0111110101110
0111111110000
0111111110001
0111111110010
1000000010100
0011111110101
1000000010111
1000000011000
1000000000000
0111111100001
0111111100010
1000000000011
1000000000100
0111111100110
0011100100111
1000000001000
1001101001001
0100010101010
0111111101011
1000000001101
0101010001110
0011100110000
1011001110010
0100011110011
1000000010100
0100011110101
0011110110111
0110000011000
1011110000001
1000000000010
1000000000011
1000000000100
0111111100110
0100010000111
1000000001000
1000000001001
0101100101010
0111111101011
0111111101100
0111111101101
0111111101110
0100101110000
0111111110001
0111111110010
0111111110011
1010001010100
1001100010101
1000000010110
1000000000000
1000000000001
0011111000010
0101011000011
1000000000101
1010111000110
0111111100111
0111111101000
1000000001001
1011001101010
0111111101011
0111111101100
1001001001110
0111111110000
0101101010001
1000000010010
0100111010100
0110111110101
1000000010110
0111111100001
0101000100010
0101011100011
0101011000101
0111111100110
0111111100111
0110010001000
1001110001001
1000000001010
1000000001011
0100010101101
0101010101110
1000000001111
1011001010000
0111111110001
0110011110010
1100100010011
0111111110101
0111111110110
1011110110111
1010100111000
0111111100011
0110101000101
0110011000111
0111111101000
1000000001011
0100000101100
0100100001101
1000000010000
0101110010001
0100101110010
0101000010011
1000111110100
1010110010101
0110100010110
0000000000000
1011111000001
1100010000010
0111111100011
0111111100100
1001001000111
1001110001000
0101110101001
0111111101010
1011011101011
1000000001100
0100011101110
1011000110001
0100001010100
1100001011000
1011010100000
1001110000010
1010101100100
0101111100101
1000000000111
1000000001000
1000000001100
1000000001101
0110011001111
0110100110000
0111111110001
0100001110010
0111111110011
1011110010100
0111111110110
0100001110111
0110110011000
1011010100010
0011101100011
0101011100100
1000000000110
1000000000111
1000010001000
0100011001011
0111111101100
0111111101101
0111110101110
0111111110000
0111111110001
0111111110010
1000000010100
0011111110101
1000000010111
1000000011000
1000000000000
0111111100001
0111111100010
1000000000011
1000000000100
0111111100110
0011100100111
1000000001000
1001101001001
0100010101010
0111111101011
1000000001101
0101010001110
0011100110000
1011001110010
0100011110011
1000000010100
0100011110101
0011110110111
0110000011000
1011110000001
1000000000010
1000000000011
1000000000100
0111111100110
0100010000111
1000000001000
1000000001001
0101100101010
0111111101011
0111111101100
0111111101101
0111111101110
0100101110000
0111111110001
0111111110010
0111111110011
1010001010100
1001100010101
1000000010110
1000000000000
1000000000001
0011111000010
0101011000011
1000000000101
1010111000110
0111111100111
0111111101000
1000000001001
1011001101010
0111111101011
0111111101100
1001001001110
0111111110000
0101101010001
1000000010010
0100111010100
0110111110101
1000000010110
0111111100001
0101000100010
0101011100011
0101011000101
0111111100110
0111111100111
0110010001000
1001110001001
1000000001010
1000000001011
0100010101101
0101010101110
1000000001111
1011001010000
0111111110001
0110011110010
1100100010011
0111111110101
0111111110110
1011110110111
1010100111000
0111111100011
0110101000101
0110011000111
0111111101000
1000000001011
0100000101100
0100100001101
1000000010000
0101110010001
0100101110010
0101000010011
1000111110100
1010110010101
0110100010110
0000000000000
1011111000001
1100010000010
0111111100011
0111111100100
1001001000111
1001110001000
0101110101001
0111111101010
1011011101011
1000000001100
0100011101110
1011000110001
0100001010100
1100001011000
1011010100000
1001110000010
1010101100100
0101111100101
1000000000111
1000000001000
1000000001100
1000000001101
0110011001111
0110100110000
0111111110001
0100001110010
0111111110011
1011110010100
0111111110110
0100001110111
0110110011000
1011010100010
0011101100011
0101011100100
1000000000110
1000000000111
1000010001000
0100011001011
0111111101100
0111111101101
0111110101110
0111111110000
0111111110001
0111111110010
1000000010100
0011111110101
1000000010111
1000000011000
1000000000000
0111111100001
0111111100010
1000000000011
1000000000100
0111111100110
0011100100111
1000000001000
1001101001001
0100010101010
0111111101011
1000000001101
0101010001110
0011100110000
1011001110010
0100011110011
1000000010100
0100011110101
0011110110111
0110000011000
1011110000001
1000000000010
1000000000011
1000000000100
0111111100110
0100010000111
1000000001000
1000000001001
0101100101010
0111111101011
0111111101100
0111111101101
0111111101110
0100101110000
0111111110001
0111111110010
0111111110011
1010001010100
1001100010101
1000000010110
1000000000000
1000000000001
0011111000010
0101011000011
1000000000101
1010111000110
0111111100111
0111111101000
1000000001001
1011001101010
0111111101011
0111111101100
1001001001110
0111111110000
0101101010001
1000000010010
0100111010100
0110111110101
1000000010110
0111111100001
0101000100010
0101011100011
0101011000101
0111111100110
0111111100111
0110010001000
1001110001001
1000000001010
1000000001011
0100010101101
0101010101110
1000000001111
1011001010000
0111111110001
0110011110010
1100100010011
0111111110101
0111111110110
1011110110111
1010100111000
0111111100011
0110101000101
0110011000111
0111111101000
1000000001011
0100000101100
0100100001101
1000000010000
0101110010001
0100101110010
0101000010011
1000111110100
1010110010101
0110100010110
0000000000000
1011111000001
1100010000010
0111111100011
0111111100100
1001001000111
1001110001000
0101110101001
0111111101010
1011011101011
1000000001100
0100011101110
1011000110001
0100001010100
1100001011000
1011010100000
1001110000010
1010101100100
0101111100101
1000000000111
1000000001000
1000000001100
1000000001101
0110011001111
0110100110000
0111111110001
0100001110010
0111111110011
1011110010100
0111111110110
0100001110111
0110110011000
1011010100010
0011101100011
0101011100100
1000000000110
1000000000111
1000010001000
0100011001011
0111111101100
0111111101101
0111110101110
0111111110000
0111111110001
0111111110010
1000000010100
0011111110101
1000000010111
1000000011000
1000000000000
0111111100001
0111111100010
1000000000011
1000000000100
0111111100110
0011100100111
1000000001000
1001101001001
0100010101010
0111111101011
1000000001101
0101010001110
0011100110000
1011001110010
0100011110011
1000000010100
0100011110101
0011110110111
0110000011000
1011110000001
1000000000010
1000000000011
1000000000100
0111111100110
0100010000111
1000000001000
1000000001001
0101100101010
0111111101011
0111111101100
0111111101101
0111111101110
0100101110000
0111111110001
0111111110010
0111111110011
1010001010100
1001100010101
1000000010110
1000000000000
1000000000001
0011111000010
0101011000011
1000000000101
1010111000110
0111111100111
0111111101000
1000000001001
1011001101010
0111111101011
0111111101100
1001001001110
0111111110000
0101101010001
1000000010010
0100111010100
0110111110101
1000000010110
0111111100001
0101000100010
0101011100011
0101011000101
0111111100110
0111111100111
0110010001000
1001110001001
1000000001010
1000000001011
0100010101101
0101010101110
1000000001111
1011001010000
0111111110001
0110011110010
1100100010011
0111111110101
0111111110110
1011110110111
1010100111000
0111111100011
0110101000101
0110011000111
0111111101000
1000000001011
0100000101100
0100100001101
1000000010000
0101110010001
0100101110010
0101000010011
1000111110100
1010110010101
0110100010110
0000000000000
1011111000001
1100010000010
0111111100011
0111111100100
1001001000111
1001110001000
0101110101001
0111111101010
1011011101011
1000000001100
0100011101110
1011000110001
0100001010100
1100001011000
1011010100000
1001110000010
1010101100100
0101111100101
1000000000111
1000000001000
1000000001100
1000000001101
0110011001111
0110100110000
0111111110001
0100001110010
0111111110011
1011110010100
0111111110110
0100001110111
0110110011000
1011010100010
0011101100011
0101011100100
1000000000110
1000000000111
1000010001000
0100011001011
0111111101100
0111111101101
0111110101110
0111111110000
0111111110001
0111111110010
1000000010100
0011111110101
1000000010111
1000000011000
1000000000000
0111111100001
0111111100010
1000000000011
1000000000100
0111111100110
0011100100111
1000000001000
1001101001001
0100010101010
0111111101011
1000000001101
0101010001110
0011100110000
1011001110010
0100011110011
1000000010100
0100011110101
0011110110111
0110000011000
1011110000001
1000000000010
1000000000011
1000000000100
0111111100110
0100010000111
1000000001000
1000000001001
0101100101010
0111111101011
0111111101100
0111111101101
0111111101110
0100101110000
0111111110001
0111111110010
0111111110011
1010001010100
1001100010101
1000000010110
1000000000000
1000000000001
0011111000010
0101011000011
1000000000101
1010111000110
0111111100111
0111111101000
1000000001001
1011001101010
0111111101011
0111111101100
1001001001110
0111111110000
0101101010001
1000000010010
0100111010100
0110111110101
1000000010110
0111111100001
0101000100010
0101011100011
0101011000101
0111111100110
0111111100111
0110010001000
1001110001001
1000000001010
1000000001011
0100010101101
0101010101110
1000000001111
1011001010000
0111111110001
0110011110010
1100100010011
0111111110101
0111111110110
1011110110111
1010100111000
0111111100011
0110101000101
0110011000111
0111111101000
1000000001011
0100000101100
0100100001101
1000000010000
0101110010001
0100101110010
0101000010011
1000111110100
1010110010101
0110100010110
0000000000000
1011111000001
1100010000010
0111111100011
0111111100100
1001001000111
1001110001000
0101110101001
0111111101010
1011011101011
1000000001100
0100011101110
1011000110001
0100001010100
1100001011000
1011010100000
1001110000010
1010101100100
0101111100101
1000000000111
1000000001000
1000000001100
1000000001101
0110011001111
0110100110000
0111111110001
0100001110010
0111111110011
1011110010100
0111111110110
0100001110111
0110110011000
1011010100010
0011101100011
0101011100100
1000000000110
1000000000111
1000010001000
0100011001011
0111111101100
0111111101101
0111110101110
0111111110000
0111111110001
0111111110010
1000000010100
0011111110101
1000000010111
1000000011000
1000000000000
0111111100001
0111111100010
1000000000011
1000000000100
0111111100110
0011100100111
1000000001000
1001101001001
0100010101010
0111111101011
1000000001101
0101010001110
0011100110000
1011001110010
0100011110011
1000000010100
0100011110101
0011110110111
0110000011000
1011110000001
1000000000010
1000000000011
1000000000100
0111111100110
0100010000111
1000000001000
1000000001001
0101100101010
0111111101011
0111111101100
0111111101101
0111111101110
0100101110000
0111111110001
0111111110010
0111111110011
1010001010100
1001100010101
1000000010110
1000000000000
1000000000001
0011111000010
0101011000011
1000000000101
1010111000110
0111111100111
0111111101000
1000000001001
1011001101010
0111111101011
0111111101100
1001001001110
0111111110000
0101101010001
1000000010010
0100111010100
0110111110101
1000000010110
0111111100001
0101000100010
0101011100011
0101011000101
0111111100110
0111111100111
0110010001000
1001110001001
1000000001010
1000000001011
0100010101101
0101010101110
1000000001111
1011001010000
0111111110001
0110011110010
1100100010011
0111111110101
0111111110110
1011110110111
1010100111000
0111111100011
0110101000101
0110011000111
0111111101000
1000000001011
0100000101100
0100100001101
1000000010000
0101110010001
0100101110010
0101000010011
1000111110100
1010110010101
0110100010110
0000000000000
1011111000001
1100010000010
0111111100011
0111111100100
1001001000111
1001110001000
0101110101001
0111111101010
1011011101011
1000000001100
0100011101110
1011000110001
0100001010100
1100001011000
1011010100000
1001110000010
1010101100100
0101111100101
1000000000111
1000000001000
1000000001100
1000000001101
0110011001111
0110100110000
0111111110001
0100001110010
0111111110011
1011110010100
0111111110110
0100001110111
0110110011000
1011010100010
0011101100011
0101011100100
1000000000110
1000000000111
1000010001000
0100011001011
0111111101100
0111111101101
0111110101110
0111111110000
0111111110001
0111111110010
1000000010100
0011111110101
1000000010111
1000000011000
1000000000000
0111111100001
0111111100010
1000000000011
1000000000100
0111111100110
0011100100111
1000000001000
1001101001001
0100010101010
0111111101011
1000000001101
0101010001110
0011100110000
1011001110010
0100011110011
1000000010100
0100011110101
0011110110111
0110000011000
1011110000001
1000000000010
1000000000011
1000000000100
0111111100110
0100010000111
1000000001000
1000000001001
0101100101010
0111111101011
0111111101100
0111111101101
0111111101110
0100101110000
0111111110001
0111111110010
0111111110011
1010001010100
1001100010101
1000000010110
1000000000000
1000000000001
0011111000010
0101011000011
1000000000101
1010111000110
0111111100111
0111111101000
1000000001001
1011001101010
0111111101011
0111111101100
1001001001110
0111111110000
0101101010001
1000000010010
0100111010100
0110111110101
1000000010110
0111111100001
0101000100010
0101011100011
0101011000101
0111111100110
0111111100111
0110010001000
1001110001001
1000000001010
1000000001011
0100010101101
0101010101110
1000000001111
1011001010000
0111111110001
0110011110010
1100100010011
0111111110101
0111111110110
1011110110111
1010100111000
0111111100011
0110101000101
0110011000111
0111111101000
1000000001011
0100000101100
0100100001101
1000000010000
0101110010001
0100101110010
0101000010011
1000111110100
1010110010101
0110100010110
0000000000000
1011111000001
1100010000010
0111111100011
0111111100100
1001001000111
1001110001000
0101110101001
0111111101010
1011011101011
1000000001100
0100011101110
1011000110001
0100001010100
1100001011000
1011010100000
1001110000010
1010101100100
0101111100101
1000000000111
1000000001000
1000000001100
1000000001101
0110011001111
0110100110000
0111111110001
0100001110010
0111111110011
1011110010100
0111111110110
0100001110111
0110110011000
1011010100010
0011101100011
0101011100100
1000000000110
1000000000111
1000010001000
0100011001011
0111111101100
0111111101101
0111110101110
0111111110000
0111111110001
0111111110010
1000000010100
0011111110101
1000000010111
1000000011000
1000000000000
0111111100001
0111111100010
1000000000011
1000000000100
0111111100110
0011100100111
1000000001000
1001101001001
0100010101010
0111111101011
1000000001101
0101010001110
0011100110000
1011001110010
0100011110011
1000000010100
0100011110101
0011110110111
0110000011000
1011110000001
1000000000010
1000000000011
1000000000100
0111111100110
0100010000111
1000000001000
1000000001001
0101100101010
0111111101011
0111111101100
0111111101101
0111111101110
0100101110000
0111111110001
0111111110010
0111111110011
1010001010100
1001100010101
1000000010110
1000000000000
1000000000001
0011111000010
0101011000011
1000000000101
1010111000110
0111111100111
0111111101000
1000000001001
1011001101010
0111111101011
0111111101100
1001001001110
0111111110000
0101101010001
1000000010010
0100111010100
0110111110101
1000000010110
0111111100001
0101000100010
0101011100011
0101011000101
0111111100110
0111111100111
0110010001000
1001110001001
1000000001010
1000000001011
0100010101101
0101010101110
1000000001111
1011001010000
0111111110001
0110011110010
1100100010011
0111111110101
0111111110110
1011110110111
1010100111000
0111111100011
0110101000101
0110011000111
0111111101000
1000000001011
0100000101100
0100100001101
1000000010000
0101110010001
0100101110010
0101000010011
1000111110100
1010110010101
0110100010110
0000000000000
1011111000001
1100010000010
0111111100011
0111111100100
1001001000111
1001110001000
0101110101001
0111111101010
1011011101011
1000000001100
0100011101110
1011000110001
0100001010100
1100001011000
1011010100000
1001110000010
1010101100100
0101111100101
1000000000111
1000000001000
1000000001100
1000000001101
0110011001111
0110100110000
0111111110001
0100001110010
0111111110011
1011110010100
0111111110110
0100001110111
0110110011000
1011010100010
0011101100011
0101011100100
1000000000110
1000000000111
1000010001000
0100011001011
0111111101100
0111111101101
0111110101110
0111111110000
0111111110001
0111111110010
1000000010100
0011111110101
1000000010111
1000000011000
1000000000000
0111111100001
0111111100010
1000000000011
1000000000100
0111111100110
0011100100111
1000000001000
1001101001001
0100010101010
0111111101011
1000000001101
0101010001110
0011100110000
1011001110010
0100011110011
1000000010100
0100011110101
0011110110111
0110000011000
1011110000001
1000000000010
1000000000011
1000000000100
0111111100110
0100010000111
1000000001000
1000000001001
0101100101010
0111111101011
0111111101100
0111111101101
0111111101110
0100101110000
0111111110001
0111111110010
0111111110011
1010001010100
1001100010101
1000000010110
1000000000000
1000000000001
0011111000010
0101011000011
1000000000101
1010111000110
0111111100111
0111111101000
1000000001001
1011001101010
0111111101011
0111111101100
1001001001110
0111111110000
0101101010001
1000000010010
0100111010100
0110111110101
1000000010110
0111111100001
0101000100010
0101011100011
0101011000101
0111111100110
0111111100111
0110010001000
1001110001001
1000000001010
1000000001011
0100010101101
0101010101110
1000000001111
1011001010000
0111111110001
0110011110010
1100100010011
0111111110101
0111111110110
1011110110111
1010100111000
0111111100011
0110101000101
0110011000111
0111111101000
1000000001011
0100000101100
0100100001101
1000000010000
0101110010001
0100101110010
0101000010011
1000111110100
1010110010101
0110100010110
0000000000000
1011111000001
1100010000010
0111111100011
0111111100100
1001001000111
1001110001000
0101110101001
0111111101010
1011011101011
1000000001100
0100011101110
1011000110001
0100001010100
1100001011000
1011010100000
1001110000010
1010101100100
0101111100101
1000000000111
1000000001000
1000000001100
1000000001101
0110011001111
0110100110000
0111111110001
0100001110010
0111111110011
1011110010100
0111111110110
0100001110111
0110110011000
1011010100010
0011101100011
0101011100100
1000000000110
1000000000111
1000010001000
0100011001011
0111111101100
0111111101101
0111110101110
0111111110000
0111111110001
0111111110010
1000000010100
0011111110101
1000000010111
1000000011000
1000000000000
0111111100001
0111111100010
1000000000011
1000000000100
0111111100110
0011100100111
1000000001000
1001101001001
0100010101010
0111111101011
1000000001101
0101010001110
0011100110000
1011001110010
0100011110011
1000000010100
0100011110101
0011110110111
0110000011000
1011110000001
1000000000010
1000000000011
1000000000100
0111111100110
0100010000111
1000000001000
1000000001001
0101100101010
0111111101011
0111111101100
0111111101101
0111111101110
0100101110000
0111111110001
0111111110010
0111111110011
1010001010100
1001100010101
1000000010110
1000000000000
1000000000001
0011111000010
0101011000011
1000000000101
1010111000110
0111111100111
0111111101000
1000000001001
1011001101010
0111111101011
0111111101100
1001001001110
0111111110000
0101101010001
1000000010010
0100111010100
0110111110101
1000000010110
0111111100001
0101000100010
0101011100011
0101011000101
0111111100110
0111111100111
0110010001000
1001110001001
1000000001010
1000000001011
0100010101101
0101010101110
1000000001111
1011001010000
0111111110001
0110011110010
1100100010011
0111111110101
0111111110110
1011110110111
1010100111000
0111111100011
0110101000101
0110011000111
0111111101000
1000000001011
0100000101100
0100100001101
1000000010000
0101110010001
0100101110010
0101000010011
1000111110100
1010110010101
0110100010110
0000000000000
1011111000001
1100010000010
0111111100011
0111111100100
1001001000111
1001110001000
0101110101001
0111111101010
1011011101011
1000000001100
0100011101110
1011000110001
0100001010100
1100001011000
1011010100000
1001110000010
1010101100100
0101111100101
1000000000111
1000000001000
1000000001100
1000000001101
0110011001111
0110100110000
0111111110001
0100001110010
0111111110011
1011110010100
0111111110110
0100001110111
0110110011000
1011010100010
0011101100011
0101011100100
1000000000110
1000000000111
1000010001000
0100011001011
0111111101100
0111111101101
0111110101110
0111111110000
0111111110001
0111111110010
1000000010100
0011111110101
1000000010111
1000000011000
1000000000000
0111111100001
0111111100010
1000000000011
1000000000100
0111111100110
0011100100111
1000000001000
1001101001001
0100010101010
0111111101011
1000000001101
0101010001110
0011100110000
1011001110010
0100011110011
1000000010100
0100011110101
0011110110111
0110000011000
1011110000001
1000000000010
1000000000011
1000000000100
0111111100110
0100010000111
1000000001000
1000000001001
0101100101010
0111111101011
0111111101100
0111111101101
0111111101110
0100101110000
0111111110001
0111111110010
0111111110011
1010001010100
1001100010101
1000000010110
1000000000000
1000000000001
0011111000010
0101011000011
1000000000101
1010111000110
0111111100111
0111111101000
1000000001001
1011001101010
0111111101011
0111111101100
1001001001110
0111111110000
0101101010001
1000000010010
0100111010100
0110111110101
1000000010110
0111111100001
0101000100010
0101011100011
0101011000101
0111111100110
0111111100111
0110010001000
1001110001001
1000000001010
1000000001011
0100010101101
0101010101110
1000000001111
1011001010000
0111111110001
0110011110010
1100100010011
0111111110101
0111111110110
1011110110111
1010100111000
0111111100011
0110101000101
0110011000111
0111111101000
1000000001011
0100000101100
0100100001101
1000000010000
0101110010001
0100101110010
0101000010011
1000111110100
1010110010101
0110100010110
0000000000000
1011111000001
1100010000010
0111111100011
0111111100100
1001001000111
1001110001000
0101110101001
0111111101010
1011011101011
1000000001100
0100011101110
1011000110001
0100001010100
1100001011000
1011010100000
1001110000010
1010101100100
0101111100101
1000000000111
1000000001000
1000000001100
1000000001101
0110011001111
0110100110000
0111111110001
0100001110010
0111111110011
1011110010100
0111111110110
0100001110111
0110110011000
1011010100010
0011101100011
0101011100100
1000000000110
1000000000111
1000010001000
0100011001011
0111111101100
0111111101101
0111110101110
0111111110000
0111111110001
0111111110010
1000000010100
0011111110101
1000000010111
1000000011000
1000000000000
0111111100001
0111111100010
1000000000011
1000000000100
0111111100110
0011100100111
1000000001000
1001101001001
0100010101010
0111111101011
1000000001101
0101010001110
0011100110000
1011001110010
0100011110011
1000000010100
0100011110101
0011110110111
0110000011000
1011110000001
1000000000010
1000000000011
1000000000100
0111111100110
0100010000111
1000000001000
1000000001001
0101100101010
0111111101011
0111111101100
0111111101101
0111111101110
0100101110000
0111111110001
0111111110010
0111111110011
1010001010100
1001100010101
1000000010110
1000000000000
1000000000001
0011111000010
0101011000011
1000000000101
1010111000110
0111111100111
0111111101000
1000000001001
1011001101010
0111111101011
0111111101100
1001001001110
0111111110000
0101101010001
1000000010010
0100111010100
0110111110101
1000000010110
0111111100001
0101000100010
0101011100011
0101011000101
0111111100110
0111111100111
0110010001000
1001110001001
1000000001010
1000000001011
0100010101101
0101010101110
1000000001111
1011001010000
0111111110001
0110011110010
1100100010011
0111111110101
0111111110110
1011110110111
1010100111000
0111111100011
0110101000101
0110011000111
0111111101000
1000000001011
0100000101100
0100100001101
1000000010000
0101110010001
0100101110010
0101000010011
1000111110100
1010110010101
0110100010110
0000000000000
1011111000001
1100010000010
0111111100011
0111111100100
1001001000111
1001110001000
0101110101001
0111111101010
1011011101011
1000000001100
0100011101110
1011000110001
0100001010100
1100001011000
1011010100000
1001110000010
1010101100100
0101111100101
1000000000111
1000000001000
1000000001100
1000000001101
0110011001111
0110100110000
0111111110001
0100001110010
0111111110011
1011110010100
0111111110110
0100001110111
0110110011000
1011010100010
0011101100011
0101011100100
1000000000110
1000000000111
1000010001000
0100011001011
0111111101100
0111111101101
0111110101110
0111111110000
0111111110001
0111111110010
1000000010100
0011111110101
1000000010111
1000000011000
1000000000000
0111111100001
0111111100010
1000000000011
1000000000100
0111111100110
0011100100111
1000000001000
1001101001001
0100010101010
0111111101011
1000000001101
0101010001110
0011100110000
1011001110010
0100011110011
1000000010100
0100011110101
0011110110111
0110000011000
1011110000001
1000000000010
1000000000011
1000000000100
0111111100110
0100010000111
1000000001000
1000000001001
0101100101010
0111111101011
0111111101100
0111111101101
0111111101110
0100101110000
0111111110001
0111111110010
0111111110011
1010001010100
1001100010101
1000000010110
1000000000000
1000000000001
0011111000010
0101011000011
1000000000101
1010111000110
0111111100111
0111111101000
1000000001001
1011001101010
0111111101011
0111111101100
1001001001110
0111111110000
0101101010001
1000000010010
0100111010100
0110111110101
1000000010110
0111111100001
0101000100010
0101011100011
0101011000101
0111111100110
0111111100111
0110010001000
1001110001001
1000000001010
1000000001011
0100010101101
0101010101110
1000000001111
1011001010000
0111111110001
0110011110010
1100100010011
0111111110101
0111111110110
1011110110111
1010100111000
0111111100011
0110101000101
0110011000111
0111111101000
1000000001011
0100000101100
0100100001101
1000000010000
0101110010001
0100101110010
0101000010011
1000111110100
1010110010101
0110100010110
0000000000000
1011111000001
1100010000010
0111111100011
0111111100100
1001001000111
1001110001000
0101110101001
0111111101010
1011011101011
1000000001100
0100011101110
1011000110001
0100001010100
1100001011000
1011010100000
1001110000010
1010101100100
0101111100101
1000000000111
1000000001000
1000000001100
1000000001101
0110011001111
0110100110000
0111111110001
0100001110010
0111111110011
1011110010100
0111111110110
0100001110111
0110110011000
1011010100010
0011101100011
0101011100100
1000000000110
1000000000111
1000010001000
0100011001011
0111111101100
0111111101101
0111110101110
0111111110000
0111111110001
0111111110010
1000000010100
0011111110101
1000000010111
1000000011000
1000000000000
0111111100001
0111111100010
1000000000011
1000000000100
0111111100110
0011100100111
1000000001000
1001101001001
0100010101010
0111111101011
1000000001101
0101010001110
0011100110000
1011001110010
0100011110011
1000000010100
0100011110101
0011110110111
0110000011000
1011110000001
1000000000010
1000000000011
1000000000100
0111111100110
0100010000111
1000000001000
1000000001001
0101100101010
0111111101011
0111111101100
0111111101101
0111111101110
0100101110000
0111111110001
0111111110010
0111111110011
1010001010100
1001100010101
1000000010110
1000000000000
1000000000001
0011111000010
0101011000011
1000000000101
1010111000110
0111111100111
0111111101000
1000000001001
1011001101010
0111111101011
0111111101100
1001001001110
0111111110000
0101101010001
1000000010010
0100111010100
0110111110101
1000000010110
0111111100001
0101000100010
0101011100011
0101011000101
0111111100110
0111111100111
0110010001000
1001110001001
1000000001010
1000000001011
0100010101101
0101010101110
1000000001111
1011001010000
0111111110001
0110011110010
1100100010011
0111111110101
0111111110110
1011110110111
1010100111000
0111111100011
0110101000101
0110011000111
0111111101000
1000000001011
0100000101100
0100100001101
1000000010000
0101110010001
0100101110010
0101000010011
1000111110100
1010110010101
0110100010110
0000000000000
1011111000001
1100010000010
0111111100011
0111111100100
1001001000111
1001110001000
0101110101001
0111111101010
1011011101011
1000000001100
0100011101110
1011000110001
0100001010100
1100001011000
1011010100000
1001110000010
1010101100100
0101111100101
1000000000111
1000000001000
1000000001100
1000000001101
0110011001111
0110100110000
0111111110001
0100001110010
0111111110011
1011110010100
0111111110110
0100001110111
0110110011000
1011010100010
0011101100011
0101011100100
1000000000110
1000000000111
1000010001000
0100011001011
0111111101100
0111111101101
0111110101110
0111111110000
0111111110001
0111111110010
1000000010100
0011111110101
1000000010111
1000000011000
1000000000000
0111111100001
0111111100010
1000000000011
1000000000100
0111111100110
0011100100111
1000000001000
1001101001001
0100010101010
0111111101011
1000000001101
0101010001110
0011100110000
1011001110010
0100011110011
1000000010100
0100011110101
0011110110111
0110000011000
1011110000001
1000000000010
1000000000011
1000000000100
0111111100110
0100010000111
1000000001000
1000000001001
0101100101010
0111111101011
0111111101100
0111111101101
0111111101110
0100101110000
0111111110001
0111111110010
0111111110011
1010001010100
1001100010101
1000000010110
1000000000000
1000000000001
0011111000010
0101011000011
1000000000101
1010111000110
0111111100111
0111111101000
1000000001001
1011001101010
0111111101011
0111111101100
1001001001110
0111111110000
0101101010001
1000000010010
0100111010100
0110111110101
1000000010110
0111111100001
0101000100010
0101011100011
0101011000101
0111111100110
0111111100111
0110010001000
1001110001001
1000000001010
1000000001011
0100010101101
0101010101110
1000000001111
1011001010000
0111111110001
0110011110010
1100100010011
0111111110101
0111111110110
1011110110111
1010100111000
0111111100011
0110101000101
0110011000111
0111111101000
1000000001011
0100000101100
0100100001101
1000000010000
0101110010001
0100101110010
0101000010011
1000111110100
1010110010101
0110100010110
0000000000000
1011111000001
1100010000010
0111111100011
0111111100100
1001001000111
1001110001000
0101110101001
0111111101010
1011011101011
1000000001100
0100011101110
1011000110001
0100001010100
1100001011000
1011010100000
1001110000010
1010101100100
0101111100101
1000000000111
1000000001000
1000000001100
1000000001101
0110011001111
0110100110000
0111111110001
0100001110010
0111111110011
1011110010100
0111111110110
0100001110111
0110110011000
1011010100010
0011101100011
0101011100100
1000000000110
1000000000111
1000010001000
0100011001011
0111111101100
0111111101101
0111110101110
0111111110000
0111111110001
0111111110010
1000000010100
0011111110101
1000000010111
1000000011000
1000000000000
0111111100001
0111111100010
1000000000011
1000000000100
0111111100110
0011100100111
1000000001000
1001101001001
0100010101010
0111111101011
1000000001101
0101010001110
0011100110000
1011001110010
0100011110011
1000000010100
0100011110101
0011110110111
0110000011000
1011110000001
1000000000010
1000000000011
1000000000100
0111111100110
0100010000111
1000000001000
1000000001001
0101100101010
0111111101011
0111111101100
0111111101101
0111111101110
0100101110000
0111111110001
0111111110010
0111111110011
1010001010100
1001100010101
1000000010110
1000000000000
1000000000001
0011111000010
0101011000011
1000000000101
1010111000110
0111111100111
0111111101000
1000000001001
1011001101010
0111111101011
0111111101100
1001001001110
0111111110000
0101101010001
1000000010010
0100111010100
0110111110101
1000000010110
0111111100001
0101000100010
0101011100011
0101011000101
0111111100110
0111111100111
0110010001000
1001110001001
1000000001010
1000000001011
0100010101101
0101010101110
1000000001111
1011001010000
0111111110001
0110011110010
1100100010011
0111111110101
0111111110110
1011110110111
1010100111000
0111111100011
0110101000101
0110011000111
0111111101000
1000000001011
0100000101100
0100100001101
1000000010000
0101110010001
0100101110010
0101000010011
1000111110100
1010110010101
0110100010110
0000000000000
0111111100000
0111111100001
1011001000010
1000000000011
1000000000100
0111111100101
1000000000111
1100011101000
1010101001001
1000000001110
0100001110000
0101111010001
1011010110011
0100011110100
0111111110101
0101010010110
1100010010111
1000000000000
0111110000010
0110100000011
0101110100100
0110110100101
0111111100110
0111111100111
0111111101000
0111111101001
0111111101010
0111111101011
0100001101100
0100000101110
1000000010000
1000000010001
1000000010010
1000000010011
1000000010100
1000000010101
1001111010110
1000000010111
0100000011000
1000011100000
1000000000001
1000000000010
1010011100011
1000000000100
1000000000101
1000011100110
1010010100111
0111111101000
0111000001001
0110000001010
0111100101011
0111111101100
0111111101101
0111111101110
0101110010001
0110000010010
1011001010100
1000001110101
1011000110110
1000000011000
0101110100000
0111111100001
0100100100010
0110010100100
0111111100101
0111111100110
0100100100111
1000000001000
0110011101010
0111011001011
1000000001100
1011001001101
0100101101110
1000000010001
1100011010010
0111111110011
0100011110100
0100100110111
1100010000000
1000000000001
1000000000010
1000000000011
1011011100100
0111000000110
0101100100111
1100001101000
0111111101010
0111111101011
0011110101100
0111111101101
0111111101110
1001101110000
0011111010100
1000000010101
0011111110110
0101010110111
0111111111000
1001110000001
1000000000010
1000000000011
0100010000101
0110100000110
0111111100111
0111111101000
0111111101001
1011111101010
0111110001011
0111111101100
0111111101101
0110001101110
1000000001111
1000000010000
1000000010001
1000000010010
1000000010011
1000000010100
1000000010101
1000000010110
1001001010111
1100010111000
0101110000000
0101001100001
0100000000010
0011100100011
0101011000100
0110100100110
1011111101001
0111111101100
0110101101101
1000000001111
0100000010001
0111111110010
0111111110011
1000000010100
1000000010101
1000000010110
1001001111000
0111111100001
0110010000010
1000000000011
1000000000100
1100010000101
1000000000111
1000000001000
1000000001010
1001001101011
1001101001100
0111111101110
0111111110001
0111111110010
0111111110011
0111111110100
0111111110101
0111111110110
0111111110111
1000010111000
0000000000000
0111111100000
0111111100001
1011001000010
1000000000011
1000000000100
0111111100101
1000000000111
1100011101000
1010101001001
1000000001110
0100001110000
0101111010001
1011010110011
0100011110100
0111111110101
0101010010110
1100010010111
1000000000000
0111110000010
0110100000011
0101110100100
0110110100101
0111111100110
0111111100111
0111111101000
0111111101001
0111111101010
0111111101011
0100001101100
0100000101110
1000000010000
1000000010001
1000000010010
1000000010011
1000000010100
1000000010101
1001111010110
1000000010111
0100000011000
1000011100000
1000000000001
1000000000010
1010011100011
1000000000100
1000000000101
1000011100110
1010010100111
0111111101000
0111000001001
0110000001010
0111100101011
0111111101100
0111111101101
0111111101110
0101110010001
0110000010010
1011001010100
1000001110101
1011000110110
1000000011000
0101110100000
0111111100001
0100100100010
0110010100100
0111111100101
0111111100110
0100100100111
1000000001000
0110011101010
0111011001011
1000000001100
1011001001101
0100101101110
1000000010001
1100011010010
0111111110011
0100011110100
0100100110111
1100010000000
1000000000001
1000000000010
1000000000011
1011011100100
0111000000110
0101100100111
1100001101000
0111111101010
0111111101011
0011110101100
0111111101101
0111111101110
1001101110000
0011111010100
1000000010101
0011111110110
0101010110111
0111111111000
1001110000001
1000000000010
1000000000011
0100010000101
0110100000110
0111111100111
0111111101000
0111111101001
1011111101010
0111110001011
0111111101100
0111111101101
0110001101110
1000000001111
1000000010000
1000000010001
1000000010010
1000000010011
1000000010100
1000000010101
1000000010110
1001001010111
1100010111000
0101110000000
0101001100001
0100000000010
0011100100011
0101011000100
0110100100110
1011111101001
0111111101100
0110101101101
1000000001111
0100000010001
0111111110010
0111111110011
1000000010100
1000000010101
1000000010110
1001001111000
0111111100001
0110010000010
1000000000011
1000000000100
1100010000101
1000000000111
1000000001000
1000000001010
1001001101011
1001101001100
0111111101110
0111111110001
0111111110010
0111111110011
0111111110100
0111111110101
0111111110110
0111111110111
1000010111000
0000000000000
0111111100000
0111111100001
1011001000010
1000000000011
1000000000100
0111111100101
1000000000111
1100011101000
1010101001001
1000000001110
0100001110000
0101111010001
1011010110011
0100011110100
0111111110101
0101010010110
1100010010111
1000000000000
0111110000010
0110100000011
0101110100100
0110110100101
0111111100110
0111111100111
0111111101000
0111111101001
0111111101010
0111111101011
0100001101100
0100000101110
1000000010000
1000000010001
1000000010010
1000000010011
1000000010100
1000000010101
1001111010110
1000000010111
0100000011000
1000011100000
1000000000001
1000000000010
1010011100011
1000000000100
1000000000101
1000011100110
1010010100111
0111111101000
0111000001001
0110000001010
0111100101011
0111111101100
0111111101101
0111111101110
0101110010001
0110000010010
1011001010100
1000001110101
1011000110110
1000000011000
0101110100000
0111111100001
0100100100010
0110010100100
0111111100101
0111111100110
0100100100111
1000000001000
0110011101010
0111011001011
1000000001100
1011001001101
0100101101110
1000000010001
1100011010010
0111111110011
0100011110100
0100100110111
1100010000000
1000000000001
1000000000010
1000000000011
1011011100100
0111000000110
0101100100111
1100001101000
0111111101010
0111111101011
0011110101100
0111111101101
0111111101110
1001101110000
0011111010100
1000000010101
0011111110110
0101010110111
0111111111000
1001110000001
1000000000010
1000000000011
0100010000101
0110100000110
0111111100111
0111111101000
0111111101001
1011111101010
0111110001011
0111111101100
0111111101101
0110001101110
1000000001111
1000000010000
1000000010001
1000000010010
1000000010011
1000000010100
1000000010101
1000000010110
1001001010111
1100010111000
0101110000000
0101001100001
0100000000010
0011100100011
0101011000100
0110100100110
1011111101001
0111111101100
0110101101101
1000000001111
0100000010001
0111111110010
0111111110011
1000000010100
1000000010101
1000000010110
1001001111000
0111111100001
0110010000010
1000000000011
1000000000100
1100010000101
1000000000111
1000000001000
1000000001010
1001001101011
1001101001100
0111111101110
0111111110001
0111111110010
0111111110011
0111111110100
0111111110101
0111111110110
0111111110111
1000010111000
0000000000000
0111111100000
0111111100001
1011001000010
1000000000011
1000000000100
0111111100101
1000000000111
1100011101000
1010101001001
1000000001110
0100001110000
0101111010001
1011010110011
0100011110100
0111111110101
0101010010110
1100010010111
1000000000000
0111110000010
0110100000011
0101110100100
0110110100101
0111111100110
0111111100111
0111111101000
0111111101001
0111111101010
0111111101011
0100001101100
0100000101110
1000000010000
1000000010001
1000000010010
1000000010011
1000000010100
1000000010101
1001111010110
1000000010111
0100000011000
1000011100000
1000000000001
1000000000010
1010011100011
1000000000100
1000000000101
1000011100110
1010010100111
0111111101000
0111000001001
0110000001010
0111100101011
0111111101100
0111111101101
0111111101110
0101110010001
0110000010010
1011001010100
1000001110101
1011000110110
1000000011000
0101110100000
0111111100001
0100100100010
0110010100100
0111111100101
0111111100110
0100100100111
1000000001000
0110011101010
0111011001011
1000000001100
1011001001101
0100101101110
1000000010001
1100011010010
0111111110011
0100011110100
0100100110111
1100010000000
1000000000001
1000000000010
1000000000011
1011011100100
0111000000110
0101100100111
1100001101000
0111111101010
0111111101011
0011110101100
0111111101101
0111111101110
1001101110000
0011111010100
1000000010101
0011111110110
0101010110111
0111111111000
1001110000001
1000000000010
1000000000011
0100010000101
0110100000110
0111111100111
0111111101000
0111111101001
1011111101010
0111110001011
0111111101100
0111111101101
0110001101110
1000000001111
1000000010000
1000000010001
1000000010010
1000000010011
1000000010100
1000000010101
1000000010110
1001001010111
1100010111000
0101110000000
0101001100001
0100000000010
0011100100011
0101011000100
0110100100110
1011111101001
0111111101100
0110101101101
1000000001111
0100000010001
0111111110010
0111111110011
1000000010100
1000000010101
1000000010110
1001001111000
0111111100001
0110010000010
1000000000011
1000000000100
1100010000101
1000000000111
1000000001000
1000000001010
1001001101011
1001101001100
0111111101110
0111111110001
0111111110010
0111111110011
0111111110100
0111111110101
0111111110110
0111111110111
1000010111000
0000000000000
0111111100000
0111111100001
1011001000010
1000000000011
1000000000100
0111111100101
1000000000111
1100011101000
1010101001001
1000000001110
0100001110000
0101111010001
1011010110011
0100011110100
0111111110101
0101010010110
1100010010111
1000000000000
0111110000010
0110100000011
0101110100100
0110110100101
0111111100110
0111111100111
0111111101000
0111111101001
0111111101010
0111111101011
0100001101100
0100000101110
1000000010000
1000000010001
1000000010010
1000000010011
1000000010100
1000000010101
1001111010110
1000000010111
0100000011000
1000011100000
1000000000001
1000000000010
1010011100011
1000000000100
1000000000101
1000011100110
1010010100111
0111111101000
0111000001001
0110000001010
0111100101011
0111111101100
0111111101101
0111111101110
0101110010001
0110000010010
1011001010100
1000001110101
1011000110110
1000000011000
0101110100000
0111111100001
0100100100010
0110010100100
0111111100101
0111111100110
0100100100111
1000000001000
0110011101010
0111011001011
1000000001100
1011001001101
0100101101110
1000000010001
1100011010010
0111111110011
0100011110100
0100100110111
1100010000000
1000000000001
1000000000010
1000000000011
1011011100100
0111000000110
0101100100111
1100001101000
0111111101010
0111111101011
0011110101100
0111111101101
0111111101110
1001101110000
0011111010100
1000000010101
0011111110110
0101010110111
0111111111000
1001110000001
1000000000010
1000000000011
0100010000101
0110100000110
0111111100111
0111111101000
0111111101001
1011111101010
0111110001011
0111111101100
0111111101101
0110001101110
1000000001111
1000000010000
1000000010001
1000000010010
1000000010011
1000000010100
1000000010101
1000000010110
1001001010111
1100010111000
0101110000000
0101001100001
0100000000010
0011100100011
0101011000100
0110100100110
1011111101001
0111111101100
0110101101101
1000000001111
0100000010001
0111111110010
0111111110011
1000000010100
1000000010101
1000000010110
1001001111000
0111111100001
0110010000010
1000000000011
1000000000100
1100010000101
1000000000111
1000000001000
1000000001010
1001001101011
1001101001100
0111111101110
0111111110001
0111111110010
0111111110011
0111111110100
0111111110101
0111111110110
0111111110111
1000010111000
0000000000000
0111111100000
0111111100001
1011001000010
1000000000011
1000000000100
0111111100101
1000000000111
1100011101000
1010101001001
1000000001110
0100001110000
0101111010001
1011010110011
0100011110100
0111111110101
0101010010110
1100010010111
1000000000000
0111110000010
0110100000011
0101110100100
0110110100101
0111111100110
0111111100111
0111111101000
0111111101001
0111111101010
0111111101011
0100001101100
0100000101110
1000000010000
1000000010001
1000000010010
1000000010011
1000000010100
1000000010101
1001111010110
1000000010111
0100000011000
1000011100000
1000000000001
1000000000010
1010011100011
1000000000100
1000000000101
1000011100110
1010010100111
0111111101000
0111000001001
0110000001010
0111100101011
0111111101100
0111111101101
0111111101110
0101110010001
0110000010010
1011001010100
1000001110101
1011000110110
1000000011000
0101110100000
0111111100001
0100100100010
0110010100100
0111111100101
0111111100110
0100100100111
1000000001000
0110011101010
0111011001011
1000000001100
1011001001101
0100101101110
1000000010001
1100011010010
0111111110011
0100011110100
0100100110111
1100010000000
1000000000001
1000000000010
1000000000011
1011011100100
0111000000110
0101100100111
1100001101000
0111111101010
0111111101011
0011110101100
0111111101101
0111111101110
1001101110000
0011111010100
1000000010101
0011111110110
0101010110111
0111111111000
1001110000001
1000000000010
1000000000011
0100010000101
0110100000110
0111111100111
0111111101000
0111111101001
1011111101010
0111110001011
0111111101100
0111111101101
0110001101110
1000000001111
1000000010000
1000000010001
1000000010010
1000000010011
1000000010100
1000000010101
1000000010110
1001001010111
1100010111000
0101110000000
0101001100001
0100000000010
0011100100011
0101011000100
0110100100110
1011111101001
0111111101100
0110101101101
1000000001111
0100000010001
0111111110010
0111111110011
1000000010100
1000000010101
1000000010110
1001001111000
0111111100001
0110010000010
1000000000011
1000000000100
1100010000101
1000000000111
1000000001000
1000000001010
1001001101011
1001101001100
0111111101110
0111111110001
0111111110010
0111111110011
0111111110100
0111111110101
0111111110110
0111111110111
1000010111000
0000000000000
0111111100000
0111111100001
1011001000010
1000000000011
1000000000100
0111111100101
1000000000111
1100011101000
1010101001001
1000000001110
0100001110000
0101111010001
1011010110011
0100011110100
0111111110101
0101010010110
1100010010111
1000000000000
0111110000010
0110100000011
0101110100100
0110110100101
0111111100110
0111111100111
0111111101000
0111111101001
0111111101010
0111111101011
0100001101100
0100000101110
1000000010000
1000000010001
1000000010010
1000000010011
1000000010100
1000000010101
1001111010110
1000000010111
0100000011000
1000011100000
1000000000001
1000000000010
1010011100011
1000000000100
1000000000101
1000011100110
1010010100111
0111111101000
0111000001001
0110000001010
0111100101011
0111111101100
0111111101101
0111111101110
0101110010001
0110000010010
1011001010100
1000001110101
1011000110110
1000000011000
0101110100000
0111111100001
0100100100010
0110010100100
0111111100101
0111111100110
0100100100111
1000000001000
0110011101010
0111011001011
1000000001100
1011001001101
0100101101110
1000000010001
1100011010010
0111111110011
0100011110100
0100100110111
1100010000000
1000000000001
1000000000010
1000000000011
1011011100100
0111000000110
0101100100111
1100001101000
0111111101010
0111111101011
0011110101100
0111111101101
0111111101110
1001101110000
0011111010100
1000000010101
0011111110110
0101010110111
0111111111000
1001110000001
1000000000010
1000000000011
0100010000101
0110100000110
0111111100111
0111111101000
0111111101001
1011111101010
0111110001011
0111111101100
0111111101101
0110001101110
1000000001111
1000000010000
1000000010001
1000000010010
1000000010011
1000000010100
1000000010101
1000000010110
1001001010111
1100010111000
0101110000000
0101001100001
0100000000010
0011100100011
0101011000100
0110100100110
1011111101001
0111111101100
0110101101101
1000000001111
0100000010001
0111111110010
0111111110011
1000000010100
1000000010101
1000000010110
1001001111000
0111111100001
0110010000010
1000000000011
1000000000100
1100010000101
1000000000111
1000000001000
1000000001010
1001001101011
1001101001100
0111111101110
0111111110001
0111111110010
0111111110011
0111111110100
0111111110101
0111111110110
0111111110111
1000010111000
0000000000000
0111111100000
0111111100001
1011001000010
1000000000011
1000000000100
0111111100101
1000000000111
1100011101000
1010101001001
1000000001110
0100001110000
0101111010001
1011010110011
0100011110100
0111111110101
0101010010110
1100010010111
1000000000000
0111110000010
0110100000011
0101110100100
0110110100101
0111111100110
0111111100111
0111111101000
0111111101001
0111111101010
0111111101011
0100001101100
0100000101110
1000000010000
1000000010001
1000000010010
1000000010011
1000000010100
1000000010101
1001111010110
1000000010111
0100000011000
1000011100000
1000000000001
1000000000010
1010011100011
1000000000100
1000000000101
1000011100110
1010010100111
0111111101000
0111000001001
0110000001010
0111100101011
0111111101100
0111111101101
0111111101110
0101110010001
0110000010010
1011001010100
1000001110101
1011000110110
1000000011000
0101110100000
0111111100001
0100100100010
0110010100100
0111111100101
0111111100110
0100100100111
1000000001000
0110011101010
0111011001011
1000000001100
1011001001101
0100101101110
1000000010001
1100011010010
0111111110011
0100011110100
0100100110111
1100010000000
1000000000001
1000000000010
1000000000011
1011011100100
0111000000110
0101100100111
1100001101000
0111111101010
0111111101011
0011110101100
0111111101101
0111111101110
1001101110000
0011111010100
1000000010101
0011111110110
0101010110111
0111111111000
1001110000001
1000000000010
1000000000011
0100010000101
0110100000110
0111111100111
0111111101000
0111111101001
1011111101010
0111110001011
0111111101100
0111111101101
0110001101110
1000000001111
1000000010000
1000000010001
1000000010010
1000000010011
1000000010100
1000000010101
1000000010110
1001001010111
1100010111000
0101110000000
0101001100001
0100000000010
0011100100011
0101011000100
0110100100110
1011111101001
0111111101100
0110101101101
1000000001111
0100000010001
0111111110010
0111111110011
1000000010100
1000000010101
1000000010110
1001001111000
0111111100001
0110010000010
1000000000011
1000000000100
1100010000101
1000000000111
1000000001000
1000000001010
1001001101011
1001101001100
0111111101110
0111111110001
0111111110010
0111111110011
0111111110100
0111111110101
0111111110110
0111111110111
1000010111000
0000000000000
0111111100000
0111111100001
1011001000010
1000000000011
1000000000100
0111111100101
1000000000111
1100011101000
1010101001001
1000000001110
0100001110000
0101111010001
1011010110011
0100011110100
0111111110101
0101010010110
1100010010111
1000000000000
0111110000010
0110100000011
0101110100100
0110110100101
0111111100110
0111111100111
0111111101000
0111111101001
0111111101010
0111111101011
0100001101100
0100000101110
1000000010000
1000000010001
1000000010010
1000000010011
1000000010100
1000000010101
1001111010110
1000000010111
0100000011000
1000011100000
1000000000001
1000000000010
1010011100011
1000000000100
1000000000101
1000011100110
1010010100111
0111111101000
0111000001001
0110000001010
0111100101011
0111111101100
0111111101101
0111111101110
0101110010001
0110000010010
1011001010100
1000001110101
1011000110110
1000000011000
0101110100000
0111111100001
0100100100010
0110010100100
0111111100101
0111111100110
0100100100111
1000000001000
0110011101010
0111011001011
1000000001100
1011001001101
0100101101110
1000000010001
1100011010010
0111111110011
0100011110100
0100100110111
1100010000000
1000000000001
1000000000010
1000000000011
1011011100100
0111000000110
0101100100111
1100001101000
0111111101010
0111111101011
0011110101100
0111111101101
0111111101110
1001101110000
0011111010100
1000000010101
0011111110110
0101010110111
0111111111000
1001110000001
1000000000010
1000000000011
0100010000101
0110100000110
0111111100111
0111111101000
0111111101001
1011111101010
0111110001011
0111111101100
0111111101101
0110001101110
1000000001111
1000000010000
1000000010001
1000000010010
1000000010011
1000000010100
1000000010101
1000000010110
1001001010111
1100010111000
0101110000000
0101001100001
0100000000010
0011100100011
0101011000100
0110100100110
1011111101001
0111111101100
0110101101101
1000000001111
0100000010001
0111111110010
0111111110011
1000000010100
1000000010101
1000000010110
1001001111000
0111111100001
0110010000010
1000000000011
1000000000100
1100010000101
1000000000111
1000000001000
1000000001010
1001001101011
1001101001100
0111111101110
0111111110001
0111111110010
0111111110011
0111111110100
0111111110101
0111111110110
0111111110111
1000010111000
0000000000000
0111111100000
0111111100001
1011001000010
1000000000011
1000000000100
0111111100101
1000000000111
1100011101000
1010101001001
1000000001110
0100001110000
0101111010001
1011010110011
0100011110100
0111111110101
0101010010110
1100010010111
1000000000000
0111110000010
0110100000011
0101110100100
0110110100101
0111111100110
0111111100111
0111111101000
0111111101001
0111111101010
0111111101011
0100001101100
0100000101110
1000000010000
1000000010001
1000000010010
1000000010011
1000000010100
1000000010101
1001111010110
1000000010111
0100000011000
1000011100000
1000000000001
1000000000010
1010011100011
1000000000100
1000000000101
1000011100110
1010010100111
0111111101000
0111000001001
0110000001010
0111100101011
0111111101100
0111111101101
0111111101110
0101110010001
0110000010010
1011001010100
1000001110101
1011000110110
1000000011000
0101110100000
0111111100001
0100100100010
0110010100100
0111111100101
0111111100110
0100100100111
1000000001000
0110011101010
0111011001011
1000000001100
1011001001101
0100101101110
1000000010001
1100011010010
0111111110011
0100011110100
0100100110111
1100010000000
1000000000001
1000000000010
1000000000011
1011011100100
0111000000110
0101100100111
1100001101000
0111111101010
0111111101011
0011110101100
0111111101101
0111111101110
1001101110000
0011111010100
1000000010101
0011111110110
0101010110111
0111111111000
1001110000001
1000000000010
1000000000011
0100010000101
0110100000110
0111111100111
0111111101000
0111111101001
1011111101010
0111110001011
0111111101100
0111111101101
0110001101110
1000000001111
1000000010000
1000000010001
1000000010010
1000000010011
1000000010100
1000000010101
1000000010110
1001001010111
1100010111000
0101110000000
0101001100001
0100000000010
0011100100011
0101011000100
0110100100110
1011111101001
0111111101100
0110101101101
1000000001111
0100000010001
0111111110010
0111111110011
1000000010100
1000000010101
1000000010110
1001001111000
0111111100001
0110010000010
1000000000011
1000000000100
1100010000101
1000000000111
1000000001000
1000000001010
1001001101011
1001101001100
0111111101110
0111111110001
0111111110010
0111111110011
0111111110100
0111111110101
0111111110110
0111111110111
1000010111000
0000000000000
0111111100000
0111111100001
1011001000010
1000000000011
1000000000100
0111111100101
1000000000111
1100011101000
1010101001001
1000000001110
0100001110000
0101111010001
1011010110011
0100011110100
0111111110101
0101010010110
1100010010111
1000000000000
0111110000010
0110100000011
0101110100100
0110110100101
0111111100110
0111111100111
0111111101000
0111111101001
0111111101010
0111111101011
0100001101100
0100000101110
1000000010000
1000000010001
1000000010010
1000000010011
1000000010100
1000000010101
1001111010110
1000000010111
0100000011000
1000011100000
1000000000001
1000000000010
1010011100011
1000000000100
1000000000101
1000011100110
1010010100111
0111111101000
0111000001001
0110000001010
0111100101011
0111111101100
0111111101101
0111111101110
0101110010001
0110000010010
1011001010100
1000001110101
1011000110110
1000000011000
0101110100000
0111111100001
0100100100010
0110010100100
0111111100101
0111111100110
0100100100111
1000000001000
0110011101010
0111011001011
1000000001100
1011001001101
0100101101110
1000000010001
1100011010010
0111111110011
0100011110100
0100100110111
1100010000000
1000000000001
1000000000010
1000000000011
1011011100100
0111000000110
0101100100111
1100001101000
0111111101010
0111111101011
0011110101100
0111111101101
0111111101110
1001101110000
0011111010100
1000000010101
0011111110110
0101010110111
0111111111000
1001110000001
1000000000010
1000000000011
0100010000101
0110100000110
0111111100111
0111111101000
0111111101001
1011111101010
0111110001011
0111111101100
0111111101101
0110001101110
1000000001111
1000000010000
1000000010001
1000000010010
1000000010011
1000000010100
1000000010101
1000000010110
1001001010111
1100010111000
0101110000000
0101001100001
0100000000010
0011100100011
0101011000100
0110100100110
1011111101001
0111111101100
0110101101101
1000000001111
0100000010001
0111111110010
0111111110011
1000000010100
1000000010101
1000000010110
1001001111000
0111111100001
0110010000010
1000000000011
1000000000100
1100010000101
1000000000111
1000000001000
1000000001010
1001001101011
1001101001100
0111111101110
0111111110001
0111111110010
0111111110011
0111111110100
0111111110101
0111111110110
0111111110111
1000010111000
0000000000000
0111111100000
0111111100001
1011001000010
1000000000011
1000000000100
0111111100101
1000000000111
1100011101000
1010101001001
1000000001110
0100001110000
0101111010001
1011010110011
0100011110100
0111111110101
0101010010110
1100010010111
1000000000000
0111110000010
0110100000011
0101110100100
0110110100101
0111111100110
0111111100111
0111111101000
0111111101001
0111111101010
0111111101011
0100001101100
0100000101110
1000000010000
1000000010001
1000000010010
1000000010011
1000000010100
1000000010101
1001111010110
1000000010111
0100000011000
1000011100000
1000000000001
1000000000010
1010011100011
1000000000100
1000000000101
1000011100110
1010010100111
0111111101000
0111000001001
0110000001010
0111100101011
0111111101100
0111111101101
0111111101110
0101110010001
0110000010010
1011001010100
1000001110101
1011000110110
1000000011000
0101110100000
0111111100001
0100100100010
0110010100100
0111111100101
0111111100110
0100100100111
1000000001000
0110011101010
0111011001011
1000000001100
1011001001101
0100101101110
1000000010001
1100011010010
0111111110011
0100011110100
0100100110111
1100010000000
1000000000001
1000000000010
1000000000011
1011011100100
0111000000110
0101100100111
1100001101000
0111111101010
0111111101011
0011110101100
0111111101101
0111111101110
1001101110000
0011111010100
1000000010101
0011111110110
0101010110111
0111111111000
1001110000001
1000000000010
1000000000011
0100010000101
0110100000110
0111111100111
0111111101000
0111111101001
1011111101010
0111110001011
0111111101100
0111111101101
0110001101110
1000000001111
1000000010000
1000000010001
1000000010010
1000000010011
1000000010100
1000000010101
1000000010110
1001001010111
1100010111000
0101110000000
0101001100001
0100000000010
0011100100011
0101011000100
0110100100110
1011111101001
0111111101100
0110101101101
1000000001111
0100000010001
0111111110010
0111111110011
1000000010100
1000000010101
1000000010110
1001001111000
0111111100001
0110010000010
1000000000011
1000000000100
1100010000101
1000000000111
1000000001000
1000000001010
1001001101011
1001101001100
0111111101110
0111111110001
0111111110010
0111111110011
0111111110100
0111111110101
0111111110110
0111111110111
1000010111000
0000000000000
0111111100000
0111111100001
1011001000010
1000000000011
1000000000100
0111111100101
1000000000111
1100011101000
1010101001001
1000000001110
0100001110000
0101111010001
1011010110011
0100011110100
0111111110101
0101010010110
1100010010111
1000000000000
0111110000010
0110100000011
0101110100100
0110110100101
0111111100110
0111111100111
0111111101000
0111111101001
0111111101010
0111111101011
0100001101100
0100000101110
1000000010000
1000000010001
1000000010010
1000000010011
1000000010100
1000000010101
1001111010110
1000000010111
0100000011000
1000011100000
1000000000001
1000000000010
1010011100011
1000000000100
1000000000101
1000011100110
1010010100111
0111111101000
0111000001001
0110000001010
0111100101011
0111111101100
0111111101101
0111111101110
0101110010001
0110000010010
1011001010100
1000001110101
1011000110110
1000000011000
0101110100000
0111111100001
0100100100010
0110010100100
0111111100101
0111111100110
0100100100111
1000000001000
0110011101010
0111011001011
1000000001100
1011001001101
0100101101110
1000000010001
1100011010010
0111111110011
0100011110100
0100100110111
1100010000000
1000000000001
1000000000010
1000000000011
1011011100100
0111000000110
0101100100111
1100001101000
0111111101010
0111111101011
0011110101100
0111111101101
0111111101110
1001101110000
0011111010100
1000000010101
0011111110110
0101010110111
0111111111000
1001110000001
1000000000010
1000000000011
0100010000101
0110100000110
0111111100111
0111111101000
0111111101001
1011111101010
0111110001011
0111111101100
0111111101101
0110001101110
1000000001111
1000000010000
1000000010001
1000000010010
1000000010011
1000000010100
1000000010101
1000000010110
1001001010111
1100010111000
0101110000000
0101001100001
0100000000010
0011100100011
0101011000100
0110100100110
1011111101001
0111111101100
0110101101101
1000000001111
0100000010001
0111111110010
0111111110011
1000000010100
1000000010101
1000000010110
1001001111000
0111111100001
0110010000010
1000000000011
1000000000100
1100010000101
1000000000111
1000000001000
1000000001010
1001001101011
1001101001100
0111111101110
0111111110001
0111111110010
0111111110011
0111111110100
0111111110101
0111111110110
0111111110111
1000010111000
0000000000000
0111111100000
0111111100001
1011001000010
1000000000011
1000000000100
0111111100101
1000000000111
1100011101000
1010101001001
1000000001110
0100001110000
0101111010001
1011010110011
0100011110100
0111111110101
0101010010110
1100010010111
1000000000000
0111110000010
0110100000011
0101110100100
0110110100101
0111111100110
0111111100111
0111111101000
0111111101001
0111111101010
0111111101011
0100001101100
0100000101110
1000000010000
1000000010001
1000000010010
1000000010011
1000000010100
1000000010101
1001111010110
1000000010111
0100000011000
1000011100000
1000000000001
1000000000010
1010011100011
1000000000100
1000000000101
1000011100110
1010010100111
0111111101000
0111000001001
0110000001010
0111100101011
0111111101100
0111111101101
0111111101110
0101110010001
0110000010010
1011001010100
1000001110101
1011000110110
1000000011000
0101110100000
0111111100001
0100100100010
0110010100100
0111111100101
0111111100110
0100100100111
1000000001000
0110011101010
0111011001011
1000000001100
1011001001101
0100101101110
1000000010001
1100011010010
0111111110011
0100011110100
0100100110111
1100010000000
1000000000001
1000000000010
1000000000011
1011011100100
0111000000110
0101100100111
1100001101000
0111111101010
0111111101011
0011110101100
0111111101101
0111111101110
1001101110000
0011111010100
1000000010101
0011111110110
0101010110111
0111111111000
1001110000001
1000000000010
1000000000011
0100010000101
0110100000110
0111111100111
0111111101000
0111111101001
1011111101010
0111110001011
0111111101100
0111111101101
0110001101110
1000000001111
1000000010000
1000000010001
1000000010010
1000000010011
1000000010100
1000000010101
1000000010110
1001001010111
1100010111000
0101110000000
0101001100001
0100000000010
0011100100011
0101011000100
0110100100110
1011111101001
0111111101100
0110101101101
1000000001111
0100000010001
0111111110010
0111111110011
1000000010100
1000000010101
1000000010110
1001001111000
0111111100001
0110010000010
1000000000011
1000000000100
1100010000101
1000000000111
1000000001000
1000000001010
1001001101011
1001101001100
0111111101110
0111111110001
0111111110010
0111111110011
0111111110100
0111111110101
0111111110110
0111111110111
1000010111000
0000000000000
0111111100000
0111111100001
1011001000010
1000000000011
1000000000100
0111111100101
1000000000111
1100011101000
1010101001001
1000000001110
0100001110000
0101111010001
1011010110011
0100011110100
0111111110101
0101010010110
1100010010111
1000000000000
0111110000010
0110100000011
0101110100100
0110110100101
0111111100110
0111111100111
0111111101000
0111111101001
0111111101010
0111111101011
0100001101100
0100000101110
1000000010000
1000000010001
1000000010010
1000000010011
1000000010100
1000000010101
1001111010110
1000000010111
0100000011000
1000011100000
1000000000001
1000000000010
1010011100011
1000000000100
1000000000101
1000011100110
1010010100111
0111111101000
0111000001001
0110000001010
0111100101011
0111111101100
0111111101101
0111111101110
0101110010001
0110000010010
1011001010100
1000001110101
1011000110110
1000000011000
0101110100000
0111111100001
0100100100010
0110010100100
0111111100101
0111111100110
0100100100111
1000000001000
0110011101010
0111011001011
1000000001100
1011001001101
0100101101110
1000000010001
1100011010010
0111111110011
0100011110100
0100100110111
1100010000000
1000000000001
1000000000010
1000000000011
1011011100100
0111000000110
0101100100111
1100001101000
0111111101010
0111111101011
0011110101100
0111111101101
0111111101110
1001101110000
0011111010100
1000000010101
0011111110110
0101010110111
0111111111000
1001110000001
1000000000010
1000000000011
0100010000101
0110100000110
0111111100111
0111111101000
0111111101001
1011111101010
0111110001011
0111111101100
0111111101101
0110001101110
1000000001111
1000000010000
1000000010001
1000000010010
1000000010011
1000000010100
1000000010101
1000000010110
1001001010111
1100010111000
0101110000000
0101001100001
0100000000010
0011100100011
0101011000100
0110100100110
1011111101001
0111111101100
0110101101101
1000000001111
0100000010001
0111111110010
0111111110011
1000000010100
1000000010101
1000000010110
1001001111000
0111111100001
0110010000010
1000000000011
1000000000100
1100010000101
1000000000111
1000000001000
1000000001010
1001001101011
1001101001100
0111111101110
0111111110001
0111111110010
0111111110011
0111111110100
0111111110101
0111111110110
0111111110111
1000010111000
0000000000000
0111111100000
0111111100001
1011001000010
1000000000011
1000000000100
0111111100101
1000000000111
1100011101000
1010101001001
1000000001110
0100001110000
0101111010001
1011010110011
0100011110100
0111111110101
0101010010110
1100010010111
1000000000000
0111110000010
0110100000011
0101110100100
0110110100101
0111111100110
0111111100111
0111111101000
0111111101001
0111111101010
0111111101011
0100001101100
0100000101110
1000000010000
1000000010001
1000000010010
1000000010011
1000000010100
1000000010101
1001111010110
1000000010111
0100000011000
1000011100000
1000000000001
1000000000010
1010011100011
1000000000100
1000000000101
1000011100110
1010010100111
0111111101000
0111000001001
0110000001010
0111100101011
0111111101100
0111111101101
0111111101110
0101110010001
0110000010010
1011001010100
1000001110101
1011000110110
1000000011000
0101110100000
0111111100001
0100100100010
0110010100100
0111111100101
0111111100110
0100100100111
1000000001000
0110011101010
0111011001011
1000000001100
1011001001101
0100101101110
1000000010001
1100011010010
0111111110011
0100011110100
0100100110111
1100010000000
1000000000001
1000000000010
1000000000011
1011011100100
0111000000110
0101100100111
1100001101000
0111111101010
0111111101011
0011110101100
0111111101101
0111111101110
1001101110000
0011111010100
1000000010101
0011111110110
0101010110111
0111111111000
1001110000001
1000000000010
1000000000011
0100010000101
0110100000110
0111111100111
0111111101000
0111111101001
1011111101010
0111110001011
0111111101100
0111111101101
0110001101110
1000000001111
1000000010000
1000000010001
1000000010010
1000000010011
1000000010100
1000000010101
1000000010110
1001001010111
1100010111000
0101110000000
0101001100001
0100000000010
0011100100011
0101011000100
0110100100110
1011111101001
0111111101100
0110101101101
1000000001111
0100000010001
0111111110010
0111111110011
1000000010100
1000000010101
1000000010110
1001001111000
0111111100001
0110010000010
1000000000011
1000000000100
1100010000101
1000000000111
1000000001000
1000000001010
1001001101011
1001101001100
0111111101110
0111111110001
0111111110010
0111111110011
0111111110100
0111111110101
0111111110110
0111111110111
1000010111000
0000000000000
0110000100000
1100001100010
1000011000011
0111010100101
0110010001010
1100010101011
0101111010010
0111111110100
1011001110101
1010010010111
0111011100001
0111000100011
0100110100100
0101101100101
0111111100110
0011111101000
0111111101001
0110111001010
0110010001011
0100011001101
0111111101110
0111111101111
1000010110001
1100000110010
0110100110011
1000000000011
0101011000101
1010110000110
1000010000111
0101110101001
0100001001010
1000000001011
1000000001100
1001001001110
1011010110001
1000000010010
1010001010011
1100001010100
1001100110101
1000000010110
1001000010111
0111111100000
0111111100001
0111111100010
0100110000101
0111111100110
0011100000111
1100000101000
0111111101001
0110011001010
0111111101011
0101011101100
0111111101110
0111111110000
1011110010010
0111111110011
0111111010101
1000000000001
1000000000010
1100000000011
1000011100100
1010001100110
1010010000111
1000000001000
1000000001001
0111111101010
1011111001100
1000000001101
1011010001110
0111000001111
0101101010000
1001011010010
1000011110100
1000000010101
0100000011000
1000000000000
0111111100010
0111111100011
0100011100100
1010110000101
0111111100110
0111111100111
0111000101000
1100011101001
0110001001010
0111111101011
0111111101100
1000001101101
0111111101111
0111111110000
1000000010010
1010101110011
0111111110100
0111111110101
1010010110110
1011001010111
1000000000010
1000000000011
1011011000100
0101001100101
1000000000110
1000000000111
1000000001010
0011101001100
0110001110000
0101001110001
0111110110010
1100011010011
1100001110111
0110001100000
1100000100010
0111111100011
0110111000100
0011110100111
0101000101000
0100111101010
1001001101011
0111100001100
0101010101101
0100011010000
0111111110001
0111111110010
1010010110011
0101111110101
0111111110110
1000011011000
0000000000000
0110000100000
1100001100010
1000011000011
0111010100101
0110010001010
1100010101011
0101111010010
0111111110100
1011001110101
1010010010111
0111011100001
0111000100011
0100110100100
0101101100101
0111111100110
0011111101000
0111111101001
0110111001010
0110010001011
0100011001101
0111111101110
0111111101111
1000010110001
1100000110010
0110100110011
1000000000011
0101011000101
1010110000110
1000010000111
0101110101001
0100001001010
1000000001011
1000000001100
1001001001110
1011010110001
1000000010010
1010001010011
1100001010100
1001100110101
1000000010110
1001000010111
0111111100000
0111111100001
0111111100010
0100110000101
0111111100110
0011100000111
1100000101000
0111111101001
0110011001010
0111111101011
0101011101100
0111111101110
0111111110000
1011110010010
0111111110011
0111111010101
1000000000001
1000000000010
1100000000011
1000011100100
1010001100110
1010010000111
1000000001000
1000000001001
0111111101010
1011111001100
1000000001101
1011010001110
0111000001111
0101101010000
1001011010010
1000011110100
1000000010101
0100000011000
1000000000000
0111111100010
0111111100011
0100011100100
1010110000101
0111111100110
0111111100111
0111000101000
1100011101001
0110001001010
0111111101011
0111111101100
1000001101101
0111111101111
0111111110000
1000000010010
1010101110011
0111111110100
0111111110101
1010010110110
1011001010111
1000000000010
1000000000011
1011011000100
0101001100101
1000000000110
1000000000111
1000000001010
0011101001100
0110001110000
0101001110001
0111110110010
1100011010011
1100001110111
0110001100000
1100000100010
0111111100011
0110111000100
0011110100111
0101000101000
0100111101010
1001001101011
0111100001100
0101010101101
0100011010000
0111111110001
0111111110010
1010010110011
0101111110101
0111111110110
1000011011000
0000000000000
0110000100000
1100001100010
1000011000011
0111010100101
0110010001010
1100010101011
0101111010010
0111111110100
1011001110101
1010010010111
0111011100001
0111000100011
0100110100100
0101101100101
0111111100110
0011111101000
0111111101001
0110111001010
0110010001011
0100011001101
0111111101110
0111111101111
1000010110001
1100000110010
0110100110011
1000000000011
0101011000101
1010110000110
1000010000111
0101110101001
0100001001010
1000000001011
1000000001100
1001001001110
1011010110001
1000000010010
1010001010011
1100001010100
1001100110101
1000000010110
1001000010111
0111111100000
0111111100001
0111111100010
0100110000101
0111111100110
0011100000111
1100000101000
0111111101001
0110011001010
0111111101011
0101011101100
0111111101110
0111111110000
1011110010010
0111111110011
0111111010101
1000000000001
1000000000010
1100000000011
1000011100100
1010001100110
1010010000111
1000000001000
1000000001001
0111111101010
1011111001100
1000000001101
1011010001110
0111000001111
0101101010000
1001011010010
1000011110100
1000000010101
0100000011000
1000000000000
0111111100010
0111111100011
0100011100100
1010110000101
0111111100110
0111111100111
0111000101000
1100011101001
0110001001010
0111111101011
0111111101100
1000001101101
0111111101111
0111111110000
1000000010010
1010101110011
0111111110100
0111111110101
1010010110110
1011001010111
1000000000010
1000000000011
1011011000100
0101001100101
1000000000110
1000000000111
1000000001010
0011101001100
0110001110000
0101001110001
0111110110010
1100011010011
1100001110111
0110001100000
1100000100010
0111111100011
0110111000100
0011110100111
0101000101000
0100111101010
1001001101011
0111100001100
0101010101101
0100011010000
0111111110001
0111111110010
1010010110011
0101111110101
0111111110110
1000011011000
0000000000000
0110000100000
1100001100010
1000011000011
0111010100101
0110010001010
1100010101011
0101111010010
0111111110100
1011001110101
1010010010111
0111011100001
0111000100011
0100110100100
0101101100101
0111111100110
0011111101000
0111111101001
0110111001010
0110010001011
0100011001101
0111111101110
0111111101111
1000010110001
1100000110010
0110100110011
1000000000011
0101011000101
1010110000110
1000010000111
0101110101001
0100001001010
1000000001011
1000000001100
1001001001110
1011010110001
1000000010010
1010001010011
1100001010100
1001100110101
1000000010110
1001000010111
0111111100000
0111111100001
0111111100010
0100110000101
0111111100110
0011100000111
1100000101000
0111111101001
0110011001010
0111111101011
0101011101100
0111111101110
0111111110000
1011110010010
0111111110011
0111111010101
1000000000001
1000000000010
1100000000011
1000011100100
1010001100110
1010010000111
1000000001000
1000000001001
0111111101010
1011111001100
1000000001101
1011010001110
0111000001111
0101101010000
1001011010010
1000011110100
1000000010101
0100000011000
1000000000000
0111111100010
0111111100011
0100011100100
1010110000101
0111111100110
0111111100111
0111000101000
1100011101001
0110001001010
0111111101011
0111111101100
1000001101101
0111111101111
0111111110000
1000000010010
1010101110011
0111111110100
0111111110101
1010010110110
1011001010111
1000000000010
1000000000011
1011011000100
0101001100101
1000000000110
1000000000111
1000000001010
0011101001100
0110001110000
0101001110001
0111110110010
1100011010011
1100001110111
0110001100000
1100000100010
0111111100011
0110111000100
0011110100111
0101000101000
0100111101010
1001001101011
0111100001100
0101010101101
0100011010000
0111111110001
0111111110010
1010010110011
0101111110101
0111111110110
1000011011000
0000000000000
0110000100000
1100001100010
1000011000011
0111010100101
0110010001010
1100010101011
0101111010010
0111111110100
1011001110101
1010010010111
0111011100001
0111000100011
0100110100100
0101101100101
0111111100110
0011111101000
0111111101001
0110111001010
0110010001011
0100011001101
0111111101110
0111111101111
1000010110001
1100000110010
0110100110011
1000000000011
0101011000101
1010110000110
1000010000111
0101110101001
0100001001010
1000000001011
1000000001100
1001001001110
1011010110001
1000000010010
1010001010011
1100001010100
1001100110101
1000000010110
1001000010111
0111111100000
0111111100001
0111111100010
0100110000101
0111111100110
0011100000111
1100000101000
0111111101001
0110011001010
0111111101011
0101011101100
0111111101110
0111111110000
1011110010010
0111111110011
0111111010101
1000000000001
1000000000010
1100000000011
1000011100100
1010001100110
1010010000111
1000000001000
1000000001001
0111111101010
1011111001100
1000000001101
1011010001110
0111000001111
0101101010000
1001011010010
1000011110100
1000000010101
0100000011000
1000000000000
0111111100010
0111111100011
0100011100100
1010110000101
0111111100110
0111111100111
0111000101000
1100011101001
0110001001010
0111111101011
0111111101100
1000001101101
0111111101111
0111111110000
1000000010010
1010101110011
0111111110100
0111111110101
1010010110110
1011001010111
1000000000010
1000000000011
1011011000100
0101001100101
1000000000110
1000000000111
1000000001010
0011101001100
0110001110000
0101001110001
0111110110010
1100011010011
1100001110111
0110001100000
1100000100010
0111111100011
0110111000100
0011110100111
0101000101000
0100111101010
1001001101011
0111100001100
0101010101101
0100011010000
0111111110001
0111111110010
1010010110011
0101111110101
0111111110110
1000011011000
0000000000000
0110000100000
1100001100010
1000011000011
0111010100101
0110010001010
1100010101011
0101111010010
0111111110100
1011001110101
1010010010111
0111011100001
0111000100011
0100110100100
0101101100101
0111111100110
0011111101000
0111111101001
0110111001010
0110010001011
0100011001101
0111111101110
0111111101111
1000010110001
1100000110010
0110100110011
1000000000011
0101011000101
1010110000110
1000010000111
0101110101001
0100001001010
1000000001011
1000000001100
1001001001110
1011010110001
1000000010010
1010001010011
1100001010100
1001100110101
1000000010110
1001000010111
0111111100000
0111111100001
0111111100010
0100110000101
0111111100110
0011100000111
1100000101000
0111111101001
0110011001010
0111111101011
0101011101100
0111111101110
0111111110000
1011110010010
0111111110011
0111111010101
1000000000001
1000000000010
1100000000011
1000011100100
1010001100110
1010010000111
1000000001000
1000000001001
0111111101010
1011111001100
1000000001101
1011010001110
0111000001111
0101101010000
1001011010010
1000011110100
1000000010101
0100000011000
1000000000000
0111111100010
0111111100011
0100011100100
1010110000101
0111111100110
0111111100111
0111000101000
1100011101001
0110001001010
0111111101011
0111111101100
1000001101101
0111111101111
0111111110000
1000000010010
1010101110011
0111111110100
0111111110101
1010010110110
1011001010111
1000000000010
1000000000011
1011011000100
0101001100101
1000000000110
1000000000111
1000000001010
0011101001100
0110001110000
0101001110001
0111110110010
1100011010011
1100001110111
0110001100000
1100000100010
0111111100011
0110111000100
0011110100111
0101000101000
0100111101010
1001001101011
0111100001100
0101010101101
0100011010000
0111111110001
0111111110010
1010010110011
0101111110101
0111111110110
1000011011000
0000000000000
0110000100000
1100001100010
1000011000011
0111010100101
0110010001010
1100010101011
0101111010010
0111111110100
1011001110101
1010010010111
0111011100001
0111000100011
0100110100100
0101101100101
0111111100110
0011111101000
0111111101001
0110111001010
0110010001011
0100011001101
0111111101110
0111111101111
1000010110001
1100000110010
0110100110011
1000000000011
0101011000101
1010110000110
1000010000111
0101110101001
0100001001010
1000000001011
1000000001100
1001001001110
1011010110001
1000000010010
1010001010011
1100001010100
1001100110101
1000000010110
1001000010111
0111111100000
0111111100001
0111111100010
0100110000101
0111111100110
0011100000111
1100000101000
0111111101001
0110011001010
0111111101011
0101011101100
0111111101110
0111111110000
1011110010010
0111111110011
0111111010101
1000000000001
1000000000010
1100000000011
1000011100100
1010001100110
1010010000111
1000000001000
1000000001001
0111111101010
1011111001100
1000000001101
1011010001110
0111000001111
0101101010000
1001011010010
1000011110100
1000000010101
0100000011000
1000000000000
0111111100010
0111111100011
0100011100100
1010110000101
0111111100110
0111111100111
0111000101000
1100011101001
0110001001010
0111111101011
0111111101100
1000001101101
0111111101111
0111111110000
1000000010010
1010101110011
0111111110100
0111111110101
1010010110110
1011001010111
1000000000010
1000000000011
1011011000100
0101001100101
1000000000110
1000000000111
1000000001010
0011101001100
0110001110000
0101001110001
0111110110010
1100011010011
1100001110111
0110001100000
1100000100010
0111111100011
0110111000100
0011110100111
0101000101000
0100111101010
1001001101011
0111100001100
0101010101101
0100011010000
0111111110001
0111111110010
1010010110011
0101111110101
0111111110110
1000011011000
0000000000000
0110000100000
1100001100010
1000011000011
0111010100101
0110010001010
1100010101011
0101111010010
0111111110100
1011001110101
1010010010111
0111011100001
0111000100011
0100110100100
0101101100101
0111111100110
0011111101000
0111111101001
0110111001010
0110010001011
0100011001101
0111111101110
0111111101111
1000010110001
1100000110010
0110100110011
1000000000011
0101011000101
1010110000110
1000010000111
0101110101001
0100001001010
1000000001011
1000000001100
1001001001110
1011010110001
1000000010010
1010001010011
1100001010100
1001100110101
1000000010110
1001000010111
0111111100000
0111111100001
0111111100010
0100110000101
0111111100110
0011100000111
1100000101000
0111111101001
0110011001010
0111111101011
0101011101100
0111111101110
0111111110000
1011110010010
0111111110011
0111111010101
1000000000001
1000000000010
1100000000011
1000011100100
1010001100110
1010010000111
1000000001000
1000000001001
0111111101010
1011111001100
1000000001101
1011010001110
0111000001111
0101101010000
1001011010010
1000011110100
1000000010101
0100000011000
1000000000000
0111111100010
0111111100011
0100011100100
1010110000101
0111111100110
0111111100111
0111000101000
1100011101001
0110001001010
0111111101011
0111111101100
1000001101101
0111111101111
0111111110000
1000000010010
1010101110011
0111111110100
0111111110101
1010010110110
1011001010111
1000000000010
1000000000011
1011011000100
0101001100101
1000000000110
1000000000111
1000000001010
0011101001100
0110001110000
0101001110001
0111110110010
1100011010011
1100001110111
0110001100000
1100000100010
0111111100011
0110111000100
0011110100111
0101000101000
0100111101010
1001001101011
0111100001100
0101010101101
0100011010000
0111111110001
0111111110010
1010010110011
0101111110101
0111111110110
1000011011000
0000000000000
0110000100000
1100001100010
1000011000011
0111010100101
0110010001010
1100010101011
0101111010010
0111111110100
1011001110101
1010010010111
0111011100001
0111000100011
0100110100100
0101101100101
0111111100110
0011111101000
0111111101001
0110111001010
0110010001011
0100011001101
0111111101110
0111111101111
1000010110001
1100000110010
0110100110011
1000000000011
0101011000101
1010110000110
1000010000111
0101110101001
0100001001010
1000000001011
1000000001100
1001001001110
1011010110001
1000000010010
1010001010011
1100001010100
1001100110101
1000000010110
1001000010111
0111111100000
0111111100001
0111111100010
0100110000101
0111111100110
0011100000111
1100000101000
0111111101001
0110011001010
0111111101011
0101011101100
0111111101110
0111111110000
1011110010010
0111111110011
0111111010101
1000000000001
1000000000010
1100000000011
1000011100100
1010001100110
1010010000111
1000000001000
1000000001001
0111111101010
1011111001100
1000000001101
1011010001110
0111000001111
0101101010000
1001011010010
1000011110100
1000000010101
0100000011000
1000000000000
0111111100010
0111111100011
0100011100100
1010110000101
0111111100110
0111111100111
0111000101000
1100011101001
0110001001010
0111111101011
0111111101100
1000001101101
0111111101111
0111111110000
1000000010010
1010101110011
0111111110100
0111111110101
1010010110110
1011001010111
1000000000010
1000000000011
1011011000100
0101001100101
1000000000110
1000000000111
1000000001010
0011101001100
0110001110000
0101001110001
0111110110010
1100011010011
1100001110111
0110001100000
1100000100010
0111111100011
0110111000100
0011110100111
0101000101000
0100111101010
1001001101011
0111100001100
0101010101101
0100011010000
0111111110001
0111111110010
1010010110011
0101111110101
0111111110110
1000011011000
0000000000000
0110000100000
1100001100010
1000011000011
0111010100101
0110010001010
1100010101011
0101111010010
0111111110100
1011001110101
1010010010111
0111011100001
0111000100011
0100110100100
0101101100101
0111111100110
0011111101000
0111111101001
0110111001010
0110010001011
0100011001101
0111111101110
0111111101111
1000010110001
1100000110010
0110100110011
1000000000011
0101011000101
1010110000110
1000010000111
0101110101001
0100001001010
1000000001011
1000000001100
1001001001110
1011010110001
1000000010010
1010001010011
1100001010100
1001100110101
1000000010110
1001000010111
0111111100000
0111111100001
0111111100010
0100110000101
0111111100110
0011100000111
1100000101000
0111111101001
0110011001010
0111111101011
0101011101100
0111111101110
0111111110000
1011110010010
0111111110011
0111111010101
1000000000001
1000000000010
1100000000011
1000011100100
1010001100110
1010010000111
1000000001000
1000000001001
0111111101010
1011111001100
1000000001101
1011010001110
0111000001111
0101101010000
1001011010010
1000011110100
1000000010101
0100000011000
1000000000000
0111111100010
0111111100011
0100011100100
1010110000101
0111111100110
0111111100111
0111000101000
1100011101001
0110001001010
0111111101011
0111111101100
1000001101101
0111111101111
0111111110000
1000000010010
1010101110011
0111111110100
0111111110101
1010010110110
1011001010111
1000000000010
1000000000011
1011011000100
0101001100101
1000000000110
1000000000111
1000000001010
0011101001100
0110001110000
0101001110001
0111110110010
1100011010011
1100001110111
0110001100000
1100000100010
0111111100011
0110111000100
0011110100111
0101000101000
0100111101010
1001001101011
0111100001100
0101010101101
0100011010000
0111111110001
0111111110010
1010010110011
0101111110101
0111111110110
1000011011000
0000000000000
0110000100000
1100001100010
1000011000011
0111010100101
0110010001010
1100010101011
0101111010010
0111111110100
1011001110101
1010010010111
0111011100001
0111000100011
0100110100100
0101101100101
0111111100110
0011111101000
0111111101001
0110111001010
0110010001011
0100011001101
0111111101110
0111111101111
1000010110001
1100000110010
0110100110011
1000000000011
0101011000101
1010110000110
1000010000111
0101110101001
0100001001010
1000000001011
1000000001100
1001001001110
1011010110001
1000000010010
1010001010011
1100001010100
1001100110101
1000000010110
1001000010111
0111111100000
0111111100001
0111111100010
0100110000101
0111111100110
0011100000111
1100000101000
0111111101001
0110011001010
0111111101011
0101011101100
0111111101110
0111111110000
1011110010010
0111111110011
0111111010101
1000000000001
1000000000010
1100000000011
1000011100100
1010001100110
1010010000111
1000000001000
1000000001001
0111111101010
1011111001100
1000000001101
1011010001110
0111000001111
0101101010000
1001011010010
1000011110100
1000000010101
0100000011000
1000000000000
0111111100010
0111111100011
0100011100100
1010110000101
0111111100110
0111111100111
0111000101000
1100011101001
0110001001010
0111111101011
0111111101100
1000001101101
0111111101111
0111111110000
1000000010010
1010101110011
0111111110100
0111111110101
1010010110110
1011001010111
1000000000010
1000000000011
1011011000100
0101001100101
1000000000110
1000000000111
1000000001010
0011101001100
0110001110000
0101001110001
0111110110010
1100011010011
1100001110111
0110001100000
1100000100010
0111111100011
0110111000100
0011110100111
0101000101000
0100111101010
1001001101011
0111100001100
0101010101101
0100011010000
0111111110001
0111111110010
1010010110011
0101111110101
0111111110110
1000011011000
0000000000000
0110000100000
1100001100010
1000011000011
0111010100101
0110010001010
1100010101011
0101111010010
0111111110100
1011001110101
1010010010111
0111011100001
0111000100011
0100110100100
0101101100101
0111111100110
0011111101000
0111111101001
0110111001010
0110010001011
0100011001101
0111111101110
0111111101111
1000010110001
1100000110010
0110100110011
1000000000011
0101011000101
1010110000110
1000010000111
0101110101001
0100001001010
1000000001011
1000000001100
1001001001110
1011010110001
1000000010010
1010001010011
1100001010100
1001100110101
1000000010110
1001000010111
0111111100000
0111111100001
0111111100010
0100110000101
0111111100110
0011100000111
1100000101000
0111111101001
0110011001010
0111111101011
0101011101100
0111111101110
0111111110000
1011110010010
0111111110011
0111111010101
1000000000001
1000000000010
1100000000011
1000011100100
1010001100110
1010010000111
1000000001000
1000000001001
0111111101010
1011111001100
1000000001101
1011010001110
0111000001111
0101101010000
1001011010010
1000011110100
1000000010101
0100000011000
1000000000000
0111111100010
0111111100011
0100011100100
1010110000101
0111111100110
0111111100111
0111000101000
1100011101001
0110001001010
0111111101011
0111111101100
1000001101101
0111111101111
0111111110000
1000000010010
1010101110011
0111111110100
0111111110101
1010010110110
1011001010111
1000000000010
1000000000011
1011011000100
0101001100101
1000000000110
1000000000111
1000000001010
0011101001100
0110001110000
0101001110001
0111110110010
1100011010011
1100001110111
0110001100000
1100000100010
0111111100011
0110111000100
0011110100111
0101000101000
0100111101010
1001001101011
0111100001100
0101010101101
0100011010000
0111111110001
0111111110010
1010010110011
0101111110101
0111111110110
1000011011000
0000000000000
0110000100000
1100001100010
1000011000011
0111010100101
0110010001010
1100010101011
0101111010010
0111111110100
1011001110101
1010010010111
0111011100001
0111000100011
0100110100100
0101101100101
0111111100110
0011111101000
0111111101001
0110111001010
0110010001011
0100011001101
0111111101110
0111111101111
1000010110001
1100000110010
0110100110011
1000000000011
0101011000101
1010110000110
1000010000111
0101110101001
0100001001010
1000000001011
1000000001100
1001001001110
1011010110001
1000000010010
1010001010011
1100001010100
1001100110101
1000000010110
1001000010111
0111111100000
0111111100001
0111111100010
0100110000101
0111111100110
0011100000111
1100000101000
0111111101001
0110011001010
0111111101011
0101011101100
0111111101110
0111111110000
1011110010010
0111111110011
0111111010101
1000000000001
1000000000010
1100000000011
1000011100100
1010001100110
1010010000111
1000000001000
1000000001001
0111111101010
1011111001100
1000000001101
1011010001110
0111000001111
0101101010000
1001011010010
1000011110100
1000000010101
0100000011000
1000000000000
0111111100010
0111111100011
0100011100100
1010110000101
0111111100110
0111111100111
0111000101000
1100011101001
0110001001010
0111111101011
0111111101100
1000001101101
0111111101111
0111111110000
1000000010010
1010101110011
0111111110100
0111111110101
1010010110110
1011001010111
1000000000010
1000000000011
1011011000100
0101001100101
1000000000110
1000000000111
1000000001010
0011101001100
0110001110000
0101001110001
0111110110010
1100011010011
1100001110111
0110001100000
1100000100010
0111111100011
0110111000100
0011110100111
0101000101000
0100111101010
1001001101011
0111100001100
0101010101101
0100011010000
0111111110001
0111111110010
1010010110011
0101111110101
0111111110110
1000011011000
0000000000000
0110000100000
1100001100010
1000011000011
0111010100101
0110010001010
1100010101011
0101111010010
0111111110100
1011001110101
1010010010111
0111011100001
0111000100011
0100110100100
0101101100101
0111111100110
0011111101000
0111111101001
0110111001010
0110010001011
0100011001101
0111111101110
0111111101111
1000010110001
1100000110010
0110100110011
1000000000011
0101011000101
1010110000110
1000010000111
0101110101001
0100001001010
1000000001011
1000000001100
1001001001110
1011010110001
1000000010010
1010001010011
1100001010100
1001100110101
1000000010110
1001000010111
0111111100000
0111111100001
0111111100010
0100110000101
0111111100110
0011100000111
1100000101000
0111111101001
0110011001010
0111111101011
0101011101100
0111111101110
0111111110000
1011110010010
0111111110011
0111111010101
1000000000001
1000000000010
1100000000011
1000011100100
1010001100110
1010010000111
1000000001000
1000000001001
0111111101010
1011111001100
1000000001101
1011010001110
0111000001111
0101101010000
1001011010010
1000011110100
1000000010101
0100000011000
1000000000000
0111111100010
0111111100011
0100011100100
1010110000101
0111111100110
0111111100111
0111000101000
1100011101001
0110001001010
0111111101011
0111111101100
1000001101101
0111111101111
0111111110000
1000000010010
1010101110011
0111111110100
0111111110101
1010010110110
1011001010111
1000000000010
1000000000011
1011011000100
0101001100101
1000000000110
1000000000111
1000000001010
0011101001100
0110001110000
0101001110001
0111110110010
1100011010011
1100001110111
0110001100000
1100000100010
0111111100011
0110111000100
0011110100111
0101000101000
0100111101010
1001001101011
0111100001100
0101010101101
0100011010000
0111111110001
0111111110010
1010010110011
0101111110101
0111111110110
1000011011000
0000000000000
0110000100000
1100001100010
1000011000011
0111010100101
0110010001010
1100010101011
0101111010010
0111111110100
1011001110101
1010010010111
0111011100001
0111000100011
0100110100100
0101101100101
0111111100110
0011111101000
0111111101001
0110111001010
0110010001011
0100011001101
0111111101110
0111111101111
1000010110001
1100000110010
0110100110011
1000000000011
0101011000101
1010110000110
1000010000111
0101110101001
0100001001010
1000000001011
1000000001100
1001001001110
1011010110001
1000000010010
1010001010011
1100001010100
1001100110101
1000000010110
1001000010111
0111111100000
0111111100001
0111111100010
0100110000101
0111111100110
0011100000111
1100000101000
0111111101001
0110011001010
0111111101011
0101011101100
0111111101110
0111111110000
1011110010010
0111111110011
0111111010101
1000000000001
1000000000010
1100000000011
1000011100100
1010001100110
1010010000111
1000000001000
1000000001001
0111111101010
1011111001100
1000000001101
1011010001110
0111000001111
0101101010000
1001011010010
1000011110100
1000000010101
0100000011000
1000000000000
0111111100010
0111111100011
0100011100100
1010110000101
0111111100110
0111111100111
0111000101000
1100011101001
0110001001010
0111111101011
0111111101100
1000001101101
0111111101111
0111111110000
1000000010010
1010101110011
0111111110100
0111111110101
1010010110110
1011001010111
1000000000010
1000000000011
1011011000100
0101001100101
1000000000110
1000000000111
1000000001010
0011101001100
0110001110000
0101001110001
0111110110010
1100011010011
1100001110111
0110001100000
1100000100010
0111111100011
0110111000100
0011110100111
0101000101000
0100111101010
1001001101011
0111100001100
0101010101101
0100011010000
0111111110001
0111111110010
1010010110011
0101111110101
0111111110110
1000011011000
0000000000000
0110000100000
1100001100010
1000011000011
0111010100101
0110010001010
1100010101011
0101111010010
0111111110100
1011001110101
1010010010111
0111011100001
0111000100011
0100110100100
0101101100101
0111111100110
0011111101000
0111111101001
0110111001010
0110010001011
0100011001101
0111111101110
0111111101111
1000010110001
1100000110010
0110100110011
1000000000011
0101011000101
1010110000110
1000010000111
0101110101001
0100001001010
1000000001011
1000000001100
1001001001110
1011010110001
1000000010010
1010001010011
1100001010100
1001100110101
1000000010110
1001000010111
0111111100000
0111111100001
0111111100010
0100110000101
0111111100110
0011100000111
1100000101000
0111111101001
0110011001010
0111111101011
0101011101100
0111111101110
0111111110000
1011110010010
0111111110011
0111111010101
1000000000001
1000000000010
1100000000011
1000011100100
1010001100110
1010010000111
1000000001000
1000000001001
0111111101010
1011111001100
1000000001101
1011010001110
0111000001111
0101101010000
1001011010010
1000011110100
1000000010101
0100000011000
1000000000000
0111111100010
0111111100011
0100011100100
1010110000101
0111111100110
0111111100111
0111000101000
1100011101001
0110001001010
0111111101011
0111111101100
1000001101101
0111111101111
0111111110000
1000000010010
1010101110011
0111111110100
0111111110101
1010010110110
1011001010111
1000000000010
1000000000011
1011011000100
0101001100101
1000000000110
1000000000111
1000000001010
0011101001100
0110001110000
0101001110001
0111110110010
1100011010011
1100001110111
0110001100000
1100000100010
0111111100011
0110111000100
0011110100111
0101000101000
0100111101010
1001001101011
0111100001100
0101010101101
0100011010000
0111111110001
0111111110010
1010010110011
0101111110101
0111111110110
1000011011000
0000000000000
0100001000000
1011011000001
1011101000010
0111101100101
0111111100110
0100000101000
0111111101010
1011101101110
0111111101111
0011111010000
1100011110001
0011110110011
0111110110101
1011111110110
1100001100001
1000111100011
0100110100101
0111111000110
1000011001000
1000000001001
0011101101010
1000000001100
1001101101101
1000000001110
1000000010000
1000000010001
1000000010010
1001000010101
1010100010111
0101001000110
0011111001000
1001001001101
1010011110000
0101111010001
0011101010010
1010100010100
1010010111000
0111111100000
0111111100001
0110011100010
0110100000011
0101110100100
0111111100101
0111111100110
1010010000111
0111111101000
0111111101001
0111111101010
0111111101011
1000000001100
0111111101101
0111111101111
0111111110000
1000000010001
0111100110100
0100100110101
1001001110110
0110010010111
0111111111000
1011100000000
1011100000001
1010000100010
1011100100011
1000000000101
1100011100110
1001010101000
0110001001001
1001010101010
0101011101111
0100111010001
0111111110110
0111111110111
0101111000000
1011000000001
0100010000011
0100001100100
1010100001010
0111111101011
0011100101100
1000000001111
1011000110010
0101010110011
1010110010101
0101011000000
0111111100001
0101100000010
0111111100101
0111100100110
1001100001000
1100011101001
0111111101010
0111111101011
1000001001101
1010110001110
1001111110001
1000101110010
1000000010011
1000010110100
1000000010101
1010101010110
0111100000000
1001100000010
1001110100011
1010111000101
1100010100110
1000100000111
1010001101000
0110001001001
1000000001010
1000000001011
0110000001100
0111111101101
0101110001110
0111111110001
1010100110011
0100100010100
0111010010101
0111010010110
0011101110111
0000000000000
0100001000000
1011011000001
1011101000010
0111101100101
0111111100110
0100000101000
0111111101010
1011101101110
0111111101111
0011111010000
1100011110001
0011110110011
0111110110101
1011111110110
1100001100001
1000111100011
0100110100101
0111111000110
1000011001000
1000000001001
0011101101010
1000000001100
1001101101101
1000000001110
1000000010000
1000000010001
1000000010010
1001000010101
1010100010111
0101001000110
0011111001000
1001001001101
1010011110000
0101111010001
0011101010010
1010100010100
1010010111000
0111111100000
0111111100001
0110011100010
0110100000011
0101110100100
0111111100101
0111111100110
1010010000111
0111111101000
0111111101001
0111111101010
0111111101011
1000000001100
0111111101101
0111111101111
0111111110000
1000000010001
0111100110100
0100100110101
1001001110110
0110010010111
0111111111000
1011100000000
1011100000001
1010000100010
1011100100011
1000000000101
1100011100110
1001010101000
0110001001001
1001010101010
0101011101111
0100111010001
0111111110110
0111111110111
0101111000000
1011000000001
0100010000011
0100001100100
1010100001010
0111111101011
0011100101100
1000000001111
1011000110010
0101010110011
1010110010101
0101011000000
0111111100001
0101100000010
0111111100101
0111100100110
1001100001000
1100011101001
0111111101010
0111111101011
1000001001101
1010110001110
1001111110001
1000101110010
1000000010011
1000010110100
1000000010101
1010101010110
0111100000000
1001100000010
1001110100011
1010111000101
1100010100110
1000100000111
1010001101000
0110001001001
1000000001010
1000000001011
0110000001100
0111111101101
0101110001110
0111111110001
1010100110011
0100100010100
0111010010101
0111010010110
0011101110111
0000000000000
0100001000000
1011011000001
1011101000010
0111101100101
0111111100110
0100000101000
0111111101010
1011101101110
0111111101111
0011111010000
1100011110001
0011110110011
0111110110101
1011111110110
1100001100001
1000111100011
0100110100101
0111111000110
1000011001000
1000000001001
0011101101010
1000000001100
1001101101101
1000000001110
1000000010000
1000000010001
1000000010010
1001000010101
1010100010111
0101001000110
0011111001000
1001001001101
1010011110000
0101111010001
0011101010010
1010100010100
1010010111000
0111111100000
0111111100001
0110011100010
0110100000011
0101110100100
0111111100101
0111111100110
1010010000111
0111111101000
0111111101001
0111111101010
0111111101011
1000000001100
0111111101101
0111111101111
0111111110000
1000000010001
0111100110100
0100100110101
1001001110110
0110010010111
0111111111000
1011100000000
1011100000001
1010000100010
1011100100011
1000000000101
1100011100110
1001010101000
0110001001001
1001010101010
0101011101111
0100111010001
