1011110000000
1000000100010
1001001000011
0100111100100
0101111100101
1011100100111
1100000001000
1000110001001
1011110101010
0111100101011
1010111001100
0011111001110
0011110010011
1001100010100
0011111010101
0011111110110
0011111100001
1011010000101
1100100000111
1011111101000
1011000101001
1000000001011
0100000001100
1011100101111
1010111010000
1011111110001
0101101110011
1001010010110
0110100011000
0110001100001
0101110000011
0011111000100
0110111000101
1011111100110
0111100100111
0111000101000
0011100101010
0110011001011
0111111101100
0011110001101
0101011101111
1010100110000
0101100010001
0111111110011
1000110110101
0111111111000
1011000000000
0100110100001
1001110100010
1010100000111
0111110101000
0110110101001
1011101001010
0011110001100
0100111001101
1000011110000
0110001010010
1011011010101
0100110100000
1001101100010
1000000000011
1011101000100
1001111101000
1000000001001
0101100001100
1010010101110
0011110010000
0101110110101
0110111010110
1100000000010
0100001000110
1000000000111
0111111101001
1010001101011
1011110101100
0111111101101
0110111001110
1000000010000
1011110010001
0011110111000
1100100000011
0011110100111
0100010101001
0111111101011
0111111101110
0111111101111
0100110010001
0110101110011
0111101110100
0100001010110
0111111110111
0100111000010
0100110100011
1001010100101
1010101100110
1011000001011
1001100101101
1010000010001
1100000110010
0101111010011
0101111110100
1001011010110
0100000111000
0000000000000
