aa4
fe8
fe9
fea
feb
fec
fed
fee
fef
ff0
ff1
ff2
ff3
ff5
ff6
ff7
bf8
fe4
fe9
fed
fee
ff2
ff3
ff7
ff8
fea
98b
fec
fed
fee
fef
ff0
ff1
ff2
ff3
eb4
ff5
ff6
ff7
ff8
9e2
fe3
fe4
fe7
fe8
fe9
feb
fec
fed
fee
fef
ff0
ff1
ff2
ff3
ff4
ff5
ff6
ff7
ff8
0
