1001
1502
0aa4
0fe8
0fe9
0fea
0feb
0fec
0fed
0fee
0fef
0ff0
0ff1
0ff2
0ff3
0ff5
0ff6
0ff7
0bf8
1002
0fe4
1005
1006
0fe9
150a
100b
134c
0fed
0fee
100f
1010
0ff2
0ff3
1015
0ff7
0ff8
1681
1002
1003
1004
1006
1007
1008
1009
0fea
098b
0fec
0fed
0fee
0fef
0ff0
0ff1
0ff2
0ff3
0eb4
0ff5
0ff6
0ff7
0ff8
15e0
09e2
0fe3
0fe4
1005
0fe7
0fe8
0fe9
124a
0feb
0fec
0fed
0fee
0fef
0ff0
0ff1
0ff2
0ff3
0ff4
0ff5
0ff6
0ff7
0ff8
0fe0
0fe1
0fe2
16a3
0fe5
0fe6
0fe7
0fe8
0fe9
0fea
0feb
0fec
0fed
0fee
0fef
0ff0
0ff1
0ff2
0ff3
0ff7
15c0
0941
0fa2
0d84
0fe5
0947
1168
0fea
100d
0fef
1510
1011
15f4
0ff7
0ff8
0000
