07e1
0602
18c3
07e4
12e5
0a46
0887
1888
0e29
19aa
192c
100d
15ae
1230
0778
0fe1
0842
09e3
06a4
1006
1007
0fe9
164a
19ec
13ed
192e
07af
19d3
15d4
1995
0697
1000
0642
0663
1005
13c6
09e7
07c8
1749
158b
0c0c
19ee
0671
1812
17b8
1780
1202
1943
1007
1448
0869
09ca
11ec
06ed
0d8e
13f0
1971
08b2
07f3
1254
1a15
1985
0b27
05e9
16ca
0a2b
0c0c
0ff0
0df1
19b7
1538
1760
1461
1002
1523
0d64
1245
1006
1627
17a8
1769
100b
100c
176d
0670
0795
0ff6
0c22
1625
1009
170b
140c
072e
0a4f
0b30
0f31
0b92
0a73
0a75
19b7
0761
0862
11c3
1904
1945
13e7
0c69
11ab
06ac
0d0d
0b6e
0ff1
0ff2
0c95
0d16
1a37
0000
