18c1
0bc2
0fe3
0bc4
1805
0fe9
188c
074e
1331
1012
19b3
19d4
1676
1657
16d8
07a1
0663
0624
1485
14e6
1867
1589
17aa
158d
100e
0ed4
08f5
0956
0cf7
09b8
08e3
0704
1a08
100d
19ce
09ef
19b2
16f3
1001
08c3
0fe5
0be6
19a7
0f69
068a
0e2b
0b4c
1a2f
07f1
1a32
1614
1635
1458
06c1
0ac7
0688
100a
122b
100c
100d
100e
1511
1792
1854
05e8
192a
100b
11ec
0bce
16d1
1332
0935
1a38
1920
1181
19c2
1004
11a6
0aca
06ec
0b8f
0a30
0a71
08d2
0973
0996
0717
1860
1008
196b
126c
100d
14af
1010
13f1
1512
16b7
0000
