011011100001
001100100011
011001000000
010111000010
110011010000
011001000001
101010010010
011000010011
110011100000
001100010000
011101100001
011111110010
011000000011
010111110000
101000000001
100111010010
010001110000
101000010001
011011110011
110011000010
001100110000
010100010010
110010010011
011111010000
100111010001
011111100010
100001100010
001101110011
001100010000
001100010001
110001000010
011101110011
000000010011
001101110001
011000100010
110010110000
010101010001
101101010010
010100100011
011110100001
110100100011
000000000000
101000010000
110001110011
011100010000
011111110010
011111110011
001101000000
011111110001
011111110011
010110100001
011001000000
100000000010
001101010000
001111000001
110001110010
011000110011
101011000001
100000000010
001100010011
110000100000
011000100001
011100000000
011000000001
001101100011
110100000000
101111110010
010100010001
011111110001
101110100011
001110110000
101011100001
001101100010
101000000011
100000000000
100100010001
010001110011
001111010000
011111110010
011111110000
011100110010
000000000000
100011000000
101010110011
100011000000
110000110011
000000010011
110011010001
100010010010
011001100011
010101010001
011111110010
010000110011
001110100000
010000010001
010010110011
010110010000
010011110010
001111000011
001110100000
011111110001
001011110011
010000110000
010010100010
101100110011
011001110000
101011100001
001101100010
100101010011
110001110000
010110010010
100001010011
101100010000
010101100010
001111010000
100000000001
011100010011
001101100000
011011100010
101001010000
100000000001
011001000010
011111110011
000000000000
100110010001
001101110011
101111000001
100011100010
100100110011
100100110000
100000110001
010100000010
110100010011
110001010000
110000100001
110100100010
101110100011
011001100000
110011110001
010010010010
110000100000
101000100010
100110100011
110010000000
010000110010
010010110000
010001000001
001100100011
011111110011
001110100000
100011000001
110100110011
101101000000
010011100010
001110100000
010100010001
110100100000
001011010010
011111110011
101111100001
001110110000
011000100001
011111110011
010100000000
011111110011
000000000000
001110000000
010100110001
101111110010
011111110001
101111000010
100000000011
010100000010
100000000011
110010110000
001100100001
011011010000
001110010001
101001110010
101111000011
011111110000
010100110010
110011100011
011010100000
011111110001
110000100011
010000000001
100100010011
010010000000
101010100001
010011010010
001110000011
101110100001
011001010010
110011010011
010010010001
101100010000
011110100001
100011100001
011100100010
010001110011
100100110000
101010000001
011000110010
001101010011
001011010010
011011110011
101110110010
010100100011
000000000000
010010110000
010101110001
010111110010
101010110011
010000000000
001011100011
011111110001
100100100000
100011110011
100100110000
101100010001
010010000011
011111110000
101000100010
100010000011
101111010000
010000100010
110000010011
011100100010
011000100000
110001010001
011010000000
010000000010
010011100000
011111110001
100001000011
011010100000
011111110001
011010110010
100001010000
110011010001
001100110010
101111000000
011111110001
010010110000
001101000001
010001100011
000000000000
010110000001
101101000011
101000100001
011100000010
001111110011
110001100001
010000100011
100000000000
001110110001
101111110010
100000000011
100110010000
011110000001
010110110001
010101010010
110100010000
011000000010
110000100011
001101100000
101011000010
100111110011
010011000000
101011010011
101101000001
011011100010
001011110011
101100100000
001111110001
011001100001
110100110011
110001000001
010010110010
100000000000
100100000001
101010000010
100011010000
010111000010
100000100011
101110100000
010010010001
010011100010
100000100011
000000000000
001011010001
010110100010
010100000011
001111000001
110010110010
010001010011
101000110000
011000100001
100101110010
011100100000
010110110011
011111110001
001011110010
101011100011
011111110001
011011110010
101010010011
110000010000
011000010010
010011000011
011111110010
001101100011
101110000001
001111100010
011100010010
011001100000
100111010001
001110100010
110000000011
011000110000
011110010001
101110110011
101010100001
100110000010
011110010011
010101100000
011111110010
001110100010
100000110011
101100010000
101011100001
101100000011
000000000000
011000000000
001101010001
010100000010
101110000011
101010110001
011111110010
011111110011
100101010000
001111010001
010011000010
101010000001
001101110011
010110000001
101110110011
011111110000
001111000010
011111110011
110001000000
101010010001
101101000000
101010100001
001110000010
101111000011
010000010001
110010100000
100100000001
011100010010
001110100011
101111000001
100110000010
100100000011
101101000001
001100010010
110000100011
110000100000
010000100001
011111000010
100010100011
011111110000
101110110011
011111110000
101011110001
110001100010
010011000011
000000000000
010111010000
010110010001
100100110010
001101110011
110010110001
010000110010
011010000000
101011100001
010110110010
100000110011
110010010001
110000000011
011110010000
100110010000
100010000001
100011100010
110010100011
110010110000
010110110010
100000000011
011110010001
001111000010
100111010011
011000100001
011001010001
011111000010
011001000010
010101000011
001100110000
110000000001
110100010010
011010100011
010001100000
101011010001
001111110010
001101010011
110010100000
011000100010
011010010011
110100010000
001110010010
010000010000
101001000010
011111110011
000000000000
101001100001
010111110011
011110010000
100000000001
100010100010
001100100011
010000100000
110100000001
110000000010
011000100011
011000010000
101001010001
011101100010
110000010011
010001110001
010111000011
001111100000
100110010010
110011010011
010110110000
110001010001
100011100010
010001010000
011111110001
100000000000
010001110001
011100110010
010111010011
001100010001
100000000010
010011000010
010110000000
101111100010
110001100010
100101100011
010011000010
101110000000
110011000010
010101010011
000000000000
001011100011
101111100001
110000100010
110010110011
010010000001
010100110000
010100000010
011111110000
101000010010
010011100011
100000000010
010000000011
001011100000
011111110001
011011110010
101101100000
101000000001
001101100010
110011100011
101110110000
110010000001
011001110011
011111110000
100010110010
110001010011
010000100000
110001000011
001110100001
010011100010
001111100011
000000010011
100110100000
001111000001
100000000010
101110110011
101101100000
010100010001
101000110000
001110010001
010000110010
000000000000
010011100001
101100010010
011101010011
101101010000
100000000010
011110100011
001011010000
101011110010
010100000011
110001110000
011111110010
110010100011
001100110000
100111010001
100001000010
010000110001
100010100010
100100000011
100101110000
100011000011
001111110010
001100100010
001101010000
101111100010
110010100000
010110110010
100010110011
110010000001
010110110010
101100010001
100110100010
101111010010
101001110011
001101100000
101100000010
000000000000
100101000010
010111000011
011010000000
011111110001
110001110010
011111110001
110001000010
110000000011
010111100000
010000000011
010111110000
011111110001
011101010010
011111110011
001100000000
011111110001
010000110010
010101000011
100000000000
101000110010
110000000011
010000010000
110010100010
101110110000
100000100010
010111010000
010100100001
100011100010
110001100000
101110110001
011110110010
010011100011
010001010000
011001000000
101011010001
101001010010
010100100011
010111000000
010000010010
001100010000
100100000010
101111000000
100000000001
000000000000
010001100000
101011010010
110100000000
001111110001
101000110011
010010000000
101010000001
100000110010
110000100011
010101000000
110001100010
010001100011
110011010010
001101010011
101010110010
011010100000
110100100010
110001110011
001011110001
010110000011
100110110000
010100000010
100000010001
011011100010
001101110011
101111000011
100110110001
010110010011
010000110000
011111010001
110000100011
000000010011
101110000000
100000000010
110010100000
110011010001
010010100011
000000000000
011111110000
101110000001
011001100000
100110000001
101010010011
011111110000
101101010001
010001110010
011010110011
010010000000
010110110010
001111110000
100111010001
001011110010
011000010000
011001110001
011101110011
011111110000
011111110001
010010100010
010110110011
010011110000
110100000010
100110010000
110100110010
010101110011
001110100001
001110100010
101100000011
011001000000
110001110011
101111110000
101101000001
010110110011
101100100000
101100110001
011010010010
011001110011
101011100000
110000110001
101110000011
100000000000
011101000011
000000000000
101100010000
011011110000
100010010011
010110110001
101101110010
110011000010
100110010011
101110010000
101111010010
001111010000
110011010010
010111110011
001100010011
001101010001
101100000010
010100010000
100001010001
101101000000
100000000001
001111000010
010010010011
100110100010
110001110000
100100000010
001011100011
110001010001
100110110010
001111110011
100000000000
101111110001
110001100010
101100000010
010000010011
101100110000
001011100001
100111100010
000000000000
100000110000
101110100001
110010000010
110010100000
100110100000
110001000001
011101110010
100101110011
100110000000
101000000001
100000000010
011011100000
110010000010
011001100000
001101110001
010000000011
110011110001
001111010010
010000000011
100001100000
100000000010
101111000011
100000100000
001100000011
011001010000
010100100011
101001000000
011110100001
101110110010
001101010011
100000100000
010111100001
101001010010
101000000000
101001100010
010000010000
011110110010
100111110011
011110110001
110011000011
000000000000
010010010000
011001010001
010011010010
011101100011
001110100000
110001110001
110011000010
110000010001
011111110011
010011100001
110000010011
010001110010
110001110000
100010000001
101100100011
100010000000
010101010011
011001110010
101110010000
010000100000
110000110001
011000110010
010011100010
110100000000
011111110001
100110110011
011111110000
011111110010
011101010011
010100000000
011000110001
011111110000
000000000000
101101010010
100000000001
010100000010
011100000010
100000100011
001100100001
010001110000
100110010001
101011010010
101010010010
101111110001
010101000010
101100010000
001011010001
001101010010
110000100011
011010010001
100100110010
010100100011
110011000001
010011000011
010001110011
010110010000
001101100001
101000000010
101100000011
010110010000
101111110001
101110000011
001110000001
101110100010
011110010011
011111110000
101110010001
101001100010
000000000000
011110000000
101011100000
010001110001
010001000001
100000010000
101101010001
110100110000
011110000010
110001000011
011010110000
001110000011
101100110000
101010100010
001101010011
010111010000
011111110001
101001010010
010110000011
010110110011
100000110000
110000100001
110010010011
101011100011
010101000010
010010100010
011011110000
010000100010
100100110011
101000110000
011011110010
010001010000
001101110010
000000000000
000000010011
001111100001
100110010010
011111110000
001110000010
010000110011
011011000001
011100100010
011100010011
100101010001
010111010010
010100010011
101011000000
011010100010
011110010011
100000000010
010100010001
011001000010
110010100000
010011100010
101000010011
100000000000
010011000011
110010000000
110000000010
101010000011
110010000000
011100100001
110100000010
010010110000
010111110001
101010110010
101111010011
101111000010
100011110000
011001010010
101101110011
100010100000
110001010001
110011100010
100110010011
000000000000
100101100000
010010000001
110100110010
011010010011
101000010011
110010000000
101011000001
010000010000
010101000001
011010010011
101010010010
101100000011
010110000000
010011010001
010111110011
010111010000
101100110001
011001100011
010110110000
010011010010
101010100011
100111010010
001110010000
011000000001
110100100000
010110110001
011111110011
001111000000
001101100001
100101000010
101110110011
100101100000
010101110010
010111110011
011100000010
001110010011
100110110001
110001100010
010001100000
011010000001
100000000010
011000010011
000000000000
011010100011
010101010000
010110100001
101110110010
101110100011
101000010010
010101110001
001111000010
010111100011
110001010000
001100110001
101001110001
011100000011
011111110000
100011010011
110011000000
101011110010
011111110011
100110000000
110001100001
011001110010
010000100011
101011110000
011100010011
101011110001
010100010011
001100100000
100000000010
101101100000
011101000001
101010110011
100000000001
100000000010
011011010011
011000000000
100001010001
100000000010
100001100000
100000000001
110010110010
000000000000
100101110000
001111000001
100011010010
110001100011
011001000001
100000000011
010100100001
100000000010
110100100011
011111110001
101011100010
100110100000
110010110001
110000000010
110011100011
100011010000
011011110001
011110000010
100000000011
101001000000
010111000001
011000110010
001100100000
001011100001
001110110010
110100110000
001110110011
110000000000
011111110001
100100100011
010101100000
101101000000
100000000001
110010000010
100111100000
011001110010
011111110011
101010100000
100000000010
010101110000
101010000010
100101100000
010100000011
000000000000
101011110000
101000100000
101111000001
011100110011
101100100000
100000000001
001101100010
101110010011
010010000000
101101000010
100110110000
101000100001
110001000010
110000100011
010100110000
101001110001
010111110010
011101000011
100000000001
101110000001
001110000010
100011100011
010001110000
001100000001
110000100011
011111110001
010111000010
101010100011
101000100000
001111010010
100010110011
110100110000
100000000010
110010110011
011101010000
101100000010
101111110011
110010000001
101000110010
010100110011
100000000000
010100110010
010000010011
000000000000
101100010000
010101000001
011010000010
100111000011
010000110001
100000000011
101000000001
100000000011
010010010000
010100000011
001110010000
110011010001
101100010010
100110000000
110100010001
000000010011
101100110000
011001110010
010000000011
100000000001
100110010010
011111110011
010111010001
010001010011
001101100000
100011110010
101001010011
011011010000
011111110001
010000110010
110100010011
110100000000
100100100001
010110100010
010100110011
011110010000
010010010010
101010110010
011010100000
010000000010
100000000011
000000000000
000000010011
110001110011
011111110000
001101100001
010101010010
001101110011
011100100001
110010100010
001110010001
101011000010
110011100011
100011110000
101001110001
001111110010
101101000001
011111110010
101100000011
101011000000
101101110001
010100010010
101011010011
110010010000
101110110001
010000000010
100011110011
001100010000
101011010001
100000000011
001101110000
110001010010
010100100011
001101100000
110100000011
011000110000
011010010001
110100000010
001101010011
011111110000
011100000011
011111110000
001011100001
011111110010
010100000000
100000000001
110100110010
000000000000
100101010000
110011110010
001011100001
001101110011
011000110001
100101110010
101110110011
110010000010
010011000000
110100100001
001100110010
101101110011
010010000000
100000000001
100110110010
011111110001
001101010010
100000000011
010010010000
011001000010
101000110011
011011110010
110001110011
011001100001
001101110010
010010010011
101001110000
011110000001
001011100010
110100010001
101110010011
101110110000
110001000011
101011100000
010100110000
101111010001
000000000000
110100110000
010011100001
010001010010
110001110011
101100000000
011010010010
011001110011
101001010010
011111110011
110100110000
100110000010
110100110000
101010000001
100111110010
010101000011
110100000001
010101100010
100111000000
001111000001
100000000010
010101100011
011100110000
101111110001
011111000011
100111100000
110010110011
101001000010
101011100000
101100100001
110011110010
011000110011
010101000000
010010000010
001111100011
010000110000
101110010010
101100100011
100000110000
100110000001
001101100010
011100110000
011101110001
001110010010
000000000000
