0944
1687
09c9
1a2c
07b2
06d3
0640
194d
1870
16b1
17d2
19f3
19c0
0621
0622
1044
0847
14e8
19a9
096c
112d
074e
1a01
1882
060c
060d
174f
0892
19d3
08d6
0746
0627
0feb
186d
0dcf
0a50
1011
07b4
1476
17d7
1000
1561
15e6
1a27
1868
1009
13ca
178b
174c
148f
09d0
0e74
0d75
0cb6
1422
1003
1684
1727
0989
0a6c
0fed
07ee
13b1
1572
1814
1762
16c3
14c6
0889
100a
098b
074c
0fed
0b50
0e11
07d4
0855
0000
