01f
a20
971
cd0
670
d22
773
2f0
4a0
540
631
372
ab3
3c2
3b0
4d1
852
4f0
312
d23
d43
802
380
b12
b93
390
381
c73
800
7f3
be1
803
402
4e1
982
803
801
000
771
c62
4f3
900
a01
01f
2f3
01f
d10
4f0
6f3
5b0
2e1
473
320
583
b20
bf3
411
612
362
800
801
a82
ab0
803
421
c70
802
553
800
b71
2e2
b70
01f
d42
000
b30
9a1
a52
743
7d1
01f
a10
4c2
353
d11
3c2
d43
d20
323
9c0
960
bc1
302
463
8a0
462
2f0
441
3d2
5b3
980
2f1
423
352
391
c12
cc3
d01
802
a70
d11
403
7f0
601
303
7f0
7f1
5b3
cf0
5d2
523
2e2
441
592
000
3b0
800
b72
a83
01f
bc1
d00
681
322
801
d23
5b1
802
c93
360
341
c13
801
c62
ca2
803
371
01f
401
7f2
350
933
a61
7d3
811
802
a63
7c1
802
a63
ce1
2c2
d33
ca3
000
c70
3b1
a42
4c2
b63
01f
cd2
c01
7e2
7f3
01f
7f3
3d0
483
671
d13
463
710
7b1
cc3
01f
ae1
803
410
4b1
322
9e3
7f0
651
382
473
8d0
7b0
951
9c3
6f0
461
330
3d1
cd3
b80
331
3d2
b53
000
7f1
492
ce0
c31
673
aa0
ca2
8b0
371
c33
aa0
c11
492
550
2e2
a80
622
803
bd0
b71
3d3
ba1
582
801
802
7f3
b60
803
342
a23
300
6b1
cb2
603
7f1
2e2
b03
b60
cd2
c63
b70
a72
803
a50
4e1
362
803
9c1
d42
573
301
bc3
553
000
01f
4f0
340
521
cf3
01f
cf0
492
653
01f
800
431
802
01f
620
9c1
802
7f0
921
c02
b31
9e2
783
01f
390
ae1
b83
c00
901
393
800
af2
7f3
d30
612
803
590
9c1
7f2
4f0
3f1
2c1
501
c12
000
7b1
892
383
390
cd3
01f
d42
533
2d0
801
01f
01f
9c0
c31
01f
800
393
c31
01f
cf2
5c3
340
2e3
bc3
640
3a2
bc0
7e1
b52
4f3
310
ae0
342
bc2
603
000
3e1
332
433
5e0
ca1
cb2
4c3
593
01f
420
b62
9d3
b83
7f0
ca1
5a2
963
b60
a62
a63
c92
c93
691
ca2
360
431
01f
b52
6f2
a13
ad0
601
af2
6d0
7f1
441
802
cc3
310
622
ce3
380
aa3
000
8c3
01f
302
350
c30
801
643
01f
4a0
4b1
ad3
ab1
cb2
321
ad2
860
aa1
931
d10
7f0
352
653
bc0
3f2
2f3
c40
cf1
391
2d2
803
3b0
7f2
c50
d41
a62
373
01f
01f
000
480
801
cf1
322
4a0
c01
2f3
a61
01f
770
3d0
a91
542
cc0
c21
5f2
733
441
c83
ca0
760
9c1
cb2
423
b41
b40
c71
cb0
513
760
4a1
3d2
990
801
312
983
480
2c1
8f1
a62
3d3
000
bf0
4a1
d22
443
2c1
370
4a2
323
b01
01f
561
563
cc3
451
01f
3d0
5e1
cb2
302
7f2
541
642
560
3c1
8d2
b83
800
c61
882
7f3
b12
442
393
a51
000
7f1
803
800
a23
b61
d02
3a0
be1
af3
2f0
2d1
543
01f
362
981
322
403
b41
2c2
c53
9c2
4c3
01f
2e0
c31
a60
391
752
d13
ab1
01f
bc0
7f1
9b3
ca0
3d1
342
d20
a91
4c3
a00
9b1
432
803
000
d40
802
b61
a63
2e1
9f2
a73
a80
b02
d33
d02
ca3
ce0
b52
530
921
802
cf0
a22
9b3
912
d40
302
9e3
800
7f2
cc3
800
391
c02
303
b70
bb1
852
c13
7a0
922
323
3a0
4c2
313
801
cb3
2f1
853
2f0
a31
9f3
000
7f0
c73
511
552
673
01f
6d0
b11
4e2
320
b41
ce2
4d3
01f
b71
380
2c1
720
401
4c2
982
323
01f
c81
422
9b0
3f2
cc3
d01
c03
7f0
461
d30
3b1
452
640
321
bf2
413
2f0
362
5c0
371
613
000
c80
801
2c0
4f1
332
430
571
730
8c2
c83
4d1
400
381
362
3a3
d21
c92
be3
01f
c92
d31
7f2
813
ce1
b92
2f3
d10
3c1
2f3
ba1
7f2
b80
952
3c2
411
522
370
cb2
000
7f0
801
7f2
7f3
c90
cd1
cf0
630
971
392
633
311
d40
b81
c73
750
4c1
462
710
422
423
3f1
cf3
b20
731
d11
970
2e2
850
381
7f1
2d3
4b0
801
352
733
800
9b2
843
360
641
502
5a3
01f
b20
b41
352
333
000
ae1
3b2
603
800
351
c21
c01
4f2
691
543
01f
803
560
491
682
cc3
391
391
562
be3
3a1
ae2
2e2
703
b21
c12
863
7f1
cd2
363
800
ae1
5f3
642
3d0
b71
b33
800
9e2
000
951
7f0
4e1
d11
2c2
d22
510
a62
d30
cd1
d32
4b0
a81
803
2f2
613
c80
4d2
583
741
c82
6e3
421
cd2
ca1
510
381
3d2
b10
b81
452
803
361
c82
403
370
760
c32
5f1
362
483
4f1
640
d41
d42
000
c70
451
4f3
9c0
901
512
321
01f
7c0
4e1
c41
be0
d02
800
9b3
490
4c1
802
703
550
933
01f
331
372
333
c30
542
c20
491
be3
bd0
692
2d1
802
7f3
a90
381
cd2
933
8a1
453
800
331
000
4d0
7f1
313
5b0
4d2
c51
2e2
402
7f2
01f
630
741
672
423
af0
c51
482
802
7f3
3c2
ce1
362
c80
801
3a2
3a0
471
9d3
2c1
b73
503
6d0
9b2
7f3
861
2f1
d22
3f1
000
a50
aa2
340
af2
9f3
770
ca2
b83
480
352
530
a92
bc3
430
cb2
b93
01f
b32
430
701
2f3
343
b50
801
2e2
01f
01f
460
a73
01f
800
9d1
703
800
462
7f3
ca2
9d3
870
692
450
bf2
503
000
2e1
b72
c93
800
ab2
7a1
433
572
cd0
7f1
6a2
9c3
560
01f
390
b81
ae2
801
332
ba3
5e1
3e3
ca1
ce0
01f
c20
801
ce1
962
b53
7f0
a33
622
300
622
610
d21
b72
363
000
330
c42
d33
3d0
7f1
3b3
a80
2c1
492
ce3
4e1
4c3
b60
7f2
803
302
bd1
443
2f1
b93
7c1
803
9b0
5b2
383
01f
d10
ce1
2c3
7f0
3e1
2e2
833
5d0
7f1
b42
9b3
b41
c52
543
6c0
371
b72
353
cb1
4b0
c31
3d2
9b3
000
801
332
780
b42
993
c63
d30
cc2
ce1
802
803
cd0
801
01f
391
b72
670
c30
932
330
c31
ca2
ab3
01f
cf0
971
3b2
400
c51
423
b00
2e1
2d2
c90
351
802
bc3
bc1
6b2
01f
601
802
503
000
800
752
310
4c2
803
c40
490
4b2
300
2c1
2d1
413
800
af1
a40
533
d21
542
521
342
d10
2d0
b13
3a1
582
c73
701
7f2
401
3f2
470
b01
aa2
343
740
7f1
800
801
000
391
b82
803
3b0
351
c92
d13
850
7f1
803
490
5f2
443
b02
803
803
01f
c00
441
c92
4c3
a40
311
bf2
c53
bb0
802
803
d20
7f2
c23
470
bd2
d43
b60
a93
ab0
a82
7f3
942
803
cc1
c32
603
ae0
d40
d21
b82
7f3
311
7f3
000
9f3
3a0
421
a62
d10
ad2
7f3
cd0
ca1
352
4f3
410
aa1
a22
633
481
b31
462
a63
01f
7f0
402
c31
d33
391
370
b91
7f0
c41
652
c33
3c0
5e2
ca2
7f0
c51
6e2
3c0
c41
502
c33
000
4a0
521
d00
7f3
ae2
be1
c42
800
802
2e3
01f
333
7a2
353
2c1
542
3b0
301
a12
01f
cf1
2c3
402
383
711
7f2
7f0
442
380
ac2
2c3
661
c22
d03
4f0
441
9c3
2e0
000
551
2d2
320
7b1
8b3
ce0
7f2
4e0
a43
7f1
752
3e3
a20
c41
c63
343
d02
c53
be1
d23
c80
bd2
7c0
931
802
01f
d13
01f
4c3
311
341
731
4b2
4d3
361
863
922
5c3
000
a00
3b1
392
983
ad1
5d2
563
6a0
c61
7f2
801
2d2
bb0
801
7f2
2f3
520
331
433
2e0
301
640
c13
4f0
441
d02
5d3
8c1
673
b21
cd2
b33
01f
340
d32
3a3
b32
520
502
ce3
c50
801
302
d43
500
800
ad1
bf2
b13
7f0
a51
000
c70
801
01f
cf0
532
9c0
552
d23
710
931
2c3
941
801
332
3b3
380
801
372
573
402
01f
2f0
01f
470
5d3
370
ad1
2e2
2e3
862
800
a61
4b2
cd3
570
5d2
323
d00
501
732
a03
9a0
801
682
673
000
800
cc2
3d3
6c0
451
400
461
802
450
352
01f
ca0
801
782
380
3d2
c61
c31
01f
01f
01f
403
c40
2c2
483
c60
803
d01
7d3
a03
910
851
7f2
000
5e0
bd3
ba0
3f2
370
801
312
2f0
312
720
603
d40
a52
383
01f
d21
a72
c40
be1
382
bc1
d02
6b3
2f1
803
01f
360
471
9f1
bb3
840
801
952
7f3
8e0
b82
c83
780
802
443
330
a62
3a0
a51
c32
000
810
a72
850
821
523
ab0
802
c03
01f
bd1
d33
642
cf3
7f1
a03
5a1
802
3c3
490
ac2
413
580
452
c13
370
483
cc3
542
bf3
7f0
a31
a32
a83
3d0
311
cc3
5c0
331
ae2
6e0
6e0
7f1
2e3
000
b72
923
4d2
2c3
a11
bb1
573
c32
cb0
cf1
7f2
4b3
01f
c61
9b2
d03
bc1
5c3
800
812
503
7f0
7f1
5f3
01f
01f
cc2
423
d10
3a1
372
7f3
980
471
c62
8e3
802
bf0
7f2
8a3
cc0
421
cd3
802
000
8b1
9c2
8c3
01f
450
8e2
a10
7f2
7f1
363
01f
4d0
bb1
902
cf3
2e0
641
bd3
b62
be3
460
4a1
d42
4b3
d00
01f
01f
ce0
461
c22
390
951
2e0
ab1
462
723
b50
cd2
4d3
c01
432
643
6f0
000
c80
b01
2d2
5d3
b50
b42
01f
6c1
c82
a90
7f1
9a2
01f
01f
c71
4a2
543
340
aa0
882
b53
3e0
881
b73
01f
331
3a2
3a1
ae0
ce2
c53
ae0
3a3
ce0
a53
451
cb2
440
cb1
912
c73
000
af1
d43
800
4a1
a71
be0
c03
a10
3a1
2d2
ce3
421
01f
540
2c2
4b3
510
423
be0
7f1
3d2
ca0
811
a72
01f
01f
01f
c00
651
2e2
be0
7f1
802
3a3
c50
2f1
573
b93
2e0
7f1
d33
6a0
9f1
7f2
000
cb3
630
551
8b2
a21
b12
311
d40
802
3b3
01f
d13
3e0
381
cd2
01f
6d0
7f1
363
5d0
931
5d2
c63
373
362
2d3
c90
6d1
313
5d0
521
943
b32
380
b00
c41
382
483
720
463
000
b90
2d1
6d2
d20
531
7f3
2e1
3f2
01f
530
7f1
802
763
360
801
d11
d43
500
491
402
2c3
c11
c13
320
800
4a2
b43
320
d42
cd3
3b1
452
c30
801
a33
d10
7f1
5b2
721
682
541
bb2
3d3
4a1
803
7f0
731
ce2
7f3
000
590
7f1
682
363
372
3c3
b00
441
742
ab3
b80
381
5a2
b70
b72
3b0
3e1
d43
8a0
423
510
361
c92
801
6a3
c60
771
300
c92
303
530
c12
ce3
7f0
952
7f2
800
4a2
803
b02
a40
8c3
c70
851
312
783
000
5e0
311
9c2
9e3
361
501
601
513
740
383
510
7f1
9f3
350
bf2
2c3
01f
01f
7f0
7f1
d22
832
900
901
5e2
4c3
ca1
2f1
c13
01f
cd0
332
ab1
362
01f
a53
000
3a0
a72
7f0
711
533
01f
500
c81
cf3
2f1
722
3b1
c72
cd3
01f
cf0
671
6d2
722
500
c01
b33
4f0
361
2c2
b93
b11
381
3e2
ca0
c91
b61
d23
cc1
312
313
330
492
403
01f
800
681
ac2
2f3
000
470
c73
bd0
9f1
801
c02
4e3
382
01f
960
b11
c02
01f
ce3
c40
7f1
d00
a01
802
803
330
b42
6b3
341
632
3f0
4d3
01f
3f0
9f0
3b1
312
340
302
01f
c10
2d1
683
000
2f0
3a2
733
7f0
4a2
6f3
c01
472
531
ae0
b62
d11
3f2
bc3
d30
351
d13
c40
803
7f0
630
bc1
7f3
310
3f3
d20
561
bd3
a60
01f
2d2
640
7f2
ce0
321
d31
2d2
803
000
382
9b3
c30
352
343
3e1
343
2f1
5b2
bc1
c12
8b2
653
cc0
2f2
ce3
550
c53
670
451
b00
8e3
762
d20
5b2
7f3
5f0
302
471
661
2c2
440
ce1
330
481
000
b20
631
8f2
2f3
9b0
2c1
472
b93
920
2c1
01f
2f0
2f1
7f2
803
491
4d0
cf3
d21
a03
b30
3f1
671
a12
803
b81
622
452
7f3
930
3d2
373
b20
cc1
620
952
723
302
803
860
521
6a2
553
a13
bf2
7f3
000
8e1
a40
9f1
be2
b63
320
d01
ae2
3e0
821
8e0
301
591
2d2
d20
9f1
ce2
cd3
6d3
3d3
9e1
422
3b1
803
3d1
4a0
c51
ae2
633
01f
2d0
a71
c23
8c1
802
3f3
3f0
403
491
650
801
5f3
000
7f2
3c1
3c2
873
591
362
4d0
381
472
ac1
c83
441
d22
01f
01f
01f
733
612
7f0
4b1
9e3
360
443
2e0
371
d12
332
01f
350
bb1
402
2d3
4a0
bb3
01f
01f
000
800
3e3
550
b61
462
800
7d1
512
323
9f0
730
c21
312
473
8f0
5e2
cf3
d11
413
cd2
ce3
320
541
372
3f1
6c2
9f0
d21
5c2
d23
710
c81
3d2
430
431
4b2
863
01f
642
373
2f0
c31
b43
492
01f
940
7f1
313
000
4c0
2e2
970
803
451
01f
600
c71
01f
330
01f
bf0
2d2
403
01f
490
301
412
bf0
c62
803
3e0
3d2
01f
01f
7f1
342
7d0
01f
652
000
801
801
2d3
480
333
a61
5a2
303
6e0
ab1
3b2
ca3
c21
c71
2e3
311
d33
ad0
7f1
572
7f3
663
9c0
c73
353
d33
5d1
2c2
2d3
c92
5a0
971
802
363
2e0
bb3
a81
3b2
991
b72
2d3
000
4b2
c10
441
aa3
a50
581
d02
6c0
7f3
330
381
d42
01f
7f0
2f1
3b3
760
5d1
be2
ce3
652
bc0
971
b53
480
3d1
2f3
01f
400
452
402
383
cc2
01f
000
cc0
7f1
3d3
450
b41
802
01f
2c1
5c3
9b1
b41
d22
c90
351
491
cc2
6f3
3e0
3f1
633
ad2
313
410
b43
01f
370
be1
362
bf1
cf2
b80
7f1
c43
c90
482
ce3
cd1
c81
d23
000
441
ae2
bb3
460
7f1
a10
9e2
cd3
802
7f1
932
c53
800
01f
c32
800
2e2
7f2
be3
7f1
b42
ae3
7f0
b12
c31
3b2
cc0
301
c33
312
613
4a2
a13
bd0
ad1
802
803
771
b23
340
2c2
861
8f2
000
a50
4b1
2e2
bd0
2f1
582
803
01f
2c0
3c2
633
ae0
b83
b92
312
382
2d3
cf0
801
2f2
950
803
7f1
a62
693
320
3e1
772
c52
d43
300
622
2e3
2f0
2f2
342
d23
500
000
541
360
8c2
5f3
8c0
421
942
7f1
972
453
b50
622
3f0
ca2
6d1
3a3
c70
a92
802
540
a51
802
7f3
410
2f1
900
393
372
bf1
7f0
411
b62
483
01f
bd0
000
3f1
2d3
7f0
801
412
493
440
2c1
d41
ce3
01f
c21
01f
421
b93
b32
bd1
c03
861
01f
621
2e3
2f0
cf0
4d2
383
493
392
cf1
800
581
522
7f3
000
630
3a2
2d3
540
b31
7f0
913
430
392
7f3
801
c43
552
923
bd2
01f
b12
c83
ca0
581
2c2
3c3
6e0
801
bc1
9a2
3a3
ab2
2e0
ca1
803
01f
01f
2e1
c12
4c0
d21
803
01f
810
611
000
2c1
442
ba1
840
ca1
6b2
393
462
323
7f0
a52
d23
bd0
01f
01f
d40
4e1
c42
800
321
d12
801
372
d43
650
8b3
ca2
c23
c90
461
353
01f
441
ba3
612
300
ca0
3d1
303
000
520
be1
ae3
721
363
322
6d0
a81
bd2
4d3
653
d21
3e2
2f2
c11
802
300
c21
aa2
c53
301
3e3
b30
691
7f2
d40
3e1
ca3
01f
d30
ba2
b73
800
5c2
9f3
310
ba1
402
b83
cc3
a00
4c1
3c2
000
400
3d2
d33
701
302
580
511
802
803
520
980
681
413
600
c22
2f0
ce1
cf0
321
351
802
440
902
4a1
2e3
6d1
6d2
583
430
2d1
440
3a1
01f
630
341
802
d23
680
431
712
873
2c2
c93
2c1
b13
000
470
a81
d13
510
b42
803
313
9c0
601
762
a73
340
6f0
2d2
9b1
523
420
c42
5d3
480
c21
433
910
712
393
800
801
c52
603
4e0
4f1
6c0
4b1
c03
a80
422
3b3
512
7f3
450
691
982
423
01f
2e2
6c0
7f1
332
000
b00
c91
352
533
b61
802
363
2e3
01f
b41
a62
c83
01f
be0
351
3a3
b21
a00
781
443
421
7f0
592
b23
970
cf1
c23
800
802
2c3
382
7f1
7f2
7f3
390
421
742
321
303
d30
2d0
3d2
c23
000
441
3c0
431
3e2
b03
d22
2e0
542
323
01f
411
472
8d3
7f0
7f1
4f2
b93
bb0
c11
c32
7f3
b10
481
603
911
6f2
553
7f0
431
822
b53
341
7f3
a80
2d2
d03
3c0
411
01f
990
8a2
01f
01f
2e0
6a2
a33
000
b30
d02
370
530
483
372
2e3
350
492
c81
d10
2f1
a42
801
ca2
cd2
7f3
7f1
c23
c91
bd1
4d2
6c0
803
361
b02
563
980
bc2
803
400
983
2d1
391
bd3
800
c02
553
000
b60
8e1
923
a10
7f0
4e1
803
01f
631
ba2
9e3
311
c33
7f2
c73
880
c41
673
662
7f3
691
443
301
372
640
802
803
4a0
cc2
513
610
651
9a3
7f0
d13
c01
543
bb3
d10
3e0
cf1
cd2
2f3
000
9f0
401
732
441
803
800
7d1
350
c22
bd3
b70
351
a12
723
01f
3d0
4a2
c81
803
01f
3a0
381
a02
a63
9e0
b31
533
b11
cf2
803
570
802
7f3
c10
362
830
3a3
cd0
b91
7f2
c43
a13
c30
301
b73
5f0
bd1
c92
c63
8e2
000
d30
b21
c72
b91
492
c63
3c0
7f3
4f1
7f0
9d1
01f
bb0
841
ba1
342
431
803
01f
921
802
913
350
760
b01
802
b21
c82
553
430
c91
3e3
441
b52
703
910
d31
343
01f
01f
612
000
801
802
502
413
2f0
502
bf3
2d1
741
522
d00
851
4e3
7f0
3a1
302
3b3
952
703
590
371
a63
7f0
c73
7f1
d02
462
610
661
803
9f2
803
c90
c71
ce2
352
01f
b10
000
450
ce0
c61
853
a20
401
532
d03
01f
800
cc2
2f3
be2
823
730
650
631
332
5f3
802
01f
8f0
7f1
7f2
9c3
d42
a73
3f2
a53
720
331
993
ad0
5b1
322
bf3
503
01f
800
cd2
313
000
7f0
9e1
460
323
470
3a2
d23
2d1
01f
2d0
8f1
713
d20
2f2
823
2d0
cb1
4b3
800
7f1
9f2
9d3
5b1
3a2
c53
9d0
c83
8e1
633
461
c41
be2
9b0
ab1
5d2
393
01f
2e1
941
cb2
733
000
3d0
451
a42
bc3
4e3
b91
c32
b93
301
350
01f
d01
cb0
cb1
392
333
b21
7d2
593
a60
821
a21
7f2
311
b22
c63
7f1
3b2
cf3
351
01f
3a0
a91
803
01f
01f
d20
c83
7a2
2f3
000
c61
7f2
503
3f2
430
4b1
01f
532
01f
300
4a2
2d3
cd0
663
800
c42
b03
380
351
ae0
c61
c62
2f3
441
d32
590
3c1
4f3
470
3b1
be2
5a0
601
bb3
342
01f
01f
000
3f0
801
752
c03
891
01f
cf1
c82
d13
2e0
cd1
8b1
612
313
a30
c01
333
b70
c21
cf2
a73
7f1
9d2
4b0
802
8f0
c92
b83
5a0
801
303
801
563
3c3
c71
532
640
571
942
6b3
01f
01f
a61
8c2
7f3
000
c61
2c2
383
822
983
4c1
922
d01
ad2
b73
4e0
bd3
ab2
d13
940
c42
7f0
a91
c73
01f
6e0
ab2
b21
c13
532
b83
d03
5b0
3b1
2f3
311
a43
cc0
521
ca2
3d3
310
cc1
c02
af3
01f
760
7f1
8d2
000
540
5b3
582
643
c40
371
702
d31
3c1
772
cf3
01f
392
6f3
481
7f3
7f0
802
373
800
b81
b22
483
3a0
4c1
a52
d23
b20
7f1
3b2
853
7c0
4e1
582
7f3
571
7f2
a33
452
bf3
800
801
a23
bd2
342
d23
a60
000
710
471
411
7f1
b72
01f
6a2
373
01f
620
371
c02
b03
3a0
872
cb3
2d0
c31
372
b33
b03
360
ad1
b92
7f3
802
3d3
960
d31
7f2
693
391
b60
572
7f3
451
4c3
ce1
8c2
01f
cb1
c52
2f1
000
762
3c0
4e1
383
2f3
970
ce1
312
373
ce1
b82
3b3
7f0
a91
352
733
491
303
7f0
800
c81
4e3
b60
301
7f2
01f
412
361
7f1
b32
01f
01f
5e0
411
ad2
803
000
be0
a62
343
d31
4c0
bc2
9b3
312
7f0
3f1
803
d12
c90
cd1
b60
5c1
cf2
b33
9a0
722
a60
4f1
3d3
460
561
3d2
361
802
462
360
342
cf2
8b3
8e3
01f
300
d31
c80
d02
562
000
610
b82
b53
3b0
c70
341
4e2
01f
8e0
7f2
653
321
401
ac2
730
7f1
9c2
c53
5d0
a31
892
4f3
c91
9b2
b71
443
610
432
af3
800
431
522
513
b40
531
471
372
bb1
a92
01f
392
c80
5c1
7f3
000
752
2d2
5a3
01f
01f
a40
b63
01f
cf1
01f
6b1
683
4c1
342
531
bf3
800
2e2
852
803
3a0
931
cf2
b93
800
801
a93
01f
7f0
771
3a3
01f
01f
6f0
801
802
000
800
7f2
423
cb3
01f
7f0
a61
8a2
803
c60
890
b61
6b2
d30
c82
3c3
3c1
7f3
381
4c2
3c3
01f
01f
7f0
802
9b3
c33
822
a60
5f2
01f
c82
3c0
4d1
322
af0
801
802
313
000
510
6f1
bb2
521
d12
3f3
aa0
801
cb2
800
b61
542
800
c31
352
800
a32
c13
450
401
343
01f
01f
800
3e1
b03
2d0
392
803
2e2
450
c62
d01
d00
322
01f
301
5b2
c03
a50
cf1
4f2
ad0
000
872
320
5f2
803
820
c61
cc2
4d0
482
b93
a13
b91
a92
803
320
4f2
01f
01f
801
803
842
c60
623
393
cc0
802
371
492
01f
461
4e2
9d3
3a1
ce2
363
541
a03
000
01f
971
802
7e0
431
393
360
562
6b3
5e0
361
5a1
cb2
322
01f
cf0
cf3
571
722
400
7f1
7f2
a03
3a1
b92
d23
401
3a2
b81
393
01f
742
920
7e2
d10
b91
c92
000
801
403
800
801
422
a40
6e1
c72
b20
c31
3e2
373
5d1
333
a00
7f2
be2
d23
341
2d3
ac1
582
3a0
7f1
592
c90
621
d12
c32
01f
2c0
5f1
01f
01f
800
9b1
ca2
7f0
2e1
613
ad0
000
890
361
5b0
bc1
922
803
ce0
801
7f2
ab3
480
751
3c2
c33
511
7f2
2f2
b83
c71
ab3
d40
c13
01f
301
682
443
7f0
2c1
492
a33
4d0
361
a83
b80
981
922
403
b10
7f1
3a2
be3
3b0
803
310
341
342
400
c73
541
582
a03
410
2f1
000
820
932
c43
491
372
c23
910
803
ca1
7f3
3f1
463
741
802
7f3
bb0
371
392
853
ca0
b20
802
700
411
b73
cf1
af3
bb0
d31
953
990
681
4c2
b73
bd2
803
d21
692
7f3
5a0
383
940
d31
cf2
a40
652
7f3
3e1
7f3
000
490
a21
cd1
c92
320
b51
7f2
660
b53
650
5a2
4f0
a61
bd3
362
2d0
c41
d33
382
620
ce1
3a2
c00
302
610
372
2d2
c71
2f3
9c1
b62
2c3
411
5e0
3b3
c90
821
802
3b0
a41
a92
000
a30
451
3b2
4f3
400
ce2
933
7c0
b82
660
7f1
c13
6b0
461
cb3
401
752
603
be2
01f
01f
7a0
6d2
01f
310
572
c10
362
cc2
3d3
492
5c3
b52
803
01f
380
3a2
393
670
2d2
c43
000
800
302
8c3
4e1
7f2
4c3
5a1
a42
963
3e0
953
3d0
321
382
d03
980
301
303
cd1
c72
01f
800
5f1
802
bf0
443
a32
bb3
780
cf2
c63
622
b50
3a0
3a1
873
593
371
6f0
d02
bc0
933
000
01f
ce3
760
a61
532
950
631
ba2
af3
cb0
662
803
c30
411
612
630
c81
01f
c80
c30
7f3
670
a91
4a3
c30
c71
363
550
bd1
c72
620
01f
330
c23
01f
01f
c50
371
8f0
000
5e0
8d1
3d2
613
803
a10
831
8c2
803
c10
b51
432
cc3
ca1
593
403
d20
331
a61
800
a51
01f
452
6a0
821
7f0
831
312
7f3
613
391
9d3
991
d00
7f2
d12
303
bd0
a01
000
d10
320
a60
961
3d2
3c3
be0
be1
b82
860
ad1
970
3f2
371
c92
2f0
01f
c20
801
312
983
2d1
3a2
4f0
5b0
613
2f0
382
303
371
322
d33
391
462
363
01f
463
c10
371
813
000
941
7f0
c11
323
cd1
803
4d0
802
b21
802
c91
d12
362
01f
01f
7f1
a90
791
bf3
b42
5d3
bd0
cf1
8f3
801
443
b40
321
d12
3e0
01f
b52
7f3
900
b11
502
9d3
7f0
a41
802
000
bc3
ab0
7f1
8e1
c43
7f0
902
630
2e1
952
983
371
7f2
a82
333
310
be2
593
b20
bc1
d32
3a3
c10
552
613
af2
b62
a03
b30
311
d03
bb1
802
b33
312
d33
7f0
2d0
8e1
bb0
302
543
000
bf1
8e2
373
800
371
432
803
ad2
c23
310
7f1
b13
511
b02
cb3
01f
4b2
723
3c0
b12
01f
800
b31
802
b33
bc1
d31
ac2
723
381
5d3
692
bf1
363
521
a73
01f
01f
7f0
593
cc3
000
9c3
9e0
d31
d12
663
7f0
8c1
802
c33
c61
7f3
801
852
693
a11
802
923
01f
01f
01f
500
a71
aa2
cf3
3c0
681
490
781
2f1
4e0
802
a53
452
3c3
342
bb0
4c1
593
7f0
2e2
d40
643
000
9a1
cc2
b70
c43
a90
4a1
5d2
5d3
6a0
321
4a2
473
381
cf1
350
ce1
01f
a80
7f1
d31
333
471
b12
cb3
01f
2f0
c81
b03
3d3
3a0
6b1
362
3e3
330
641
8d2
9d3
330
ca1
412
5e3
5e1
000
340
4c2
5d0
b11
802
471
c23
01f
351
2d3
01f
bb1
d32
cb1
7f1
7f3
3f3
7f1
492
c93
801
742
d00
661
2d3
c61
d41
462
ca3
481
d30
c03
000
413
341
342
a93
7f0
801
803
3e1
2f2
d01
4f2
c13
301
412
413
340
b02
350
c70
ca0
802
353
01f
311
5f3
540
761
303
600
d11
c22
310
2e2
c71
7f2
d20
451
2d3
621
5d2
443
ce1
000
7f3
cc1
4d3
350
7a1
462
683
371
541
5e2
371
332
480
2e0
c71
cf0
461
4f2
423
391
c21
bf2
c13
8c1
bb1
723
b10
6d2
af3
381
cd1
c83
5a0
800
5f2
803
471
682
000
4d0
733
3c1
a02
950
921
7f2
860
01f
ce2
b93
c30
4c1
c52
a20
881
402
c00
323
c11
482
543
2f0
3d1
7f3
7f0
4e2
4a2
390
c70
a02
4a1
722
4d1
3d2
d23
000
351
302
343
b10
801
d02
a72
573
bb3
af3
7f2
ad0
3f2
323
801
381
a12
a43
d23
311
01f
d30
342
3d3
01f
01f
312
01f
c90
bb1
2e3
9c0
802
000
2e3
b80
cd1
692
300
392
01f
2f0
401
4d2
4b0
511
682
3c3
cb1
431
4d3
5d0
3b1
313
01f
550
2c1
492
be3
01f
c20
aa2
493
c90
01f
2d3
01f
5d1
513
d11
4a3
9d0
802
b53
000
332
b13
6d0
651
b52
7f3
440
ab2
803
422
01f
4b2
453
01f
3e1
492
b91
01f
9e1
c72
d13
2f3
c90
531
452
503
01f
312
333
d40
3f3
01f
c81
623
01f
7f0
4a1
802
533
000
cd2
543
a32
803
a21
2c3
3e0
483
8f0
352
3a0
801
b92
c03
380
cc3
01f
b91
512
403
322
6a0
2f1
01f
a40
d31
a32
903
351
ce2
463
01f
4e0
801
d40
cc3
c50
841
452
2f3
000
5e0
7f0
b51
c23
01f
01f
cf0
c02
433
471
4e2
b83
ba0
b00
ca2
d13
551
943
01f
911
382
d31
d32
3b3
340
301
323
01f
c82
bf3
5a1
cc2
a81
b53
9f0
6a1
7f2
9b3
000
732
801
7f2
b13
cd0
491
803
662
aa3
b10
d01
642
803
470
c33
4f0
d11
7f3
8b0
3e1
d42
c93
440
2d2
573
01f
c51
2f3
3a0
ca3
3d0
9b3
c20
a13
522
c33
572
7f3
810
3c1
802
ca3
000
302
3f3
2c0
951
a60
b21
381
9e0
c80
be1
913
be1
a10
c43
951
3d2
381
d02
a51
3b2
c51
2f2
2c3
471
ce2
01f
d20
d01
b72
c23
b81
343
3f0
542
803
000
851
5a1
cf3
3f0
01f
01f
3e3
d43
360
ab1
ce2
bc0
320
520
c63
01f
523
d33
01f
01f
01f
741
c42
cc2
570
701
312
303
000
410
bf3
7f0
3c0
803
402
9e3
772
d43
750
8d3
320
c02
cb3
cc1
802
753
d10
4c2
803
d22
01f
453
802
350
4c3
d12
ad3
452
c33
01f
c10
800
641
702
9c3
000
480
821
553
7f0
7f2
ce3
550
2f1
2c3
323
610
382
900
b03
480
cb2
400
a41
4d1
393
01f
2c0
3a1
01f
482
d40
d43
2c1
320
d03
c60
4d1
963
560
ca0
541
422
af3
000
a91
480
be1
312
7f3
400
cd3
360
9a1
3f3
4d0
d00
b11
642
4e3
ce2
cf1
8a2
01f
571
ce3
ae0
c13
a41
b61
342
4f3
4e1
3a0
a61
303
01f
01f
5d0
561
a40
c41
7b3
000
420
2f1
c11
b62
7f3
ba0
2f2
333
310
313
4d0
6b2
303
01f
01f
452
502
d00
450
551
b23
c53
800
c12
5a3
2c1
01f
3f0
01f
d10
611
be2
343
4c2
800
6a1
000
350
801
463
372
941
a42
4d3
c21
cb3
01f
01f
cf0
d11
792
803
a81
d32
353
01f
340
341
802
01f
c30
602
af3
c21
3f1
01f
c01
562
bd3
d00
7f1
b13
7f1
802
000
cb0
2f1
953
500
bc1
7f2
b23
3f0
6f1
2e2
bc3
330
301
b00
621
c12
c43
6f0
b01
9f2
390
363
801
c52
900
5b1
a23
ad2
611
c02
ce0
3c2
570
801
323
372
573
311
350
af2
bc0
401
9b3
000
431
7f1
7f3
870
502
01f
2f0
361
7f2
7a0
343
d22
6d0
731
6a3
3d2
d21
b00
8f3
01f
7d0
4f1
312
c82
2d0
323
321
610
791
572
442
b60
912
8e3
000
470
481
01f
802
c52
321
550
3a2
3b3
2f3
7f0
3f1
802
300
01f
c50
ba2
6d3
2d2
6f0
602
b53
d41
3c2
352
01f
d01
b60
563
361
940
921
000
bd3
cd0
8f1
cf2
983
b93
361
350
450
801
b02
01f
672
440
302
ca0
311
2d3
2e1
3b1
4e1
443
d20
373
c41
362
343
01f
861
522
492
bc0
000
490
bd1
800
801
640
bf2
2f0
2e1
983
7f0
801
800
321
800
801
a42
3c3
630
ac1
c83
01f
360
cd3
d41
a70
451
632
d01
d30
01f
321
c21
563
342
000
360
aa2
7f0
5d1
cf2
a23
d12
b93
01f
3d0
a81
903
2c0
cc1
cc2
c33
2c0
7f0
c32
801
01f
400
bb1
4d2
cb2
7f0
411
c52
2c3
d32
01f
cf3
01f
320
4f3
01f
8e1
412
000
630
ad2
6a3
c61
d32
353
461
322
3a3
5c0
393
800
2e2
01f
800
5b2
620
2c3
320
cd1
3d2
331
ca0
521
d22
7f3
01f
d11
01f
d41
d23
bd0
c42
a93
01f
541
493
000
800
a91
393
620
3f1
663
ad2
3a1
5d2
ce3
720
571
7f3
01f
800
7f2
400
4d1
300
591
01f
350
8b1
7f2
673
300
d22
2f0
01f
ca0
d32
d33
750
01f
770
7f1
862
000
