09c0
07e3
1724
0fe5
1606
0de8
1489
088a
15cb
088d
1810
0812
1975
18f6
16d8
1001
1542
1003
1984
16c8
19a9
070b
0a2c
116e
18ef
06d1
0b52
13b5
1376
1838
0fe0
0901
0ec5
0c26
16a7
0989
0d4a
11cc
184d
0c8e
0a10
19d1
0633
0718
1501
19c5
14e8
1549
09cc
18ed
16ae
06cf
0830
06d1
0c55
1981
08a5
1587
1448
0c0a
142c
0bce
1010
1591
0bf3
1415
1016
1957
0778
06a1
0b62
09c3
0a84
1005
1366
09c7
0fe8
0fe9
156a
114b
136c
0dae
19f0
1852
1661
12e2
1963
16a6
1007
1008
1969
180b
170c
178f
08b0
0ad1
0a12
05f3
13d4
1415
1776
19b7
19f8
0a40
0b02
0663
1985
0747
134c
1930
1551
17b3
18d5
0000
