861
952
c01
393
800
af1
843
802
803
800
8f1
423
390
8a1
962
983
8d0
b02
8f3
801
a60
661
940
581
bd2
963
a40
8a1
470
802
6d0
4f2
c51
803
801
632
452
7c3
910
802
803
c61
632
923
be0
b43
5e0
941
802
01f
000
b10
800
803
550
491
562
433
01f
b83
c21
c72
803
811
803
980
841
bf2
9a0
541
802
4b1
3b2
803
801
492
521
c52
803
802
563
01f
961
431
472
803
791
b03
3c0
511
8d2
3c3
01f
01f
000
450
520
a71
01f
01f
a31
4f0
5c0
c00
3f1
800
801
800
3e1
8d0
870
a01
01f
b50
801
800
801
01f
b61
800
bd1
01f
01f
000
01f
800
802
a13
c51
01f
01f
01f
a90
b01
942
803
800
3d2
803
9b3
800
432
4a0
be1
c60
b22
803
3a0
c02
803
3e0
3c2
01f
980
c41
7f2
813
a03
9d0
8d1
802
01f
01f
000
800
981
802
4f0
801
b92
903
b30
800
412
01f
980
b41
802
5b1
4b0
af0
9c1
803
800
461
800
802
5a3
6b0
801
942
803
8a0
800
a41
832
01f
801
9c2
620
a02
c23
9b0
802
5b3
9c0
431
a42
8a0
b91
bf2
c50
000
01f
3f0
4d1
ad0
801
01f
9f0
c11
740
9f1
a90
a00
b71
a70
01f
a31
6f0
01f
01f
800
01f
01f
01f
01f
000
972
410
413
c60
821
862
ac1
ab3
a11
432
443
a90
c33
c72
490
8f0
ad1
b02
973
800
ad2
403
ae0
6f1
800
4d3
01f
01f
801
802
9f0
803
a00
452
c60
800
b01
423
800
801
a32
bf3
000
803
8d0
8e2
812
883
a80
803
bb0
801
bb2
393
a10
ba1
c52
01f
01f
a50
801
872
803
800
551
c42
a83
9c3
801
01f
01f
3c0
961
4d2
390
bb1
3a2
c23
8a0
c51
bb3
551
802
4e0
802
413
a42
803
a60
a61
392
c33
000
801
800
640
3d0
01f
01f
9c1
c70
01f
670
bc1
a10
801
5f0
01f
01f
8a0
4e1
a50
441
800
551
890
391
6d1
3a1
000
a70
402
8a3
901
3a3
c70
802
883
be3
811
803
800
be1
442
5e3
ba1
912
4d0
9f2
623
440
801
940
4c1
a52
990
701
802
bd0
602
801
ac2
800
802
6c3
4e0
b32
8d3
800
ba1
482
9f3
872
4e2
b83
680
552
8f3
800
b21
9b2
b33
802
000
bd1
af3
803
a00
4d3
801
01f
9f0
941
be0
5b1
800
803
be0
a71
802
4f3
3b0
801
832
800
531
a20
800
522
983
852
bf1
503
3d0
bd1
802
4b3
800
a11
802
863
901
982
520
802
463
802
000
801
01f
450
ab1
01f
bb0
3a0
a31
800
9c1
b10
3c1
aa0
391
01f
9e0
c40
650
980
901
01f
01f
9c0
401
390
411
a50
000
