18e7
084b
182c
0a8d
07b3
1675
0981
1a02
06a4
09a5
0966
092c
0bb2
1815
1836
06c0
06c1
08a6
1568
1989
174a
0acb
076c
138d
09ce
0cb0
14d2
06d5
1842
0fe8
182b
192c
0892
1774
0bf6
092b
136d
06ef
0b10
1011
17b2
0c34
16b6
1917
1300
12e5
1526
0809
100c
100d
11ef
18b3
0875
0c96
0700
0661
1a02
1905
1666
14c7
11c8
0d29
070a
072b
08ec
0f2d
0f8e
18f2
0682
1563
1726
182a
100b
0c0d
100f
08b0
0b51
0e15
0678
0000
