001111010001
010110000010
001101000011
010110110000
011001100001
001101000011
101001100001
010101110001
010011100010
010001100011
000000010011
011100010001
010100100010
011011000000
101100010010
101101100000
101100010001
010001010010
010111000011
011000000010
000000010011
001011010010
010010000011
101100100001
001110110010
110010100000
101010110001
101011000011
001101010000
110000000010
100110010011
011110100000
010010000001
000000010011
000000000000
100011000000
101010110011
100011000000
110000110011
000000010011
110011010001
100010010010
011001100011
010101010001
011111110010
010000110011
001110100000
010000010001
010010110011
010110010000
010011110010
001111000011
001110100000
011111110001
001011110011
010000110000
010010100010
101100110011
011001110000
101011100001
001101100010
100101010011
110001110000
010110010010
100001010011
101100010000
010101100010
001111010000
100000000001
011100010011
001101100000
011011100010
101001010000
100000000001
011001000010
011111110011
000000000000
010011100000
110011110001
011111110011
101011110000
110010110001
110001010001
001100000010
011010010011
010111010001
011111110010
100000000000
110011100010
011111110011
110000000001
110010100010
010000000011
101111000000
011111110010
011111110011
011110000001
101101110011
010111100010
010101100011
100101110011
010000100000
110011000011
010010110001
101011010010
100011100011
100000000001
101010100010
001111100000
001100000010
101111010011
101100100000
100000000001
010110100010
101101000011
011011110010
000000000000
010011100000
011111110001
001011010010
010101100000
011001010001
011111110000
001011010001
100111100010
110011000011
011100110000
011111110010
100110110011
001101110001
100000000011
011111110000
010000000010
001110000011
110001000001
100000000010
110011010011
011111110000
011101000001
100000000011
100101110000
001011110001
010001100010
110100000001
010011100010
011101000011
110001100000
011000010001
110011110010
110001000011
100000000000
011111000001
011111110010
011111110011
010001110001
011111110010
011111000011
010000000000
101111110010
010101100011
000000000000
101101100010
100000000000
011000010001
100000010010
101000000000
100000000010
001111000011
101101100000
001011010010
100101000000
010101000010
110010000011
010100100001
001100000011
001110010000
001011100001
010011100000
011111110001
010110110000
011001110010
110010010011
001110000010
100110000010
101111110011
010010010000
001101000001
110000000010
100010000011
011111110000
100111110001
010110000011
001101110000
100000000001
100000000010
100000000011
110001100000
101001010010
100000000001
110100000010
010000010011
000000000000
011001100010
110100010011
011011100000
001011010001
010100010010
011111110000
011011100001
011111110010
100000000011
011111110000
100000000011
110100110000
101001110001
011111110010
011111110000
100000000010
100000000011
011111110000
010111100001
100001110001
101110000010
010111010011
110011110001
101100110010
110100110000
110100010001
100101010010
101110110000
011111110001
101010100000
110100100010
011000110011
100000000000
010110100010
011111110011
011000010010
001111110011
001111010001
001111000010
011000010000
100010110001
110100110010
010110000011
000000000000
010101100000
101000110001
010000110010
101100000011
001110100000
011111110011
011111110000
101101100001
101100110010
001011110011
100000000001
011010110010
010000100011
110000110001
110001110011
101100000000
011111110011
110011110000
101000010001
011010100010
001111110011
110100000000
011111110001
010011000010
101001110000
001111000001
011100100010
010110110011
010100010000
001101100010
011111110000
010111000001
101011100010
011111110000
100110000011
011111110001
010110100010
001100110011
011111110000
010011000000
101101100000
010001110001
101111010010
000000000000
101111000000
101101110001
010100000011
011111110000
101001100001
100100000000
100000000001
010011000001
010110110010
110000100011
010011000000
010010010011
011111100011
100000000000
011011010001
110010000010
101111010011
110010110000
011011010001
001100100011
010101000000
110000110011
010101100000
011101110001
101011100010
101100110011
011111110000
010101110001
101111010011
100100000000
010111000010
110010010011
011111110001
010011100011
010010010001
010101000011
010001100000
010011110001
010111110010
000000000000
100110000000
100101000000
101010100001
011101010000
010111010000
100011000010
110011110000
001100010010
001101110011
010001000000
101110100001
110010010011
010000010010
011011110011
010101010000
011000110001
110010100010
100000000011
010001100000
010110100001
010010000000
101011100001
011111110010
110100010011
011101100000
100100000001
010110010010
011110110011
010011110001
110011000011
010101100010
011111110011
000000010011
101100110001
011101100010
000000000000
100000000010
100000000000
010011010001
011010000011
100000000000
001111110001
011111110010
001100100011
011000000000
011111110001
011111110010
100100100011
010010100010
011111110011
110010100000
110000010010
001111110011
011111110000
001100110001
011111110010
011100010011
100101110000
110100000001
001110100010
001110100000
100000000001
100101000010
011101100011
010000110000
011111110001
010010100010
001111110011
100000000000
010010000001
100000000010
010110110011
101110100000
100000000010
100111110011
010001100000
100000000010
100000000011
101111000000
001101100010
110001010000
110010000001
100000000010
110001000011
000000000000
110001110001
110000110010
010000000011
101011100001
001110010010
011010010011
101101100000
001100110010
010100010011
011111110001
101111000011
110010010000
100011110010
110011100011
110011110000
100000000010
010001110001
101101000010
101011000011
100101000000
011111110001
101100110010
101111110000
100001010010
010100010000
011001100001
101000100010
101101100001
010000100011
100111100001
011100110011
101111100010
100110100001
011001110010
011111110000
101110010010
010011100000
010011000001
110011000010
001111110011
000000000000
011101110000
011100000001
011111110010
010011100000
011111110001
011000100010
100000000011
011111110000
011100000001
110011110011
110011010001
010001110010
011111110000
011001000001
010100100010
001110010000
011111110001
101011010010
101001100011
011111110000
101111010001
011101000010
010001100011
001111000001
010010110010
010000010000
011010010001
011111110001
101111010010
011001110000
010010010010
101000100000
010110110001
011111110010
011111110011
101011100000
011111110001
011100100010
010010000011
110011110000
011000010010
011100110011
010111110000
010101010001
001011100011
000000000000
110001010001
010011110010
001100010000
100010000000
011001100001
001011110010
001101000001
100111100010
101101010011
010011100001
010011000001
110001110000
011011100001
101110100011
101011000011
101001100000
011101000001
001100100011
101010000000
011110100011
000000010011
101011110011
001100000010
011111110011
011000110011
000000010011
001011100010
101010010011
000000000000
101101000000
001011110001
110100100010
110000110000
110100110000
010100110001
100100110010
100101100000
011100100001
100000010011
100101000001
100000000010
110011100011
011001000000
010001000010
001111000000
010100100011
011001000001
010111010011
011111110000
110011000011
011111110000
110100110001
101001110010
010000110011
100111010010
010000010011
100011110000
011100010001
101001110010
010011010000
101111110010
010011010000
001110100010
100111110011
101111110001
110100010010
110001110011
110011110000
011110100001
110001010011
000000000000
110100110000
101111100001
101011110010
011011010011
101011000000
011000010010
011111110011
000000010011
010110110000
101111010001
011110100010
101110010001
011111110011
011111110000
110000100001
011111110010
011111110000
011101110011
010111100000
001111010011
011111110000
100111110010
011111110000
100000000001
100011110010
100000000011
001100110000
011111110010
001011110011
011111110001
010011110011
100000000000
010110000001
011111110010
100000000000
011111110001
010111010010
101100110011
100000000000
011100100001
010101100010
101000100011
010010000000
011111110001
100011100011
000000000000
101110100000
110000000001
001100000000
011010000001
101101010010
101111100011
110011110010
011110100011
110000000010
110000110011
110001110000
100000000010
110100010011
010000100000
011111000001
001110100000
011111110001
101100010010
100000000000
001111000010
110011010011
010101010001
101101000010
001100010011
110010000000
011101100011
010010010000
100000000001
011111110000
110011100001
101100010000
100000000001
110010000010
001111110011
100111010000
100000000001
101011100000
100001000001
010010100010
000000000000
