110010010001
101011110010
110001010001
010011100010
010000110011
110000000001
100000000010
101010000000
100001100001
010010100010
110001110011
011010110001
010110100011
100110000001
101110010010
110000110001
011000010011
010101100000
001101000010
101110010011
101101010000
001101010001
011011110011
011110000010
010000110000
011000100001
110011110010
001100000011
011001010000
011100110010
110100000011
100101100000
011000000001
001100000011
010101000000
101101100010
010011110000
100110110010
001101110000
011001100001
101100100010
001011010011
000000000000
101000010000
110001110011
011100010000
011111110010
011111110011
001101000000
011111110001
011111110011
010110100001
011001000000
100000000010
001101010000
001111000001
110001110010
011000110011
101011000001
100000000010
001100010011
110000100000
011000100001
011100000000
011000000001
001101100011
110100000000
101111110010
010100010001
011111110001
101110100011
001110110000
101011100001
001101100010
101000000011
100000000000
100100010001
010001110011
001111010000
011111110010
011111110000
011100110010
000000000000
100000000000
010011000010
100000000011
110011100000
001111010001
011111110001
110000110010
100001100001
011111010010
001100100011
100111000001
010010000010
010011000011
101110000000
110011110001
101110000010
010010010011
001111100000
100101100010
001100010011
011111110000
100010100010
110010010011
011111110000
101010000011
001101010000
101000100001
100000000010
100110100011
110000010001
100000000010
110010110011
100011010000
011110010001
001100100011
011000010000
011000010010
010010110000
100011100001
011010110010
000000010011
101011000000
011111110010
001101100011
000000000000
011011110010
001100110011
001011100000
011111110001
010000000010
011111110011
110010110000
011111110001
010111000011
100000000000
100000000001
101011000010
101101100011
010000010000
010000000001
011000100010
011111110011
011111110001
010010110001
101011110010
100000000011
100011010001
010101110011
100111000000
001111010010
011100000000
001111110001
011001100010
101000110011
110010010000
001101100001
010100110010
101111000011
100111010001
011001110010
101000110011
011000100000
101111100001
010111110010
010000110011
001100010001
010110000010
101011000000
100101100001
100101100010
101011110011
000000000000
100011110000
001101010001
011100110001
001110000010
100000000000
010100000011
101010100000
010000000001
110011010010
011100110000
101101010001
001101000010
100000000001
110010100010
001101100000
010110110010
011111110011
011111110011
011111110000
100101110001
110100110001
100000000010
110010000011
100000000010
011111110011
011111110001
011111110011
011111110000
110001100001
011110010010
101000100000
011111110010
101100000011
110100100000
001101110010
001101000011
001101000000
011111110010
011000010011
000000000000
010000010000
011111110010
010000100011
001110000010
001110100011
011110100000
001101010001
110010110010
001111100000
010101010010
101110100011
011001000001
001110010010
110011010011
010110000001
001100110010
001111110011
100101000000
100001110001
101100000010
100100000011
100000000000
100101000001
001011110010
001101000001
100001010010
010101010011
010110000000
010000110010
010001000000
011111110010
101010000000
110100000010
100110110011
110100100001
100011100011
011010000000
011111110010
101001100011
010010000001
011111110010
011111110011
001100000000
001111100010
000000000000
100000000000
011111110001
011111110010
010100100011
011111110001
100000000011
100000000001
101010000010
100000000011
001110110000
100000010001
101111010010
101101000010
001110110011
110001000011
110001000000
100011100001
001101010010
100000000011
110001100001
010111100011
010100110000
101101100001
011000000000
010000100001
011110000010
011100110011
101100100010
001100010000
101110110001
100100110000
100000000001
010000000011
100101100000
100000000001
100000000010
011111110011
100000000010
101101110001
000000000000
011111110001
110010100010
010011110011
011111110001
100100000001
001011010010
010010000011
000000010011
011001100000
110011000001
110001010010
011011010011
010000000000
101001010001
101111100010
100010100011
001101000000
100000000001
110001000001
110100010011
100000000000
110011000001
110001010010
011011000011
010000010000
110011100001
001101010000
100000000001
010000110001
110100010011
010101010000
101111100011
010011110000
110001100010
100000000000
001110110001
101010110010
010011010011
100010110010
000000000000
101101010000
011011100010
011111110011
011010010000
011010010010
110100110011
011111110001
101101010010
110010000000
101101100001
110010010010
100101100011
101100100001
110000010000
010010100010
100000000010
010110110001
101001010011
100000000000
010011010001
101111100010
010110000001
010100110010
010001000000
100000100001
100000000010
001111110001
001110000010
010100010011
100000000000
011111110000
011110010001
101111110010
010101100011
011010110000
101100110010
101100010011
011111110000
001100110001
010001010010
000000000000
011111110010
100001110011
010100010010
010001100000
100100110001
011111110000
101110010001
101000000010
011111110011
011101100001
011100100010
011100000011
101010100000
001100010000
011111110010
100101110011
010010110000
101000010001
101111010001
001110000010
011111110011
011001100000
100010100001
011000100011
110000100000
110000010001
100101000010
100011110011
110100010001
010111000010
001100010011
010000110000
100110010001
101100100010
100100100001
011001010010
110001110011
010110000000
011111010001
101010110010
001100110011
100111110000
011110100011
000000000000
010011010000
110000110001
010011010011
010110000000
011110010000
101100000001
011011100010
011100110011
011111110000
101001110010
011110010011
100010010000
010110110010
001101010000
010010010011
011111110010
011011010000
100011000001
011111110010
011111110011
011000010000
100101100001
100111010001
001110000010
001111010011
001011010000
010000010001
101001100010
001100010011
001101100011
001110100000
101010110001
011111110010
010000100011
010000110000
101111000001
101111100011
010101000000
011100110001
010000000010
011110100010
000000000000
010010110001
101111010010
011000100011
010110010000
101100100001
010110000010
011111110011
010000100000
011111110001
001100110010
010010000011
011001000001
001100100011
110100100000
011000100001
100000000000
011110000001
011111110010
011111110001
101011100010
010110110011
101100000000
100000000000
001111100010
001111010000
011100010001
011111110010
100100000000
100000000001
110001100010
101111100011
011100000001
010001100010
011110100011
110001010000
011111110010
010100010000
010110000001
001101000011
100111100000
100101000010
110010010011
000000000000
010101100000
011000100001
110010100010
001110110001
010001000010
110000100011
010001000000
100111110001
100000110010
001110010011
101001010000
101101010001
010000100010
100100000011
010010010010
101101110011
110100110000
110010010010
001111100011
011111110000
010100010010
001100100000
001011110000
010101110010
110010010011
011110100000
110010010001
011100100001
100000000011
101001000001
101100110011
011001100000
011111110001
100101010011
101111110000
011111110001
010001000010
010010110011
011111110001
110100110010
010100110011
000000000000
010010010001
011010100010
101110000001
101001100010
010111000000
001100100001
001011100010
001110110011
110000000000
010011010001
011111110010
110010100011
011110110000
101100110001
001111010011
011111110000
110010010001
011011110010
011111110000
011101110011
110000000000
110001000001
011100110011
101101000001
100000000010
100001010011
100110000000
001100010010
110011100000
011001010001
001100110010
011000010001
110001110010
101110000000
010100010001
101010110010
001101000001
101010010010
110010100011
001011100000
110000110001
010000110010
010100110011
000000000000
110001110001
000000010011
011001100000
010011100010
101101110011
100000000001
001110000011
011000000000
010011000010
011111110000
010110110001
010100000011
011000110000
100111010011
001111110010
100000000000
101011100001
001011100011
011101010000
100000000010
011110110000
101111010001
101001100010
010100100011
101101000000
101011010001
010000010010
101110000001
101111110010
110100100000
101100110010
001100010011
110010000000
101101100001
110011010010
011111110011
100000000000
011111110001
101110000010
001100010011
000000000000
110100000000
011111110010
001101100011
110011010000
001110100010
011011010000
001100110010
100011000001
011111110011
000000010011
001110010010
010111000011
010010100001
100000000010
101101010001
001110110001
011111110010
011011110011
010000100000
011011000001
011111110010
010000100011
100110110000
011100100001
101101010010
100001100011
011001110001
101110100010
011111110010
001110110010
100011110001
011011100010
100000000001
000000000000
