0fe1
0ce2
0a8d
07d8
0e00
0643
0624
17aa
100b
192c
12cd
100e
174f
1977
06a6
0ba7
0968
16a9
06ea
086b
09ac
100e
1311
1012
1733
1974
1956
18b7
1438
1800
0721
0fe2
0ce3
11e4
0786
18c7
1569
0a8a
19d1
1760
0605
0868
0a29
100f
1650
1011
12f2
1734
07d7
07b8
05e2
09e6
0a47
12f0
1872
17b7
190b
0791
07d4
0ff5
0c43
0864
1527
146c
0c6e
18cf
17d0
1451
0792
0953
1494
10b5
1736
14d7
0bd8
0000
