0701
0ea2
1004
0e27
09e8
1009
1a0a
19d1
1857
1998
08a0
0681
0d06
0647
162a
0721
0fe2
1004
0b27
1548
12a9
08eb
192d
1172
12d3
1697
1958
15a0
0bc2
1984
1005
1006
1449
13ad
17ee
1541
0662
14c3
1244
07c5
08e6
176f
1950
17d1
18d2
12f3
1955
1843
1004
07a6
0607
0b68
15aa
0aed
14d0
19f1
05f4
1915
18f6
1017
1418
1a00
1005
1006
18e8
19c9
100a
100b
186c
17ad
192e
09af
1a30
1831
0a54
06d5
0b60
0883
0f48
188b
132c
08ed
078e
196f
1890
1391
0ff2
0ff3
1014
17b5
1836
06b7
0838
0000
