0000000000001110
0000000000011101
0000000000101110
0000000000111111
0000000001001010
0000000001011001
0000000000000000
0000111011000000
0000111001000001
0000101110100010
0000101100100011
0000111100100110
0000110111000111
0000111111101001
0001001110101010
0001000000001111
0001000000010000
0001000000010001
0001001101110110
0001000101010111
0001011001011000
0001010100000010
0001000000000011
0000111001000101
0001010100100111
0001001101101000
0001000000001001
0000111111101011
0001010101001101
0001011101001110
0000111111110000
0000111111110001
0000101111110101
0000110101010110
0000111100010111
0000100011011000
0000101110000010
0000111111100011
0000101010000100
0000111001101000
0000101111101001
0001010000101010
0001011100101011
0001001110001100
0000110100101101
0000100010101110
0001001000101111
0001011100010000
0000111100010011
0001000000010100
0001001110010101
0001000000010110
0000110110011000
0000100100100001
0000111010100010
0000111111100011
0000110001100100
0000111001100110
0000111111100111
0000111111101010
0000101101001011
0001000011101101
0001011001101110
0000101011101111
0001000000010001
0001000000010010
0001010100110011
0000101000010100
0001001110010101
0001000010010110
0001000111000101
0000101101101001
0001000101101010
0000110101001100
0000100111101111
0000111111110000
0000101010110001
0000100110010101
0000101111010110
0001001010110111
0001011001011000
0001000000000000
0000101110100011
0001000000000100
0001000000000101
0000111111100111
0000100101001000
0000100111101011
0000101000101100
0000110010001101
0001010101001110
0000111111010010
0000101010110011
0001011101110101
0001011001110110
0001011000010111
0000000000000000
0000000000010101
0000000000100111
0000000000110011
0000000001000101
0000000001010011
0000000001100000
0000000001101111
0000000001111111
0000000000000000
0000000000001100
0000000000010110
0000000000100000
0000000000101101
0000000000110110
0000000001001001
0000000001010100
0000000001011011
0000000000000000
0000000000001111
0000000000011110
0000000000101100
0000000000110111
0000000001000101
0000000001010100
0000000001100111
0000000001110001
0000000000000000
0000000000001111
0000000000011111
0000000000101101
0000000000111101
0000000001000111
0000000001010111
0000000001100100
0000000001110100
0000000000000000
0000000000000110
0000000000001100
0000000000010110
0000000000011110
0000000000101000
0000000000110110
0000000001000001
0000000001001101
0000000000000000
0000000000000110
0000000000001111
0000000000011100
0000000000100011
0000000000101100
0000000000110110
0000000001000100
0000000001001111
0000000000000000
0001000000000000
0001001010000001
0001000000000010
0001001001100011
0001100000100100
0001000000000101
0001000000000110
0001000000000111
0001000000001000
0001000000001001
0001000000001010
0001000000001011
0001000000001100
0001000000001101
0001000000001110
0000101110010010
0000011110110100
0000111011010101
0000111001010110
0000011101010111
0000100011111000
0001001101100000
0001001011000001
0001000001000010
0001011100000011
0001100111100101
0001010101100111
0001000000001000
0000011110101001
0000011101001010
0000100010101011
0000101001001100
0001011101001111
0000111010110001
0000111111110010
0000110100010011
0001001011110100
0000101100110111
0000011011111000
0001011110000000
0001000000000001
0001000000000101
0001000000000110
0001000100100111
0000100000001001
0001010100001100
0001001111001101
0001100101101111
0001011101110001
0001011110010100
0001100010110111
0001100110000000
0001001100100001
0001011110100010
0001000100100011
0001000000000100
0001000000000111
0001000000001000
0001000000001001
0000101001001010
0001001101101100
0001000000001101
0001001010010000
0001000000010001
0001011010010010
0001001001010100
0001000000010101
0001010010010110
0001100110110111
0001010010100000
0001001100100010
0001011010100101
0001000111100110
0001010110001011
0000011100101101
0001000000001111
0001000101110000
0000011111010010
0001001010110100
0001000011110101
0001000000010110
0001011101010111
0000100101111000
0000101001100100
0001100010000101
0000111111100111
0000111111101000
0000110100001001
0000101000001010
0000110011001110
0000100000001111
0001010000110010
0001001100010011
0001001110110100
0000100110010110
0000100110010111
0001100101000011
0001000000000110
0001000000000111
0001000110001000
0001011101001001
0000111111101010
0000110100101011
0000011111101110
0000100111001111
0000101100010000
0000110101110001
0000111110010010
0000110110110011
0001011100110101
0001010010010110
0001100100100000
0000111010000010
0001010010100100
0000011011100101
0001101000100111
0001000000001000
0001000110001001
0001000000001011
0001000000001100
0001011011101101
0001000000001110
0001000000010000
0001010111010001
0001011110010011
0001100100110100
0001100001110101
0000000000000000
0001011011000010
0001011000000011
0000011100100100
0000111011100110
0001011101101000
0000011110101001
0001100011001100
0001100011101101
0000100010101111
0000011001010001
0001000100010111
0001000100111000
0000100011000101
0000011111000110
0000100000000111
0001010110001001
0001011010101010
0000101100101101
0000100011101110
0001100011101111
0001010101110000
0001011100010111
0001000000000000
0000011001100010
0001100110100100
0001000000000101
0000101010100111
0001011000101001
0001000000001010
0000110000001100
0001000000001111
0000100110010110
0000011111100000
0000011000100100
0000011111100101
0000100110000110
0000100101001001
0000011111101010
0000100100001101
0001010110101111
0001010101110000
0001100110010010
0000100011010011
0001010001110100
0001000011010101
0001011001100100
0001100010001001
0001011111101010
0001100001101101
0000110010110000
0001100000010010
0000011101110100
0000100110110101
0001010001011000
0001011101000000
0001010001000001
0000110111100011
0000101000100100
0000100011000101
0000100000100110
0001010000100111
0001001110001000
0001000000001010
0000110101101100
0001011011101101
0001000000001110
0000110000110000
0000110111010001
0000101010110010
0000110110110100
0000011100110101
0000100111110110
0000011010010111
0001000111000010
0001000000000011
0000100111001000
0000101110001001
0001100110001110
0001100110001111
0001100111010000
0001010000110001
0001010110010010
0001011111110011
0000110001110111
0001100000000000
0001000000000001
0000011000000011
0000100101000100
0001100001101011
0001100000010010
0001100000110110
0000000000000000
0000100111000000
0000011111100011
0001011100100100
0000111111100101
0001011000000110
0000110111101000
0001010010001001
0000100010001010
0001010111001011
0000100010001101
0001100000010000
0000100000010010
0001100101110101
0001100011110110
0001011011011000
0001000000000001
0001010101000010
0001000000000011
0001100110000100
0001011011001000
0001100110101001
0000011100001011
0000101000101100
0001000101101110
0001100011101111
0000011011010001
0000101101010010
0001001110110101
0001001101110110
0001100000111000
0000111111100000
0000100100000001
0000111011000101
0000110000100110
0001011010100111
0000100110001001
0000110101001010
0001000111001100
0001100001001101
0000110010001110
0000101000010000
0001100111010001
0000011000110011
0000011100011000
0001010100000001
0001100111000101
0001010011101000
0001010101001001
0000100111001100
0001100011101101
0001011010101110
0000011011001111
0000100000110000
0000011011010001
0000110001010101
0001100110000001
0000100010100101
0001010110000111
0001010001001000
0000110000001010
0001010000101100
0000101111001110
0001000000010000
0001010110010001
0000101111110011
0001010000010101
0001000000010110
0001100101010111
0000011101111000
0000011010100001
0000101101100010
0000100111000011
0000101010000100
0001000000000101
0001001101100110
0000100111000111
0000111111101000
0000111111101001
0001010101101010
0001000101001011
0001001101101100
0000110110101110
0001100111110000
0001100001010010
0001011001100001
0001001011100010
0001100101100011
0001011010100110
0001000000000111
0001000000001000
0001100101101001
0001100000001011
0001011100001100
0001011110001111
0000100010110000
0000101011010001
0000101000010010
0000010111110011
0001001111010100
0001010000010101
0001011101110110
0001100110110111
0001100111111000
0000101001000000
0000101100000010
0000011001100011
0001100110000101
0000011101000111
0001001101001100
0001100100110000
0001010101010001
0001011110110011
0001100011010101
0000000000000000
0000011111100001
0000011000000010
0001100011000011
0000011111100100
0001001011100101
0000101001000110
0000100010000111
0001100010001000
0000111000101001
0001100110101010
0001100100101100
0001000000001101
0001010110101110
0001001000110000
0000011101111000
0000111111100001
0000100001000010
0000100111100011
0000011010100100
0001000000000110
0001000000000111
0000111111101001
0001011001001010
0001100111101100
0001001111101101
0001100100101110
0000011110101111
0001100111010011
0001010111010100
0001100110010101
0000011010010111
0001000000000000
0000011001000010
0000011001100011
0001000000000101
0001001111000110
0000100111100111
0000011111001000
0001011101001001
0001010110001011
0000110000001100
0001100111101110
0000011001110001
0001100000010010
0001011110111000
0001011110000000
0001001000000010
0001100101000011
0001000000000111
0001010001001000
0000100001101001
0000100111001010
0001000111101100
0000011011101101
0000110110001110
0001001111110000
0001100101110001
0000100010110010
0000011111110011
0001001001010100
0001101000010101
0001100110000101
0000101100100111
0000010111101001
0001011011001010
0000101000101011
0000110000001100
0000111111110000
0000110111110001
0001100110110111
0001010100111000
0001011101100000
0001010001100001
0001000000000010
0001010100100011
0000110101100100
0001001001000101
0001000000000110
0001011000100111
0001011110101000
0001011101101001
0001000000001011
0001000000001100
0001011101101101
0000011001110000
0000011110010101
0000111111110110
0000110000100010
0001011000100101
0001000000001001
0001011100001011
0001010000001100
0000011100101110
0000101001001111
0000101100110000
0000111100110001
0000101110010010
0000101001110011
0000101001110101
0001100110110111
0000011101100001
0000100001100010
0001000111000011
0001100100000100
0001100101000101
0001001111100111
0000110001101001
0001000110101011
0000011010101100
0000110100001101
0000101101101110
0000111111110001
0000111111110010
0000110010010101
0000110100010110
0001101000110111
0000000000000000
0000100101000100
0001011010000111
0000100111001001
0001101000101100
0000011110110010
0000011011010011
0000011001000000
0001100101001101
0001100001110000
0001011010110001
0001011111010010
0001100111110011
0001100111000000
0000011000100001
0000011000100010
0001000001000100
0000100001000111
0001010011101000
0001100110101001
0000100101101100
0001000100101101
0000011101001110
0001101000000001
0001100010000010
0000011000001100
0000011000001101
0001011101001111
0000100010010010
0001100111010011
0000100011010110
0000011101000110
0000011000100111
0000111111101011
0001100001101101
0000110111001111
0000101001010000
0001000000010001
0000011110110100
0001010001110110
0001011111010111
0001000000000000
0001010101100001
0001010111100110
0001101000100111
0001100001101000
0001000000001001
0001001111001010
0001011110001011
0001011101001100
0001010010001111
0000100111010000
0000111001110100
0000110101110101
0000110010110110
0001010000100010
0001000000000011
0001011010000100
0001011100100111
0000100110001001
0000101001101100
0000111111101101
0000011111101110
0001001110110001
0001010101110010
0001100000010100
0001011101100010
0001011011000011
0001010011000110
0000100010001001
0001000000001010
0000100110001011
0000011101001100
0000111111101101
0000101101010000
0000111000010001
0000011111010100
0000100001010101
0000000000000000
0001100011100111
0000100001001011
0001100000101100
0000101010001101
0000011110110011
0001011001110101
0000100110000001
0001101000000010
0000011010100100
0000100110100101
0000100101100110
0000100100101100
0000101110110010
0001100000010101
0001100000110110
0000011011000000
0000011011000001
0000100010100110
0001010101101000
0001100110001001
0001011101001010
0000101011001011
0000011101101100
0001001110001101
0000100111001110
0000110010110000
0001010011010010
0000011011010101
0001100001000010
0000111111101000
0001100000101011
0001100100101100
0000100010010010
0001011101110100
0000101111110110
0000100100101011
0001001101101101
0000011011101111
0000101100010000
0001000000010001
0001011110110010
0000110000110100
0001011010110110
0001100100010111
0001001100000000
0001001011100101
0001010100100110
0000100000001001
0001000000001100
0001000000001101
0001000111101111
0001100010110011
0000100001110101
0000110010010110
0000011100000000
0000011001100001
0001101000000010
0001100100000101
0001011001100110
0001010011000111
0001000111001000
0000110100101001
0000011100001010
0000011100101011
0000100011101100
0000111100101101
0000111110001110
0001100011110010
0000011010000010
0001010101100011
0001011100100110
0001100000101010
0001000000001011
0000110000001101
0001000000001111
0000100010110000
0000101101010001
0000111000010101
0000011001111000
0000000000000000
0000000000001011
0000000000011001
0000000000101000
0000000000110100
0000000001000001
0000000001001111
0000000001011111
0000000001101011
0000000000000000
0000000000001111
0000000000011110
0000000000100110
0000000000110101
0000000001000000
0000000001001001
0000000001010111
0000000001100001
0000000000000000
0000000000001010
0000000000001111
0000000000011011
0000000000100011
0000000000101111
0000000000111101
0000000001001100
0000000001011101
0000000000000000
0000000000001100
0000000000011000
0000000000100111
0000000000110100
0000000000111101
0000000001000101
0000000001001100
0000000001011010
0000000000000000
0000000000000101
0000000000010000
0000000000011101
0000000000100101
0000000000110010
0000000000111000
0000000000111010
0000000001000101
0000000000000000
0000000000000100
0000000000001110
0000000000011101
0000000000100111
0000000000110010
0000000000111000
0000000000111100
0000000001001011
0000000000000000
0000100101000001
0001000000000011
0001011010100100
0001000000001001
0001100110001010
0001001111001011
0001101000001100
0001100001001110
0001010001110011
0000100101010100
0000100000110110
0000100111000000
0000111111100101
0000111111100110
0000111111100111
0000110000101000
0000110111101001
0000100100101011
0000011001010000
0000100101010001
0001000011010011
0000010111110101
0000110000110110
0000011110110111
0001100000111000
0000011101000000
0001010001000010
0001000100000011
0001011011100100
0001000000000101
0001001111000110
0000111111101010
0000111111101011
0000110111101100
0000011010101101
0000111110001111
0000111010010000
0000010111110001
0001100111110111
0001100000111000
0001100000000000
0000110100100001
0000110000100010
0000100010100011
0001100001100101
0000101001000111
0000100001101000
0000110110101010
0001000000001100
0001001000001101
0000011110101111
0001011011010100
0001000000000000
0001001000100001
0001100010100010
0000011101101001
0000110101001010
0000111001101011
0000111111101100
0000111111101101
0001010000010010
0001000000010011
0001011110110101
0001011000110110
0000011101011000
0001011001100010
0001000000000011
0001011001100100
0000110111000101
0000011010100110
0001100111101010
0000100010001011
0000101011101100
0000101100101101
0001011100101111
0000010111110001
0000111111110010
0000110010110011
0000101011110100
0001011100100101
0000011100000110
0000100010100111
0000101011101000
0000110001001001
0001000100001010
0000110010001100
0000111111101101
0000111111101110
0000011010001111
0000100010110010
0000011111110011
0000100011010100
0000100110010101
0000011011110111
0000100100011000
0000100010100000
0000011001000001
0000011100000010
0001010011101001
0000011111001010
0001000000001110
0000110000101111
0001011110110001
0000100110010100
0001011000110101
0000011000010111
0000100100011000
0000000000000000
0001100011000001
0000101111000010
0000111111100011
0000101111000100
0001100000000101
0000111111101001
0001100010001100
0000011101001110
0001001100110001
0001000000010010
0001100110110011
0001100111010100
0001011001110110
0001011001010111
0001011011011000
0000011110100001
0000011001100011
0000011000100100
0001010010000101
0001010011100110
0001100001100111
0001010110001001
0001011110101010
0001010110001101
0001000000001110
0000111011010100
0000100011110101
0000100101010110
0000110011110111
0000100110111000
0000100011100011
0000011100000100
0001101000001000
0001000000001101
0001100111001110
0000100111101111
0001100110110010
0001011011110011
0001000000000001
0000100011000011
0000111111100101
0000101111100110
0001100110100111
0000111101101001
0000011010001010
0000111000101011
0000101101001100
0001101000101111
0000011111110001
0001101000110010
0001011000010100
0001011000110101
0001010001011000
0000011011000001
0000101011000111
0000011010001000
0001000000001010
0001001000101011
0001000000001100
0001000000001101
0001000000001110
0001010100010001
0001011110010010
0001100001010100
0000010111101000
0001100100101010
0001000000001011
0001000111101100
0000101111001110
0001011011010001
0001001100110010
0000100100110101
0001101000111000
0001100100100000
0001000110000001
0001100111000010
0001000000000100
0001000110100110
0000101011001010
0000011011101100
0000101110001111
0000101000110000
0000101001110001
0000100011010010
0000100101110011
0000100110010110
0000011100010111
0001100001100000
0001000000001000
0001100101101011
0001001001101100
0001000000001101
0001010010101111
0001000000010000
0001001111110001
0001010100010010
0001011010110111
0000000000000000
0000011100000001
0000111010100010
0001000000000100
0000111000100111
0000100111101000
0001000000001001
0001101000001010
0001100111010001
0001100001010111
0001100110011000
0000100010100000
0000011010000001
0000110100000110
0000011001000111
0001011000101010
0000011100100001
0000111111100010
0001000000000100
0000101100100111
0001010101001000
0001001010101001
0000100011101011
0001100100101101
0001000101110010
0001001011010011
0001011010010111
0001100101011000
0001010110100000
0000101111000010
0001100110000100
0001000000000101
0001000000000110
0001010001001001
0001001110101101
0001011111101110
0001010101000001
0000011001100010
0001010011000011
0001001001000100
0000011111000101
0000100011100110
0001011101101111
0001100101010000
0001011111010001
0001100011010010
0001001011110011
0001100101010101
0001100001000011
0001000000000100
0000011110100110
0000011000000111
0000101101101000
0001010110101010
0000101011101101
0001010011010000
0001100111110001
0000010111110100
0001100100010101
0001100011110110
0001000000010111
0001010000011000
0001101000000000
0001000000000101
0001000000000110
0001100011101000
0001100111001001
0001000000001010
0001000000001011
0001100001101100
0001011110101101
0001100100101110
0000100110101111
0001101000110000
0001100000110001
0000101001010100
0000011011010101
0000101101100000
0000100010000011
0000111101001000
0001100010001011
0001001100101100
0000100011101101
0000011110001110
0001100101101111
0001100010010000
0001001110010001
0000111111110010
0000111111110011
0001000000010100
0001011110110101
0001100000110110
0000011010110111
0000100000111000
0000000000000000
0001000000000010
0001000000000011
0001100101000111
0001000110001000
0001001101001001
0001011101101010
0001100000001110
0000011101010000
0000111111110001
0000011010010101
0000011000110111
0000011011011000
0001000000000000
0001000000000001
0001000000000010
0001010110000100
0000101101000110
0001011111001011
0001001111001111
0001011111010000
0001000000010011
0000100110010101
0001000101010111
0001001000111000
0001100011000001
0000110001100100
0001100110100101
0000110100000111
0000111111101000
0000111010001011
0000111111101100
0001011100001110
0001100011010010
0001000000010011
0001011000110100
0001011110110101
0001001111110110
0001001011110111
0001100011011000
0001011110100011
0001101000000100
0001100001000111
0001010100001000
0001011011101001
0001100000001010
0001000000001011
0001010100101100
0001011101001101
0000011101001111
0001100101010000
0000011111010011
0000101011110110
0001100100100110
0000100100101000
0000100010101001
0000101011101100
0000100111101101
0001010101101111
0001001101010010
0000100010010111
0000101101111000
0000100101100000
0001011110000010
0001011101100011
0001100110100101
0000011100101010
0000011101001011
0001100000101101
0001011011101110
0000011011000001
0000011000100101
0001011110101100
0001100011101101
0001001011001110
0001011100101111
0001100101110000
0000100100100001
0001010101100011
0001010111000100
0000110010000111
0001011110101001
0000110011001011
0001000000001101
0001011010001110
0000011010001111
0000010111110000
0001011110010001
0000011000010100
0000011011110110
0000011001110111
0000000000000000
0000011001000001
0000101000000111
0000011100110010
0000100000010011
0000011111011000
0001100001101000
0001011100101001
0001001001101010
0001011001101011
0001011111101100
0001000101101101
0001010111001110
0001100111110000
0001001101010010
0000101110110100
0000100100010101
0000011101100010
0000100100000110
0000111000000111
0000101110101000
0001011100101001
0000011010001011
0001000000001110
0001100110110000
0001000110010001
0001010010110010
0001001010110011
0001010111110110
0001000001111000
0001011101000011
0001010110000100
0001100000100101
0000011101100110
0000011010101111
0001100110110011
0000100000110101
0001100111111000
0000101011100100
0000101101001000
0001011111001010
0001100010001011
0001100011001100
0001000110101101
0001011110001110
0001000000001111
0001011010010000
0001001001010001
0000011111010010
0000101000110011
0000100000111000
0000101111000010
0000011001100011
0001011101101011
0001011100101100
0001100101101111
0001011001010001
0001010001101001
0000100100010001
0000011011000001
0001100111000111
0001001010001000
0001010011001100
0000100000101110
0001000000010000
0001101000110001
0000011010010011
0001100110010100
0001011110010110
0001100010111000
0000000000000000
0000111111100001
0000110011100010
0000101010001101
0000011111011000
0000111000000000
0000011001000011
0000011000100100
0001011110101010
0001000000001011
0001100100101100
0001001011001101
0001000000001110
0001011101001111
0001100101110111
0000011010100110
0000101110100111
0000100101101000
0001011010101001
0000011011101010
0000100001101011
0000100110101100
0001000000001110
0001001100010001
0001000000010010
0001011100110011
0001100101110100
0001100101010110
0001100010110111
0001010000111000
0001100000000000
0000011100100001
0000111111100010
0000110011100011
0001000111100100
0000011110000110
0001100011000111
0001010101101001
0000101010001010
0001100111010001
0001011101100000
0000011000000101
0000100001101000
0000101000101001
0001000000001111
0001011001010000
0001000000010001
0001001011110010
0001011100110100
0000011111010111
0000011110111000
0000010111100010
0000100111100110
0000101001000111
0001001011110000
0001100001110010
0001011110110111
0001100100001011
0000011110010001
0000011111010100
0000111111110101
0000110001000011
0000100001100100
0001010100100111
0001010001101100
0000110001101110
0001100011001111
0001011111010000
0001010001010001
0000011110010010
0000100101010011
0001010010010100
0001000010110101
0001011100110110
0001010011010111
0000101111011000
0000000000000000
0000000000000001
0000000000000011
0000000000000110
0000000000001001
0000000000001010
0000000000001011
0000000000001100
0000000000001110
0000000000001111
0000000000010010
0000000000010100
0000000000010110
0000000000010111
0000000000011001
0000000000011010
0000000000011011
0000000000000000
0000000000000100
0000000000000111
0000000000001000
0000000000001011
0000000000001100
0000000000001101
0000000000001111
0000000000010001
0000000000010011
0000000000010101
0000000000010110
0000000000011000
0000000000011010
0000000000011011
0000000000011101
0000000000011110
0000000000000000
0000000000000100
0000000000000110
0000000000001000
0000000000001011
0000000000001110
0000000000010000
0000000000010010
0000000000010101
0000000000010110
0000000000011000
0000000000011010
0000000000011100
0000000000011101
0000000000011110
0000000000100001
0000000000100100
0000000000000000
0000000000000001
0000000000000011
0000000000000100
0000000000000111
0000000000001001
0000000000001010
0000000000001011
0000000000001101
0000000000001111
0000000000010001
0000000000010010
0000000000010101
0000000000010111
0000000000011001
0000000000011100
0000000000011111
0000000000000000
0000000000000001
0000000000000101
0000000000000110
0000000000000111
0000000000001000
0000000000001001
0000000000001010
0000000000001101
0000000000001111
0000000000010000
0000000000010001
0000000000010010
0000000000010101
0000000000010111
0000000000011000
0000000000011001
0000000000000000
0000000000000010
0000000000000101
0000000000000110
0000000000001001
0000000000001100
0000000000001111
0000000000010000
0000000000010011
0000000000010110
0000000000010111
0000000000011011
0000000000011110
0000000000011111
0000000000100000
0000000000100010
0000000000100101
0000000000000000
0000000000000001
0000000000000010
0000000000000011
0000000000000101
0000000000000111
0000000000001011
0000000000001101
0000000000001111
0000000000010000
0000000000010001
0000000000010011
0000000000010101
0000000000010110
0000000000010111
0000000000011001
0000000000011011
0000000000000000
0000000000000001
0000000000000100
0000000000000101
0000000000000111
0000000000001010
0000000000001100
0000000000001101
0000000000001110
0000000000001111
0000000000010000
0000000000010010
0000000000010011
0000000000010101
0000000000010111
0000000000011000
0000000000011001
0000000000000000
0000000000000010
0000000000000100
0000000000000101
0000000000000110
0000000000000111
0000000000001000
0000000000001001
0000000000001010
0000000000001100
0000000000001101
0000000000001111
0000000000010010
0000000000010100
0000000000010101
0000000000011000
0000000000011100
0000000000000000
0000000000000011
0000000000000101
0000000000000111
0000000000001010
0000000000001101
0000000000001111
0000000000010001
0000000000010010
0000000000010011
0000000000010101
0000000000010110
0000000000011000
0000000000011010
0000000000011100
0000000000011110
0000000000100000
0000000000000000
0000000000000010
0000000000000100
0000000000000110
0000000000001001
0000000000001011
0000000000001100
0000000000001101
0000000000001111
0000000000010000
0000000000010100
0000000000010101
0000000000010111
0000000000011001
0000000000011010
0000000000011011
0000000000011100
0000000000000000
0000000000000100
0000000000000101
0000000000000111
0000000000001001
0000000000001010
0000000000001100
0000000000001101
0000000000010001
0000000000010010
0000000000010011
0000000000010100
0000000000010110
0000000000011001
0000000000011011
0000000000011101
0000000000011110
0000000000000000
0000000000000010
0000000000000100
0000000000000110
0000000000001000
0000000000001001
0000000000001011
0000000000001101
0000000000010001
0000000000010010
0000000000010101
0000000000010110
0000000000011000
0000000000011010
0000000000011011
0000000000011100
0000000000011101
0000000000000000
0000000000000010
0000000000000101
0000000000000111
0000000000001010
0000000000001011
0000000000001101
0000000000010000
0000000000010010
0000000000010110
0000000000011000
0000000000011100
0000000000100000
0000000000100011
0000000000100101
0000000000101000
0000000000101001
0000000000000000
0000000000000100
0000000000000111
0000000000001000
0000000000001011
0000000000001110
0000000000010000
0000000000010011
0000000000010100
0000000000010111
0000000000011000
0000000000011001
0000000000011010
0000000000011011
0000000000011101
0000000000011110
0000000000100010
0000000000000000
0000000000000010
0000000000000110
0000000000001000
0000000000001010
0000000000001101
0000000000001110
0000000000001111
0000000000010001
0000000000010101
0000000000010110
0000000000010111
0000000000011011
0000000000011110
0000000000100000
0000000000100001
0000000000100011
0000000000000000
0000000000000001
0000000000000011
0000000000000100
0000000000000110
0000000000001001
0000000000001010
0000000000001011
0000000000001101
0000000000001110
0000000000010010
0000000000010100
0000000000010111
0000000000011010
0000000000011110
0000000000100001
0000000000100011
0000000000000000
0000000000000001
0000000000000010
0000000000000100
0000000000000101
0000000000000110
0000000000001001
0000000000001010
0000000000001100
0000000000001110
0000000000001111
0000000000010001
0000000000010100
0000000000010110
0000000000010111
0000000000011001
0000000000011011
0000000000000000
0000000000000010
0000000000000101
0000000000000110
0000000000001001
0000000000001011
0000000000001100
0000000000001101
0000000000001110
0000000000010000
0000000000010010
0000000000010011
0000000000010110
0000000000010111
0000000000011010
0000000000011011
0000000000011110
0000000000000000
0000000000000010
0000000000000100
0000000000000111
0000000000001001
0000000000001100
0000000000001110
0000000000010000
0000000000010100
0000000000010110
0000000000010111
0000000000011000
0000000000011011
0000000000011100
0000000000011111
0000000000100001
0000000000100101
0000000000000000
0000000000000011
0000000000000100
0000000000000101
0000000000000110
0000000000000111
0000000000001001
0000000000001010
0000000000001100
0000000000001101
0000000000001111
0000000000010000
0000000000010010
0000000000010011
0000000000010101
0000000000011000
0000000000011010
0000000000000000
0000000000000011
0000000000000101
0000000000000110
0000000000001001
0000000000001100
0000000000001110
0000000000010000
0000000000010100
0000000000011000
0000000000011010
0000000000011101
0000000000011111
0000000000100000
0000000000100001
0000000000100100
0000000000100101
0000000000000000
0000000000000100
0000000000000110
0000000000001000
0000000000001100
0000000000001110
0000000000010000
0000000000010001
0000000000010011
0000000000010101
0000000000010110
0000000000011000
0000000000011010
0000000000011100
0000000000011110
0000000000100001
0000000000100101
0000000000000000
0000000000000010
0000000000000101
0000000000001001
0000000000001010
0000000000001011
0000000000001101
0000000000001110
0000000000010000
0000000000010001
0000000000010010
0000000000010011
0000000000010111
0000000000011001
0000000000011010
0000000000011100
0000000000011110
0000000000000000
0000000000000001
0000000000000011
0000000000000101
0000000000001000
0000000000001001
0000000000001010
0000000000001100
0000000000001110
0000000000001111
0000000000010001
0000000000010010
0000000000010011
0000000000010110
0000000000011010
0000000000011100
0000000000011110
0000000000000000
0000000000000010
0000000000000100
0000000000000110
0000000000000111
0000000000001001
0000000000001010
0000000000001011
0000000000001101
0000000000001110
0000000000010000
0000000000010010
0000000000010100
0000000000010101
0000000000010111
0000000000011001
0000000000011100
0000000000000000
0000000000000010
0000000000000101
0000000000001000
0000000000001001
0000000000001011
0000000000001101
0000000000001111
0000000000010000
0000000000010001
0000000000010011
0000000000010110
0000000000011000
0000000000011011
0000000000011100
0000000000011101
0000000000011110
0000000000000000
0000000000000010
0000000000000110
0000000000001001
0000000000001011
0000000000001100
0000000000001110
0000000000001111
0000000000010001
0000000000010011
0000000000010100
0000000000010111
0000000000011010
0000000000011101
0000000000011110
0000000000011111
0000000000100010
0000000000000000
0000000000000011
0000000000000101
0000000000000111
0000000000001010
0000000000001011
0000000000001111
0000000000010000
0000000000010001
0000000000010011
0000000000010101
0000000000011000
0000000000011010
0000000000011011
0000000000011100
0000000000011101
0000000000011111
0000000000000000
0000000000000010
0000000000000101
0000000000000110
0000000000001000
0000000000001010
0000000000001110
0000000000010000
0000000000010010
0000000000010100
0000000000010111
0000000000011001
0000000000011100
0000000000011110
0000000000100000
0000000000100010
0000000000100011
0000000000000000
0000000000000011
0000000000000100
0000000000000110
0000000000000111
0000000000001011
0000000000001100
0000000000001101
0000000000001111
0000000000010000
0000000000010001
0000000000010011
0000000000010110
0000000000010111
0000000000011000
0000000000011001
0000000000011010
0000000000000000
0000000000000011
0000000000000101
0000000000000110
0000000000001001
0000000000001010
0000000000001101
0000000000001110
0000000000010001
0000000000010100
0000000000010101
0000000000010111
0000000000011001
0000000000011011
0000000000011100
0000000000011101
0000000000100000
0000000000000000
0000000000000100
0000000000000110
0000000000001000
0000000000001011
0000000000001110
0000000000010001
0000000000010010
0000000000010011
0000000000010100
0000000000010101
0000000000010110
0000000000011001
0000000000011100
0000000000011101
0000000000100000
0000000000100011
0000000000000000
0000000000000011
0000000000000101
0000000000000110
0000000000000111
0000000000001000
0000000000001001
0000000000001011
0000000000001110
0000000000010000
0000000000010001
0000000000010010
0000000000010011
0000000000010110
0000000000010111
0000000000011000
0000000000011010
0000000000000000
0000000000000011
0000000000000101
0000000000000110
0000000000001000
0000000000001001
0000000000001011
0000000000001100
0000000000001111
0000000000010000
0000000000010011
0000000000010101
0000000000010111
0000000000011000
0000000000011001
0000000000011011
0000000000011101
0000000000000000
0000000000000010
0000000000000011
0000000000000101
0000000000001000
0000000000001011
0000000000001101
0000000000001110
0000000000010001
0000000000010100
0000000000010111
0000000000011001
0000000000011011
0000000000011100
0000000000011111
0000000000100000
0000000000100010
0000000000000000
0000000000000001
0000000000000010
0000000000000011
0000000000000101
0000000000001000
0000000000001001
0000000000001010
0000000000001101
0000000000001111
0000000000010001
0000000000010010
0000000000010101
0000000000011000
0000000000011001
0000000000011011
0000000000011101
0000000000000000
0000000000000001
0000000000000011
0000000000000101
0000000000000110
0000000000001000
0000000000001001
0000000000001011
0000000000001100
0000000000001101
0000000000001110
0000000000001111
0000000000010000
0000000000010001
0000000000010011
0000000000010100
0000000000010101
0000000000000000
0000000000000001
0000000000000011
0000000000000100
0000000000000101
0000000000000111
0000000000001001
0000000000001010
0000000000001011
0000000000001101
0000000000001111
0000000000010001
0000000000010011
0000000000010101
0000000000011000
0000000000011010
0000000000011101
0000000000000000
0000000000000001
0000000000000100
0000000000000111
0000000000001010
0000000000001011
0000000000001101
0000000000001110
0000000000010000
0000000000010001
0000000000010010
0000000000010100
0000000000010111
0000000000011001
0000000000011010
0000000000011011
0000000000011101
0000000000000000
0000000000000001
0000000000000010
0000000000000011
0000000000000100
0000000000000111
0000000000001000
0000000000001001
0000000000001010
0000000000001100
0000000000001101
0000000000001110
0000000000010000
0000000000010001
0000000000010010
0000000000010011
0000000000010110
0000000000000000
0000000000000011
0000000000000100
0000000000000101
0000000000001000
0000000000001011
0000000000001110
0000000000010001
0000000000010010
0000000000010100
0000000000010101
0000000000010111
0000000000011010
0000000000011100
0000000000011101
0000000000100000
0000000000100100
0000000000000000
0000000000000001
0000000000000011
0000000000000101
0000000000001000
0000000000001001
0000000000001010
0000000000001100
0000000000001101
0000000000001110
0000000000001111
0000000000010000
0000000000010010
0000000000010110
0000000000010111
0000000000011000
0000000000011011
0000000000000000
0000000000000100
0000000000000110
0000000000001000
0000000000001011
0000000000001101
0000000000010000
0000000000010010
0000000000010110
0000000000011001
0000000000011011
0000000000011110
0000000000100001
0000000000100100
0000000000100111
0000000000101010
0000000000101100
0000000000000000
0000000000000010
0000000000000100
0000000000000110
0000000000001000
0000000000001001
0000000000001010
0000000000001100
0000000000001110
0000000000001111
0000000000010000
0000000000010011
0000000000010110
0000000000010111
0000000000011000
0000000000011001
0000000000011100
0000000000000000
0000000000000001
0000000000000010
0000000000000011
0000000000000100
0000000000000101
0000000000000110
0000000000001000
0000000000001001
0000000000001101
0000000000001110
0000000000001111
0000000000010000
0000000000010011
0000000000010110
0000000000010111
0000000000011000
0000000000000000
0000000000000001
0000000000000010
0000000000000011
0000000000000101
0000000000000111
0000000000001000
0000000000001001
0000000000001010
0000000000001101
0000000000001110
0000000000010001
0000000000010011
0000000000010101
0000000000010110
0000000000010111
0000000000011011
0000000000000000
0000000000000001
0000000000000010
0000000000000011
0000000000000101
0000000000000111
0000000000001001
0000000000001100
0000000000001111
0000000000010001
0000000000010010
0000000000010100
0000000000010111
0000000000011001
0000000000011011
0000000000011100
0000000000011110
0000000000000000
0000000000000010
0000000000000100
0000000000000111
0000000000001001
0000000000001011
0000000000001100
0000000000001101
0000000000001110
0000000000010000
0000000000010001
0000000000010011
0000000000010100
0000000000011000
0000000000011100
0000000000011101
0000000000011111
0000000000000000
0000000000000001
0000000000000010
0000000000000011
0000000000000100
0000000000000101
0000000000001000
0000000000001001
0000000000001011
0000000000001100
0000000000001110
0000000000010001
0000000000010010
0000000000010100
0000000000010110
0000000000011000
0000000000011100
0000000000000000
0000000000000001
0000000000000010
0000000000000100
0000000000000101
0000000000000110
0000000000001000
0000000000001001
0000000000001011
0000000000001100
0000000000001101
0000000000001110
0000000000001111
0000000000010001
0000000000010010
0000000000010100
0000000000010111
0000000000000000
0000000000000010
0000000000000101
0000000000000111
0000000000001001
0000000000001100
0000000000001101
0000000000001111
0000000000010010
0000000000010101
0000000000011000
0000000000011011
0000000000011101
0000000000100000
0000000000100011
0000000000100100
0000000000100110
0000000000000000
0000000000000010
0000000000000100
0000000000000110
0000000000000111
0000000000001000
0000000000001010
0000000000001011
0000000000001101
0000000000001110
0000000000010000
0000000000010011
0000000000010101
0000000000010111
0000000000011001
0000000000011011
0000000000011101
0000000000000000
0000000000000011
0000000000000110
0000000000000111
0000000000001000
0000000000001010
0000000000001011
0000000000001100
0000000000001111
0000000000010010
0000000000010011
0000000000010100
0000000000010111
0000000000011000
0000000000011001
0000000000011010
0000000000011011
0000000000000000
0000000000000001
0000000000000101
0000000000000111
0000000000001000
0000000000001011
0000000000001100
0000000000001110
0000000000010001
0000000000010011
0000000000010101
0000000000010111
0000000000011001
0000000000011010
0000000000011100
0000000000011101
0000000000011111
0000000000000000
0000000000000001
0000000000000010
0000000000000100
0000000000000110
0000000000000111
0000000000001000
0000000000001001
0000000000001010
0000000000001101
0000000000001111
0000000000010001
0000000000010011
0000000000010110
0000000000011000
0000000000011001
0000000000011100
0000000000000000
0000000000000010
0000000000000011
0000000000000101
0000000000001000
0000000000001001
0000000000001010
0000000000001100
0000000000001111
0000000000010001
0000000000010100
0000000000010110
0000000000011000
0000000000011010
0000000000011100
0000000000011110
0000000000100000
0000000000000000
0000000000000001
0000000000000010
0000000000000100
0000000000000111
0000000000001010
0000000000001101
0000000000010000
0000000000010001
0000000000010011
0000000000010100
0000000000010110
0000000000011000
0000000000011011
0000000000011100
0000000000011101
0000000000100000
0000000000000000
0000000000000010
0000000000000011
0000000000000101
0000000000000111
0000000000001010
0000000000001101
0000000000010000
0000000000010010
0000000000010100
0000000000010110
0000000000011010
0000000000011110
0000000000011111
0000000000100011
0000000000100110
0000000000101000
0000000000000000
0000000000000011
0000000000000100
0000000000000110
0000000000000111
0000000000001010
0000000000001011
0000000000001100
0000000000001110
0000000000010001
0000000000010011
0000000000010100
0000000000010111
0000000000011000
0000000000011010
0000000000011100
0000000000011110
0000000000000000
0000000000000001
0000000000000011
0000000000000101
0000000000001000
0000000000001010
0000000000001011
0000000000001100
0000000000001101
0000000000001111
0000000000010000
0000000000010010
0000000000010101
0000000000011001
0000000000011010
0000000000011101
0000000000011111
0000000000000000
0000000000000011
0000000000000101
0000000000000110
0000000000001001
0000000000001011
0000000000001100
0000000000001110
0000000000010000
0000000000010001
0000000000010010
0000000000010011
0000000000010101
0000000000010110
0000000000011000
0000000000011010
0000000000011101
0000000000000000
0000000000000011
0000000000000101
0000000000000111
0000000000001010
0000000000001101
0000000000001111
0000000000010000
0000000000010010
0000000000010011
0000000000010100
0000000000010111
0000000000011000
0000000000011010
0000000000011100
0000000000011101
0000000000011111
0000000000000000
0000000000000010
0000000000000100
0000000000000111
0000000000001011
0000000000001101
0000000000010000
0000000000010001
0000000000010011
0000000000010101
0000000000011000
0000000000011010
0000000000011011
0000000000011101
0000000000011111
0000000000100010
0000000000100011
0000000000000000
0000000000000010
0000000000000101
0000000000000111
0000000000001001
0000000000001010
0000000000001100
0000000000001110
0000000000010001
0000000000010011
0000000000010110
0000000000011001
0000000000011011
0000000000011110
0000000000011111
0000000000100001
0000000000100010
0000000000000000
0000000000000010
0000000000000100
0000000000000110
0000000000001000
0000000000001011
0000000000001110
0000000000010000
0000000000010010
0000000000010101
0000000000010111
0000000000011000
0000000000011001
0000000000011011
0000000000011111
0000000000100001
0000000000100010
0000000000000000
0000000000000001
0000000000000010
0000000000000100
0000000000000101
0000000000000110
0000000000001000
0000000000001010
0000000000001100
0000000000001110
0000000000010000
0000000000010100
0000000000010110
0000000000011001
0000000000011100
0000000000011101
0000000000011110
0000000000000000
0000000000000011
0000000000000101
0000000000000110
0000000000000111
0000000000001001
0000000000001011
0000000000001100
0000000000001111
0000000000010010
0000000000010011
0000000000010100
0000000000010111
0000000000011010
0000000000011110
0000000000011111
0000000000100000
0000000000000000
0000000000000001
0000000000000011
0000000000000100
0000000000000110
0000000000001000
0000000000001010
0000000000001011
0000000000001101
0000000000001110
0000000000010001
0000000000010011
0000000000010100
0000000000010101
0000000000011000
0000000000011010
0000000000011101
0000000000000000
0000000000000100
0000000000001000
0000000000001100
0000000000001111
0000000000010010
0000000000010101
0000000000010111
0000000000011000
0000000000011011
0000000000011110
0000000000011111
0000000000100000
0000000000100010
0000000000100100
0000000000100101
0000000000100110
0000000000000000
0000000000000011
0000000000000110
0000000000000111
0000000000001001
0000000000001011
0000000000001101
0000000000001110
0000000000001111
0000000000010000
0000000000010001
0000000000010010
0000000000010011
0000000000010101
0000000000010110
0000000000011000
0000000000011010
0000000000000000
0000000000000011
0000000000000101
0000000000000111
0000000000001000
0000000000001001
0000000000001011
0000000000001100
0000000000001101
0000000000001110
0000000000010001
0000000000010011
0000000000010101
0000000000011000
0000000000011001
0000000000011011
0000000000011111
0000000000000000
0000000000000001
0000000000000011
0000000000000101
0000000000001001
0000000000001011
0000000000001100
0000000000001110
0000000000010000
0000000000010011
0000000000010101
0000000000010110
0000000000010111
0000000000011001
0000000000011010
0000000000011101
0000000000011111
0000000000000000
0000000000000011
0000000000000110
0000000000001001
0000000000001101
0000000000001111
0000000000010010
0000000000010101
0000000000011001
0000000000011100
0000000000011111
0000000000100010
0000000000100101
0000000000101000
0000000000101100
0000000000101110
0000000000110010
0000000000000000
0000000000000100
0000000000000101
0000000000001000
0000000000001011
0000000000001101
0000000000010000
0000000000010011
0000000000010101
0000000000010111
0000000000011001
0000000000011100
0000000000011110
0000000000100000
0000000000100001
0000000000100011
0000000000100110
0000000000000000
0000000000000010
0000000000000100
0000000000000111
0000000000001001
0000000000001100
0000000000001101
0000000000010001
0000000000010010
0000000000010011
0000000000010100
0000000000010110
0000000000011001
0000000000011011
0000000000011101
0000000000011111
0000000000100010
0000000000000000
0000000000000010
0000000000000101
0000000000000111
0000000000001000
0000000000001100
0000000000001111
0000000000010000
0000000000010001
0000000000010100
0000000000010101
0000000000010111
0000000000011001
0000000000011100
0000000000011110
0000000000100001
0000000000100101
0000000000000000
0000000000000011
0000000000000110
0000000000001001
0000000000001100
0000000000001110
0000000000010000
0000000000010010
0000000000010011
0000000000010101
0000000000010111
0000000000011000
0000000000011010
0000000000011101
0000000000011110
0000000000011111
0000000000100000
0000000000000000
0000000000000001
0000000000000100
0000000000000110
0000000000000111
0000000000001001
0000000000001010
0000000000001100
0000000000001101
0000000000001111
0000000000010000
0000000000010001
0000000000010011
0000000000010111
0000000000011000
0000000000011010
0000000000011101
0000000000000000
0000000000000010
0000000000000101
0000000000000111
0000000000001010
0000000000001100
0000000000001101
0000000000001110
0000000000010001
0000000000010101
0000000000010111
0000000000011000
0000000000011001
0000000000011100
0000000000011110
0000000000100000
0000000000100001
0000000000000000
0000000000000001
0000000000000011
0000000000000101
0000000000000110
0000000000001000
0000000000001001
0000000000001010
0000000000001100
0000000000001101
0000000000001110
0000000000001111
0000000000010001
0000000000010011
0000000000010110
0000000000010111
0000000000011000
0000000000000000
0000000000000010
0000000000000101
0000000000001001
0000000000001011
0000000000001101
0000000000010001
0000000000010101
0000000000010110
0000000000011000
0000000000011011
0000000000011100
0000000000011101
0000000000011111
0000000000100001
0000000000100011
0000000000100101
0000000000000000
0000000000000001
0000000000000100
0000000000000101
0000000000001000
0000000000001100
0000000000010000
0000000000010001
0000000000010010
0000000000010100
0000000000010110
0000000000010111
0000000000011000
0000000000011001
0000000000011010
0000000000011100
0000000000011110
0000000000000000
0000000000000010
0000000000000110
0000000000000111
0000000000001000
0000000000001100
0000000000001111
0000000000010001
0000000000010011
0000000000010100
0000000000010101
0000000000010111
0000000000011001
0000000000011101
0000000000011111
0000000000100000
0000000000100010
0000000000000000
0000000000000100
0000000000000111
0000000000001010
0000000000001100
0000000000010000
0000000000010001
0000000000010011
0000000000010100
0000000000010101
0000000000010111
0000000000011000
0000000000011001
0000000000011010
0000000000011101
0000000000011111
0000000000100000
0000000000000000
0000000000000010
0000000000000100
0000000000000110
0000000000001000
0000000000001011
0000000000001100
0000000000001101
0000000000001110
0000000000010000
0000000000010011
0000000000010100
0000000000010101
0000000000010110
0000000000010111
0000000000011000
0000000000011001
0000000000000000
0000000000000010
0000000000000110
0000000000001001
0000000000001100
0000000000001111
0000000000010001
0000000000010010
0000000000010100
0000000000010101
0000000000011000
0000000000011011
0000000000011110
0000000000100001
0000000000100100
0000000000100110
0000000000101001
0000000000000000
0000000000000011
0000000000000101
0000000000000111
0000000000001010
0000000000001101
0000000000001111
0000000000010000
0000000000010001
0000000000010100
0000000000010101
0000000000010110
0000000000010111
0000000000011001
0000000000011011
0000000000011101
0000000000011111
0000000000000000
0000000000000011
0000000000000110
0000000000001001
0000000000001101
0000000000001111
0000000000010000
0000000000010001
0000000000010011
0000000000010101
0000000000011000
0000000000011010
0000000000011100
0000000000011101
0000000000011111
0000000000100000
0000000000100001
0000000000000000
0000000000000001
0000000000000010
0000000000000100
0000000000000110
0000000000000111
0000000000001011
0000000000001101
0000000000001111
0000000000010010
0000000000010100
0000000000010101
0000000000010110
0000000000010111
0000000000011000
0000000000011010
0000000000011100
0000000000000000
0000000000000001
0000000000000010
0000000000000100
0000000000000110
0000000000001000
0000000000001010
0000000000001011
0000000000001101
0000000000001110
0000000000001111
0000000000010010
0000000000010011
0000000000010100
0000000000010110
0000000000011000
0000000000011001
0000000000000000
0000000000000011
0000000000000100
0000000000000110
0000000000001010
0000000000001100
0000000000001111
0000000000010001
0000000000010010
0000000000010100
0000000000010110
0000000000010111
0000000000011001
0000000000011011
0000000000011111
0000000000100001
0000000000100100
0000000000000000
0000000000000010
0000000000000100
0000000000000110
0000000000001010
0000000000001011
0000000000001100
0000000000001110
0000000000010001
0000000000010100
0000000000010101
0000000000010111
0000000000011000
0000000000011011
0000000000011100
0000000000011111
0000000000100010
0000000000000000
0000000000000010
0000000000000101
0000000000000111
0000000000001001
0000000000001010
0000000000001011
0000000000001100
0000000000001111
0000000000010010
0000000000010011
0000000000010100
0000000000010111
0000000000011010
0000000000011011
0000000000011111
0000000000100010
0000000000000000
0000000000000010
0000000000000011
0000000000000100
0000000000001000
0000000000001011
0000000000001101
0000000000001111
0000000000010001
0000000000010100
0000000000010111
0000000000011001
0000000000011011
0000000000011101
0000000000011111
0000000000100000
0000000000100100
0000000000000000
0000000000000001
0000000000000010
0000000000000011
0000000000000101
0000000000000111
0000000000001001
0000000000001011
0000000000001100
0000000000001111
0000000000010000
0000000000010010
0000000000010011
0000000000010101
0000000000010110
0000000000010111
0000000000011011
0000000000000000
0000000000000010
0000000000000100
0000000000000110
0000000000001000
0000000000001011
0000000000001100
0000000000001101
0000000000001110
0000000000010001
0000000000010100
0000000000010101
0000000000011000
0000000000011010
0000000000011100
0000000000011110
0000000000100000
0000000000000000
0000000000000010
0000000000000011
0000000000000100
0000000000000110
0000000000000111
0000000000001001
0000000000001010
0000000000001011
0000000000001111
0000000000010001
0000000000010010
0000000000010100
0000000000010101
0000000000011000
0000000000011001
0000000000011100
0000000000000000
0000000000000010
0000000000000011
0000000000000110
0000000000001000
0000000000001001
0000000000001011
0000000000001110
0000000000001111
0000000000010000
0000000000010010
0000000000010100
0000000000010101
0000000000010110
0000000000011000
0000000000011010
0000000000011101
0000000000000000
0000000000000011
0000000000000110
0000000000000111
0000000000001000
0000000000001010
0000000000001011
0000000000001101
0000000000001111
0000000000010001
0000000000010100
0000000000010101
0000000000010111
0000000000011000
0000000000011001
0000000000011010
0000000000011100
0000000000000000
0000000000000011
0000000000000110
0000000000000111
0000000000001010
0000000000001100
0000000000001101
0000000000001110
0000000000010001
0000000000010011
0000000000010101
0000000000011001
0000000000011011
0000000000011101
0000000000011111
0000000000100001
0000000000100011
0000000000000000
0000000000000010
0000000000000011
0000000000000100
0000000000000101
0000000000000111
0000000000001000
0000000000001010
0000000000001100
0000000000001110
0000000000010000
0000000000010010
0000000000010011
0000000000010101
0000000000010110
0000000000010111
0000000000011000
0000000000000000
0000000000000010
0000000000000011
0000000000000100
0000000000000111
0000000000001000
0000000000001001
0000000000001010
0000000000001101
0000000000001110
0000000000010000
0000000000010011
0000000000010101
0000000000010110
0000000000011000
0000000000011010
0000000000011100
0000000000000000
0000000000000011
0000000000000110
0000000000001010
0000000000001100
0000000000001101
0000000000010000
0000000000010100
0000000000010110
0000000000011000
0000000000011011
0000000000011110
0000000000100001
0000000000100101
0000000000100111
0000000000101010
0000000000101100
0000000000000000
0000000000000011
0000000000000101
0000000000000111
0000000000001000
0000000000001001
0000000000001011
0000000000001101
0000000000001110
0000000000001111
0000000000010010
0000000000010100
0000000000010111
0000000000011010
0000000000011100
0000000000011110
0000000000100001
0000000000000000
0000000000000001
0000000000000010
0000000000000100
0000000000000111
0000000000001000
0000000000001001
0000000000001011
0000000000001101
0000000000001111
0000000000010001
0000000000010011
0000000000010111
0000000000011010
0000000000011011
0000000000011110
0000000000011111
0000000000000000
0000000000000001
0000000000000010
0000000000000110
0000000000001000
0000000000001010
0000000000001100
0000000000001110
0000000000001111
0000000000010001
0000000000010010
0000000000010101
0000000000010110
0000000000011001
0000000000011011
0000000000011110
0000000000011111
0000000000000000
0000000000000001
0000000000000011
0000000000000100
0000000000000110
0000000000001000
0000000000001001
0000000000001010
0000000000001011
0000000000001101
0000000000010001
0000000000010100
0000000000010110
0000000000011010
0000000000011100
0000000000011110
0000000000100000
0000000000000000
0000000000000001
0000000000000011
0000000000000101
0000000000001000
0000000000001001
0000000000001010
0000000000001100
0000000000001111
0000000000010000
0000000000010011
0000000000010100
0000000000010111
0000000000011000
0000000000011010
0000000000011100
0000000000011111
0000000000000000
0000000000000011
0000000000000110
0000000000001010
0000000000001101
0000000000001111
0000000000010010
0000000000010100
0000000000010101
0000000000011000
0000000000011010
0000000000011101
0000000000011111
0000000000100000
0000000000100011
0000000000100100
0000000000101000
0000000000000000
0000000000000011
0000000000000100
0000000000000110
0000000000000111
0000000000001000
0000000000001001
0000000000001100
0000000000001111
0000000000010000
0000000000010011
0000000000010101
0000000000010110
0000000000010111
0000000000011010
0000000000011101
0000000000100000
0000000000000000
0000000000000010
0000000000000100
0000000000000110
0000000000001001
0000000000001011
0000000000001110
0000000000010000
0000000000010010
0000000000010100
0000000000010110
0000000000011001
0000000000011100
0000000000100000
0000000000100010
0000000000100101
0000000000100110
0000000000000000
0000000000000010
0000000000000100
0000000000000101
0000000000001001
0000000000001011
0000000000001101
0000000000001110
0000000000010001
0000000000010010
0000000000010011
0000000000010101
0000000000010110
0000000000011000
0000000000011001
0000000000011011
0000000000011110
0000000000000000
0000000000000010
0000000000000011
0000000000000100
0000000000000111
0000000000001000
0000000000001001
0000000000001011
0000000000001111
0000000000010001
0000000000010011
0000000000010100
0000000000010110
0000000000011010
0000000000011100
0000000000011101
0000000000011110
0000000000000000
0000000000000010
0000000000000011
0000000000000101
0000000000000110
0000000000001000
0000000000001001
0000000000001011
0000000000001101
0000000000001111
0000000000010010
0000000000010101
0000000000010111
0000000000011010
0000000000011100
0000000000011101
0000000000100001
0000000000000000
0000000000000001
0000000000000010
0000000000000011
0000000000000100
0000000000001000
0000000000001001
0000000000001010
0000000000001101
0000000000001111
0000000000010011
0000000000010101
0000000000011000
0000000000011001
0000000000011011
0000000000011110
0000000000100001
0000000000000000
0000000000000010
0000000000000101
0000000000000110
0000000000000111
0000000000001000
0000000000001010
0000000000001101
0000000000001110
0000000000010000
0000000000010010
0000000000010100
0000000000010111
0000000000011001
0000000000011011
0000000000011110
0000000000011111
0000000000000000
0000000000000001
0000000000000011
0000000000000101
0000000000000111
0000000000001000
0000000000001001
0000000000001010
0000000000001101
0000000000001111
0000000000010000
0000000000010010
0000000000010100
0000000000010111
0000000000011010
0000000000011100
0000000000011101
0000000000000000
0000000000000011
0000000000000101
0000000000000111
0000000000001000
0000000000001010
0000000000001101
0000000000001110
0000000000010010
0000000000010100
0000000000010101
0000000000010111
0000000000011011
0000000000011111
0000000000100001
0000000000100010
0000000000100101
0000000000000000
0000000000000010
0000000000000011
0000000000000100
0000000000000111
0000000000001011
0000000000001110
0000000000001111
0000000000010000
0000000000010011
0000000000010100
0000000000010101
0000000000011000
0000000000011100
0000000000011110
0000000000100010
0000000000100101
0000000000000000
0000000000000100
0000000000000101
0000000000000111
0000000000001000
0000000000001100
0000000000001101
0000000000001111
0000000000010000
0000000000010010
0000000000010101
0000000000010111
0000000000011001
0000000000011100
0000000000011101
0000000000011110
0000000000100000
0000000000000000
0000000000000010
0000000000000011
0000000000000101
0000000000000111
0000000000001001
0000000000001011
0000000000001110
0000000000001111
0000000000010001
0000000000010010
0000000000010100
0000000000010110
0000000000011000
0000000000011010
0000000000011100
0000000000011111
0000000000000000
0000000000000011
0000000000000101
0000000000000111
0000000000001001
0000000000001011
0000000000001101
0000000000010001
0000000000010011
0000000000010100
0000000000010101
0000000000010110
0000000000011000
0000000000011010
0000000000011011
0000000000011100
0000000000011110
0000000000000000
0000000000000011
0000000000000100
0000000000001000
0000000000001001
0000000000001100
0000000000001111
0000000000010000
0000000000010001
0000000000010011
0000000000010100
0000000000010110
0000000000010111
0000000000011000
0000000000011001
0000000000011100
0000000000011101
0000000000000000
0000000000000001
0000000000000100
0000000000000101
0000000000000110
0000000000000111
0000000000001001
0000000000001010
0000000000001100
0000000000001110
0000000000010000
0000000000010010
0000000000010011
0000000000010110
0000000000011010
0000000000011100
0000000000011101
0000000000000000
0000000000000100
0000000000000110
0000000000001000
0000000000001001
0000000000001010
0000000000001011
0000000000001100
0000000000001101
0000000000001111
0000000000010001
0000000000010011
0000000000010100
0000000000010111
0000000000011010
0000000000011101
0000000000011110
0000000000000000
0000000000000010
0000000000000100
0000000000000110
0000000000001001
0000000000001100
0000000000001110
0000000000010001
0000000000010010
0000000000010101
0000000000010110
0000000000011000
0000000000011001
0000000000011010
0000000000011101
0000000000100000
0000000000100010
0000000000000000
0000000000000010
0000000000000100
0000000000000110
0000000000000111
0000000000001001
0000000000001011
0000000000001101
0000000000001110
0000000000010001
0000000000010100
0000000000010110
0000000000010111
0000000000011001
0000000000011100
0000000000011101
0000000000011111
0000000000000000
0000000000000011
0000000000000100
0000000000000101
0000000000000111
0000000000001011
0000000000001100
0000000000001110
0000000000001111
0000000000010010
0000000000010011
0000000000010101
0000000000010110
0000000000011001
0000000000011011
0000000000011100
0000000000011101
0000000000000000
0000000000000010
0000000000000101
0000000000000110
0000000000000111
0000000000001001
0000000000001100
0000000000001110
0000000000001111
0000000000010010
0000000000010101
0000000000010110
0000000000011000
0000000000011011
0000000000011100
0000000000011110
0000000000011111
0000000000000000
0000000000000001
0000000000000100
0000000000000101
0000000000000110
0000000000001001
0000000000001011
0000000000001101
0000000000001111
0000000000010000
0000000000010001
0000000000010100
0000000000010101
0000000000010111
0000000000011011
0000000000011110
0000000000011111
0000000000000000
0000000000000001
0000000000000010
0000000000000100
0000000000000101
0000000000000111
0000000000001011
0000000000001100
0000000000001110
0000000000010001
0000000000010011
0000000000010100
0000000000010101
0000000000010111
0000000000011010
0000000000011101
0000000000011111
0000000000000000
0000000000000011
0000000000000100
0000000000000110
0000000000001000
0000000000001010
0000000000001011
0000000000001100
0000000000001110
0000000000010000
0000000000010001
0000000000010010
0000000000010011
0000000000010100
0000000000010111
0000000000011001
0000000000011011
0000000000000000
0000000000000011
0000000000000111
0000000000001011
0000000000001110
0000000000010000
0000000000010011
0000000000010101
0000000000011000
0000000000011010
0000000000011100
0000000000011111
0000000000100011
0000000000100100
0000000000100111
0000000000101010
0000000000101101
0000000000000000
0000000000000011
0000000000000101
0000000000000111
0000000000001010
0000000000001101
0000000000001110
0000000000010000
0000000000010001
0000000000010011
0000000000010110
0000000000010111
0000000000011001
0000000000011011
0000000000011110
0000000000100000
0000000000100010
0000000000000000
0000000000000010
0000000000000011
0000000000000100
0000000000000110
0000000000001001
0000000000001010
0000000000001100
0000000000001101
0000000000001110
0000000000010000
0000000000010001
0000000000010010
0000000000010100
0000000000010110
0000000000011000
0000000000011001
0000000000000000
0000000000000010
0000000000000011
0000000000000110
0000000000000111
0000000000001001
0000000000001011
0000000000001110
0000000000010000
0000000000010011
0000000000010101
0000000000011000
0000000000011010
0000000000011101
0000000000100000
0000000000100010
0000000000100100
0000000000000000
0000000000000010
0000000000000011
0000000000000101
0000000000000110
0000000000001001
0000000000001011
0000000000001101
0000000000001111
0000000000010001
0000000000010011
0000000000010101
0000000000010110
0000000000010111
0000000000011010
0000000000011011
0000000000011100
0000000000000000
0000000000000100
0000000000000101
0000000000001000
0000000000001010
0000000000001011
0000000000001100
0000000000001110
0000000000001111
0000000000010000
0000000000010001
0000000000010010
0000000000010011
0000000000010111
0000000000011011
0000000000011110
0000000000011111
0000000000000000
0000000000000011
0000000000000101
0000000000000110
0000000000001010
0000000000001011
0000000000001100
0000000000001110
0000000000001111
0000000000010010
0000000000010101
0000000000011001
0000000000011011
0000000000011111
0000000000100001
0000000000100100
0000000000100111
0000000000000000
0000000000000011
0000000000000100
0000000000000101
0000000000000110
0000000000001001
0000000000001010
0000000000001011
0000000000001101
0000000000001111
0000000000010000
0000000000010001
0000000000010010
0000000000010101
0000000000011000
0000000000011011
0000000000011101
0000000000000000
0000000000000011
0000000000000100
0000000000000111
0000000000001000
0000000000001100
0000000000001111
0000000000010001
0000000000010011
0000000000010101
0000000000010111
0000000000011001
0000000000011010
0000000000011101
0000000000100000
0000000000100010
0000000000100100
0000000000000000
0000000000000010
0000000000000100
0000000000000111
0000000000001001
0000000000001010
0000000000001101
0000000000001110
0000000000010000
0000000000010010
0000000000010101
0000000000011001
0000000000011100
0000000000011111
0000000000100001
0000000000100011
0000000000100110
0000000000000000
0000000000000011
0000000000000101
0000000000000111
0000000000001000
0000000000001001
0000000000001010
0000000000001101
0000000000001110
0000000000010001
0000000000010101
0000000000010111
0000000000011000
0000000000011010
0000000000011101
0000000000100000
0000000000100001
0000000000000000
0000000000000010
0000000000000100
0000000000000111
0000000000001001
0000000000001011
0000000000001100
0000000000001110
0000000000010000
0000000000010001
0000000000010100
0000000000010110
0000000000011000
0000000000011010
0000000000011101
0000000000011111
0000000000100001
0000000000000000
0000000000000010
0000000000000110
0000000000001000
0000000000001001
0000000000001011
0000000000001100
0000000000001101
0000000000010000
0000000000010010
0000000000010101
0000000000010111
0000000000011000
0000000000011001
0000000000011011
0000000000011100
0000000000011101
0000000000000000
0000000000000011
0000000000000100
0000000000000110
0000000000001010
0000000000001101
0000000000001111
0000000000010001
0000000000010100
0000000000010101
0000000000011001
0000000000011010
0000000000011100
0000000000011111
0000000000100010
0000000000100100
0000000000100101
0000000000000000
0000000000000010
0000000000000100
0000000000000101
0000000000000110
0000000000001000
0000000000001001
0000000000001101
0000000000001111
0000000000010000
0000000000010010
0000000000010101
0000000000011000
0000000000011001
0000000000011100
0000000000011110
0000000000100000
0000000000000000
0000000000000011
0000000000000101
0000000000001001
0000000000001011
0000000000001110
0000000000010001
0000000000010100
0000000000010110
0000000000011001
0000000000011011
0000000000011100
0000000000011111
0000000000100001
0000000000100011
0000000000100101
0000000000101000
0000000000000000
0000000000000001
0000000000000010
0000000000000110
0000000000001001
0000000000001011
0000000000001101
0000000000001111
0000000000010000
0000000000010011
0000000000010100
0000000000010111
0000000000011000
0000000000011010
0000000000011100
0000000000011110
0000000000100000
0000000000000000
0000000000000011
0000000000000101
0000000000000111
0000000000001000
0000000000001011
0000000000001101
0000000000010000
0000000000010011
0000000000010110
0000000000010111
0000000000011001
0000000000011011
0000000000011100
0000000000011110
0000000000011111
0000000000100011
0000000000000000
0000000000000010
0000000000000110
0000000000001001
0000000000001100
0000000000001110
0000000000001111
0000000000010001
0000000000010100
0000000000010110
0000000000010111
0000000000011000
0000000000011001
0000000000011010
0000000000011011
0000000000011101
0000000000011110
0000000000000000
0000000000000010
0000000000000110
0000000000001001
0000000000001011
0000000000001110
0000000000010010
0000000000010011
0000000000010100
0000000000010110
0000000000011001
0000000000011011
0000000000011101
0000000000011110
0000000000011111
0000000000100000
0000000000100011
0000000000000000
0000000000000001
0000000000000011
0000000000000110
0000000000001001
0000000000001010
0000000000001100
0000000000001101
0000000000001110
0000000000001111
0000000000010001
0000000000010100
0000000000010101
0000000000010111
0000000000011000
0000000000011001
0000000000011100
0000000000000000
0000000000000100
0000000000000110
0000000000001001
0000000000001100
0000000000010000
0000000000010010
0000000000010011
0000000000010101
0000000000010111
0000000000011011
0000000000011101
0000000000011111
0000000000100000
0000000000100001
0000000000100010
0000000000100100
0000000000000000
0000000000000001
0000000000000010
0000000000000011
0000000000000110
0000000000000111
0000000000001000
0000000000001001
0000000000001010
0000000000001100
0000000000001101
0000000000001110
0000000000010000
0000000000010010
0000000000010101
0000000000010111
0000000000011000
0000000000000000
0000000000000001
0000000000000011
0000000000000110
0000000000000111
0000000000001011
0000000000001101
0000000000001111
0000000000010000
0000000000010011
0000000000010100
0000000000010101
0000000000010111
0000000000011001
0000000000011010
0000000000011101
0000000000100000
0000000000000000
0000000000000001
0000000000000011
0000000000000100
0000000000000101
0000000000000111
0000000000001011
0000000000001111
0000000000010000
0000000000010010
0000000000010100
0000000000010101
0000000000010110
0000000000011000
0000000000011011
0000000000011111
0000000000100010
0000000000000000
0000000000000010
0000000000000100
0000000000000101
0000000000000111
0000000000001001
0000000000001011
0000000000001100
0000000000001101
0000000000001110
0000000000010000
0000000000010001
0000000000010010
0000000000010100
0000000000011000
0000000000011010
0000000000011100
0000000000000000
0000000000000010
0000000000000011
0000000000000111
0000000000001000
0000000000001001
0000000000001010
0000000000001011
0000000000001101
0000000000001111
0000000000010000
0000000000010011
0000000000010100
0000000000010110
0000000000011000
0000000000011011
0000000000011100
0000000000000000
0000000000000010
0000000000000101
0000000000001000
0000000000001100
0000000000001110
0000000000010001
0000000000010010
0000000000010011
0000000000010100
0000000000010110
0000000000010111
0000000000011000
0000000000011001
0000000000011010
0000000000011011
0000000000011111
0000000000000000
0000000000000010
0000000000000011
0000000000000111
0000000000001000
0000000000001011
0000000000001100
0000000000001101
0000000000010000
0000000000010011
0000000000010100
0000000000010111
0000000000011000
0000000000011011
0000000000011101
0000000000011111
0000000000100011
0000000000000000
0000000000000010
0000000000000011
0000000000000100
0000000000000111
0000000000001010
0000000000001100
0000000000001101
0000000000001110
0000000000010000
0000000000010001
0000000000010011
0000000000010110
0000000000011001
0000000000011010
0000000000011011
0000000000011100
0000000000000000
0000000000000010
0000000000000101
0000000000000110
0000000000001000
0000000000001100
0000000000001111
0000000000010001
0000000000010100
0000000000010110
0000000000011001
0000000000011011
0000000000011101
0000000000011111
0000000000100010
0000000000100101
0000000000101000
0000000000000000
0000000000000011
0000000000000100
0000000000000111
0000000000001010
0000000000001110
0000000000010000
0000000000010001
0000000000010010
0000000000010011
0000000000010110
0000000000011010
0000000000011101
0000000000011111
0000000000100001
0000000000100010
0000000000100011
0000000000000000
0000000000000001
0000000000000010
0000000000000100
0000000000000101
0000000000000111
0000000000001001
0000000000001100
0000000000001111
0000000000010000
0000000000010001
0000000000010010
0000000000010011
0000000000010110
0000000000010111
0000000000011010
0000000000011110
0000000000000000
0000000000000100
0000000000000101
0000000000000110
0000000000001001
0000000000001010
0000000000001011
0000000000001100
0000000000001110
0000000000010010
0000000000010011
0000000000010101
0000000000010111
0000000000011001
0000000000011100
0000000000011101
0000000000100000
0000000000000000
0000000000000001
0000000000000010
0000000000000100
0000000000000110
0000000000000111
0000000000001001
0000000000001100
0000000000001110
0000000000010001
0000000000010011
0000000000010101
0000000000010111
0000000000011000
0000000000011001
0000000000011010
0000000000011100
0000000000000000
0000000000000010
0000000000000011
0000000000000100
0000000000001000
0000000000001001
0000000000001010
0000000000001011
0000000000001101
0000000000001111
0000000000010000
0000000000010010
0000000000010100
0000000000010101
0000000000010111
0000000000011001
0000000000011011
0000000000000000
0000000000000010
0000000000000101
0000000000000111
0000000000001001
0000000000001011
0000000000001101
0000000000010000
0000000000010010
0000000000010101
0000000000010110
0000000000010111
0000000000011010
0000000000011011
0000000000011101
0000000000011111
0000000000100001
0000000000000000
0000000000000010
0000000000000101
0000000000000111
0000000000001011
0000000000001100
0000000000001101
0000000000001110
0000000000010000
0000000000010001
0000000000010011
0000000000010110
0000000000011010
0000000000011011
0000000000011110
0000000000100010
0000000000100100
0000000000000000
0000000000000010
0000000000000101
0000000000000110
0000000000001001
0000000000001011
0000000000001100
0000000000001111
0000000000010000
0000000000010011
0000000000010101
0000000000010110
0000000000011000
0000000000011010
0000000000011011
0000000000011101
0000000000100000
0000000000000000
0000000000000010
0000000000000101
0000000000001000
0000000000001010
0000000000001101
0000000000010000
0000000000010010
0000000000010100
0000000000010111
0000000000011000
0000000000011011
0000000000011100
0000000000011101
0000000000100000
0000000000100010
0000000000100100
0000000000000000
0000000000000010
0000000000000011
0000000000000100
0000000000000101
0000000000000111
0000000000001010
0000000000001100
0000000000001110
0000000000001111
0000000000010000
0000000000010010
0000000000010101
0000000000010111
0000000000011010
0000000000011011
0000000000011110
0000000000000000
0000000000000010
0000000000000100
0000000000000101
0000000000001001
0000000000001011
0000000000001100
0000000000001101
0000000000001110
0000000000010000
0000000000010010
0000000000010100
0000000000010111
0000000000011000
0000000000011010
0000000000011100
0000000000011110
0000000000000000
0000000000000010
0000000000000100
0000000000000101
0000000000000111
0000000000001010
0000000000001011
0000000000001101
0000000000010000
0000000000010010
0000000000010011
0000000000010110
0000000000011001
0000000000011010
0000000000011100
0000000000011101
0000000000100001
0000000000000000
0000000000000011
0000000000000110
0000000000001000
0000000000001011
0000000000001100
0000000000001110
0000000000010000
0000000000010011
0000000000010100
0000000000010110
0000000000011001
0000000000011100
0000000000011101
0000000000011110
0000000000011111
0000000000100001
0000000000000000
0000000000000011
0000000000000100
0000000000000101
0000000000001000
0000000000001011
0000000000001111
0000000000010000
0000000000010011
0000000000010100
0000000000010110
0000000000011010
0000000000011101
0000000000011111
0000000000100001
0000000000100101
0000000000101000
0000000000000000
0000000000000011
0000000000000101
0000000000001001
0000000000001010
0000000000001110
0000000000010001
0000000000010101
0000000000011000
0000000000011100
0000000000100000
0000000000100001
0000000000100011
0000000000100101
0000000000101000
0000000000101011
0000000000101110
0000000000000000
0000000000000001
0000000000000010
0000000000000101
0000000000001000
0000000000001011
0000000000001110
0000000000001111
0000000000010000
0000000000010010
0000000000010011
0000000000010101
0000000000011001
0000000000011101
0000000000100000
0000000000100001
0000000000100100
0000000000000000
0000000000000010
0000000000000011
0000000000000100
0000000000000110
0000000000001000
0000000000001001
0000000000001010
0000000000001101
0000000000001110
0000000000001111
0000000000010001
0000000000010100
0000000000010101
0000000000010111
0000000000011000
0000000000011100
0000000000000000
0000000000000011
0000000000000100
0000000000000110
0000000000001001
0000000000001011
0000000000001100
0000000000001111
0000000000010011
0000000000010101
0000000000011000
0000000000011010
0000000000011011
0000000000011101
0000000000011110
0000000000100000
0000000000100010
0000000000000000
0000000000000100
0000000000000110
0000000000001010
0000000000001110
0000000000001111
0000000000010001
0000000000010010
0000000000010100
0000000000010111
0000000000011001
0000000000011010
0000000000011100
0000000000011110
0000000000011111
0000000000100000
0000000000100011
0000000000000000
0000000000000001
0000000000000011
0000000000000110
0000000000001000
0000000000001010
0000000000001011
0000000000001100
0000000000010000
0000000000010001
0000000000010010
0000000000010100
0000000000010110
0000000000011000
0000000000011010
0000000000011100
0000000000011101
0000000000000000
0000000000000100
0000000000000110
0000000000001001
0000000000001011
0000000000001100
0000000000001101
0000000000001110
0000000000001111
0000000000010000
0000000000010001
0000000000010010
0000000000010101
0000000000010111
0000000000011001
0000000000011010
0000000000011011
0000000000000000
0000000000000010
0000000000000011
0000000000000100
0000000000000111
0000000000001000
0000000000001001
0000000000001010
0000000000001101
0000000000001111
0000000000010001
0000000000010101
0000000000010110
0000000000011000
0000000000011010
0000000000011101
0000000000011111
0000000000000000
0000000000000011
0000000000000101
0000000000000110
0000000000001001
0000000000001011
0000000000001100
0000000000001110
0000000000010001
0000000000010100
0000000000010101
0000000000010110
0000000000011000
0000000000011001
0000000000011010
0000000000011011
0000000000011110
0000000000000000
0000000000000010
0000000000000100
0000000000000111
0000000000001000
0000000000001010
0000000000001011
0000000000001101
0000000000001111
0000000000010001
0000000000010010
0000000000010011
0000000000010100
0000000000010110
0000000000011000
0000000000011011
0000000000011110
0000000000000000
0000000000000011
0000000000000100
0000000000000110
0000000000000111
0000000000001000
0000000000001010
0000000000001100
0000000000001110
0000000000001111
0000000000010001
0000000000010010
0000000000010100
0000000000010101
0000000000010110
0000000000011000
0000000000011011
0000000000000000
0000000000000011
0000000000000110
0000000000001010
0000000000001101
0000000000001111
0000000000010000
0000000000010011
0000000000010110
0000000000010111
0000000000011000
0000000000011001
0000000000011011
0000000000011100
0000000000011101
0000000000100001
0000000000100011
0000000000000000
0000000000000001
0000000000000010
0000000000000100
0000000000000101
0000000000000111
0000000000001001
0000000000001011
0000000000001110
0000000000001111
0000000000010000
0000000000010001
0000000000010101
0000000000010110
0000000000011000
0000000000011011
0000000000011101
0000000000000000
0000000000000010
0000000000000101
0000000000001000
0000000000001100
0000000000001111
0000000000010000
0000000000010001
0000000000010100
0000000000010110
0000000000011000
0000000000011001
0000000000011100
0000000000011111
0000000000100000
0000000000100010
0000000000100110
0000000000000000
0000000000000001
0000000000000011
0000000000000101
0000000000001001
0000000000001011
0000000000001100
0000000000001101
0000000000010000
0000000000010011
0000000000010100
0000000000010110
0000000000011010
0000000000011011
0000000000011100
0000000000011101
0000000000011110
0000000000000000
0000000000000011
0000000000000110
0000000000001000
0000000000001011
0000000000001100
0000000000001111
0000000000010010
0000000000010101
0000000000011000
0000000000011010
0000000000011100
0000000000011110
0000000000100001
0000000000100101
0000000000100111
0000000000101010
0000000000000000
0000000000000010
0000000000000011
0000000000000100
0000000000000110
0000000000001000
0000000000001001
0000000000001010
0000000000001011
0000000000001100
0000000000001101
0000000000001110
0000000000001111
0000000000010000
0000000000010010
0000000000010011
0000000000010100
0000000000000000
0000000000000001
0000000000000010
0000000000000101
0000000000000111
0000000000001010
0000000000001011
0000000000001100
0000000000001111
0000000000010001
0000000000010010
0000000000010100
0000000000010110
0000000000010111
0000000000011000
0000000000011001
0000000000011011
0000000000000000
0000000000000001
0000000000000010
0000000000000110
0000000000001010
0000000000001101
0000000000001111
0000000000010000
0000000000010010
0000000000010110
0000000000011000
0000000000011001
0000000000011101
0000000000011111
0000000000100000
0000000000100010
0000000000100011
0000000000000000
0000000000000010
0000000000000100
0000000000000110
0000000000000111
0000000000001010
0000000000001011
0000000000001100
0000000000001111
0000000000010010
0000000000010100
0000000000010111
0000000000011000
0000000000011001
0000000000011011
0000000000011100
0000000000011111
0000000000000000
0000000000000010
0000000000000011
0000000000000100
0000000000000111
0000000000001000
0000000000001001
0000000000001010
0000000000001101
0000000000001111
0000000000010000
0000000000010001
0000000000010010
0000000000010011
0000000000010100
0000000000010110
0000000000011000
0000000000000000
0000000000000001
0000000000000010
0000000000000100
0000000000000101
0000000000000110
0000000000001000
0000000000001001
0000000000001010
0000000000001100
0000000000001110
0000000000001111
0000000000010000
0000000000010010
0000000000010101
0000000000010111
0000000000011001
0000000000000000
0000000000000010
0000000000000100
0000000000000110
0000000000000111
0000000000001000
0000000000001010
0000000000001110
0000000000010001
0000000000010011
0000000000010100
0000000000010110
0000000000011000
0000000000011010
0000000000011100
0000000000011110
0000000000100000
0000000000000000
0000000000000001
0000000000000011
0000000000000101
0000000000001001
0000000000001011
0000000000001100
0000000000001111
0000000000010001
0000000000010011
0000000000010101
0000000000011000
0000000000011011
0000000000011110
0000000000011111
0000000000100000
0000000000100010
0000000000000000
0000000000000011
0000000000000110
0000000000001001
0000000000001011
0000000000001100
0000000000001101
0000000000010000
0000000000010011
0000000000010101
0000000000010110
0000000000011000
0000000000011011
0000000000011110
0000000000011111
0000000000100000
0000000000100001
0000000000000000
0000000000000011
0000000000000100
0000000000000101
0000000000000110
0000000000001000
0000000000001001
0000000000001100
0000000000001110
0000000000001111
0000000000010000
0000000000010001
0000000000010101
0000000000010110
0000000000011001
0000000000011010
0000000000011100
0000000000000000
0000000000000010
0000000000000100
0000000000000110
0000000000000111
0000000000001001
0000000000001010
0000000000001011
0000000000001101
0000000000001111
0000000000010001
0000000000010101
0000000000011000
0000000000011010
0000000000011100
0000000000011101
0000000000011111
0000000000000000
0000000000000001
0000000000000011
0000000000000110
0000000000001000
0000000000001001
0000000000001010
0000000000001011
0000000000001100
0000000000001110
0000000000010000
0000000000010001
0000000000010100
0000000000010110
0000000000010111
0000000000011000
0000000000011010
0000000000000000
0000000000000011
0000000000000101
0000000000000110
0000000000000111
0000000000001000
0000000000001001
0000000000001100
0000000000001110
0000000000010001
0000000000010010
0000000000010101
0000000000010110
0000000000011000
0000000000011010
0000000000011101
0000000000011110
0000000000000000
0000000000000011
0000000000000100
0000000000000111
0000000000001010
0000000000001100
0000000000001101
0000000000010000
0000000000010010
0000000000010011
0000000000010110
0000000000010111
0000000000011001
0000000000011011
0000000000011100
0000000000011110
0000000000100000
0000000000000000
0000000000000010
0000000000000100
0000000000000101
0000000000000110
0000000000001001
0000000000001011
0000000000001111
0000000000010010
0000000000010101
0000000000010111
0000000000011001
0000000000011010
0000000000011101
0000000000011111
0000000000100001
0000000000100011
0000000000000000
0000000000000010
0000000000000011
0000000000000101
0000000000001000
0000000000001010
0000000000001011
0000000000001110
0000000000010000
0000000000010001
0000000000010010
0000000000010011
0000000000010101
0000000000010111
0000000000011000
0000000000011001
0000000000011011
0000000000000000
0000000000000010
0000000000000011
0000000000000100
0000000000000101
0000000000000111
0000000000001000
0000000000001010
0000000000001100
0000000000001110
0000000000010010
0000000000010100
0000000000010110
0000000000011000
0000000000011001
0000000000011010
0000000000011011
0000000000000000
0000000000000001
0000000000000100
0000000000000110
0000000000001001
0000000000001011
0000000000001101
0000000000010001
0000000000010010
0000000000010011
0000000000010100
0000000000010111
0000000000011000
0000000000011001
0000000000011011
0000000000011101
0000000000100000
0000000000000000
0000000000000001
0000000000000010
0000000000000011
0000000000000100
0000000000000110
0000000000000111
0000000000001001
0000000000001100
0000000000001101
0000000000001111
0000000000010001
0000000000010010
0000000000010011
0000000000010100
0000000000010110
0000000000010111
0000000000000000
0000000000000001
0000000000000010
0000000000000101
0000000000000111
0000000000001000
0000000000001011
0000000000001100
0000000000001110
0000000000010010
0000000000010100
0000000000010101
0000000000011000
0000000000011011
0000000000011100
0000000000011110
0000000000100000
0000000000000000
0000000000000010
0000000000000011
0000000000000101
0000000000001000
0000000000001001
0000000000001010
0000000000001101
0000000000010000
0000000000010010
0000000000010100
0000000000010101
0000000000010111
0000000000011001
0000000000011010
0000000000011011
0000000000011110
0000000000000000
0000000000000010
0000000000000011
0000000000000111
0000000000001001
0000000000001010
0000000000001100
0000000000001101
0000000000010001
0000000000010100
0000000000010101
0000000000010110
0000000000011000
0000000000011011
0000000000011110
0000000000011111
0000000000100000
0000000000000000
0000000000000010
0000000000000100
0000000000000101
0000000000000111
0000000000001000
0000000000001011
0000000000001101
0000000000001110
0000000000010000
0000000000010011
0000000000010100
0000000000010111
0000000000011000
0000000000011011
0000000000011101
0000000000100000
0000000000000000
0000000000000001
0000000000000010
0000000000000011
0000000000000110
0000000000000111
0000000000001000
0000000000001001
0000000000001011
0000000000001111
0000000000010000
0000000000010001
0000000000010011
0000000000010111
0000000000011000
0000000000011001
0000000000011011
0000000000000000
0000000000000100
0000000000000111
0000000000001001
0000000000001101
0000000000010000
0000000000010001
0000000000010011
0000000000010101
0000000000010111
0000000000011000
0000000000011001
0000000000011011
0000000000011110
0000000000100000
0000000000100010
0000000000100101
0000000000000000
0000000000000010
0000000000000100
0000000000000110
0000000000001010
0000000000001101
0000000000001110
0000000000010000
0000000000010010
0000000000010101
0000000000010110
0000000000011000
0000000000011010
0000000000011011
0000000000011100
0000000000011101
0000000000011111
0000000000000000
0000000000000011
0000000000000110
0000000000001001
0000000000001010
0000000000001101
0000000000001110
0000000000010000
0000000000010010
0000000000010011
0000000000010100
0000000000010101
0000000000010110
0000000000011001
0000000000011010
0000000000011011
0000000000011100
0000000000000000
0000000000000001
0000000000000011
0000000000000100
0000000000000110
0000000000000111
0000000000001000
0000000000001010
0000000000001011
0000000000001100
0000000000001111
0000000000010000
0000000000010100
0000000000010110
0000000000010111
0000000000011000
0000000000011001
0000000000000000
0000000000000001
0000000000000010
0000000000000011
0000000000000110
0000000000000111
0000000000001000
0000000000001010
0000000000001011
0000000000001100
0000000000001111
0000000000010000
0000000000010001
0000000000010100
0000000000010110
0000000000011000
0000000000011001
0000000000000000
0000000000000100
0000000000000111
0000000000001001
0000000000001100
0000000000001111
0000000000010010
0000000000010110
0000000000011001
0000000000011101
0000000000100000
0000000000100010
0000000000100100
0000000000100111
0000000000101010
0000000000101110
0000000000110001
0000000000000000
0000000000000010
0000000000000011
0000000000000100
0000000000000111
0000000000001000
0000000000001010
0000000000001110
0000000000010001
0000000000010011
0000000000010110
0000000000010111
0000000000011010
0000000000011011
0000000000011100
0000000000011110
0000000000100001
0000000000000000
0000000000000001
0000000000000011
0000000000000101
0000000000001001
0000000000001010
0000000000001100
0000000000001101
0000000000001110
0000000000010001
0000000000010101
0000000000010110
0000000000011001
0000000000011100
0000000000011110
0000000000011111
0000000000100000
0000000000000000
0000000000000001
0000000000000011
0000000000000110
0000000000001001
0000000000001011
0000000000001100
0000000000001110
0000000000010001
0000000000010100
0000000000010110
0000000000011000
0000000000011011
0000000000011110
0000000000100000
0000000000100011
0000000000100101
0000000000000000
0000000000000001
0000000000000011
0000000000000100
0000000000000111
0000000000001000
0000000000001001
0000000000001010
0000000000001011
0000000000001100
0000000000001101
0000000000001110
0000000000010000
0000000000010010
0000000000010100
0000000000010110
0000000000011000
0000000000000000
0000000000000001
0000000000000100
0000000000000101
0000000000000111
0000000000001000
0000000000001001
0000000000001011
0000000000001101
0000000000001110
0000000000010001
0000000000010010
0000000000010101
0000000000011001
0000000000011011
0000000000011101
0000000000100001
0000000000000000
0000000000000010
0000000000000101
0000000000001000
0000000000001010
0000000000001011
0000000000001100
0000000000001101
0000000000010001
0000000000010100
0000000000010110
0000000000010111
0000000000011001
0000000000011011
0000000000011101
0000000000011111
0000000000100010
0000000000000000
0000000000000100
0000000000000110
0000000000000111
0000000000001001
0000000000001010
0000000000001011
0000000000001100
0000000000001110
0000000000001111
0000000000010010
0000000000010011
0000000000010100
0000000000010111
0000000000011000
0000000000011011
0000000000011101
0000000000000000
0000000000000010
0000000000000101
0000000000000111
0000000000001001
0000000000001010
0000000000001101
0000000000001111
0000000000010001
0000000000010011
0000000000010100
0000000000010111
0000000000011010
0000000000011100
0000000000011110
0000000000011111
0000000000100000
0000000000000000
0000000000000010
0000000000000101
0000000000000110
0000000000001001
0000000000001010
0000000000001011
0000000000001101
0000000000010001
0000000000010100
0000000000010101
0000000000010110
0000000000010111
0000000000011001
0000000000011010
0000000000011011
0000000000011100
0000000000000000
0000000000000001
0000000000000010
0000000000000011
0000000000000111
0000000000001001
0000000000001010
0000000000001100
0000000000001110
0000000000010001
0000000000010100
0000000000010101
0000000000011000
0000000000011011
0000000000011100
0000000000011110
0000000000011111
0000000000000000
0000000000000010
0000000000000011
0000000000000110
0000000000001001
0000000000001011
0000000000001101
0000000000001110
0000000000010000
0000000000010011
0000000000010110
0000000000011000
0000000000011001
0000000000011011
0000000000011101
0000000000011110
0000000000100001
0000000000000000
0000000000000001
0000000000000010
0000000000000011
0000000000000101
0000000000000111
0000000000001000
0000000000001010
0000000000001011
0000000000001100
0000000000001110
0000000000001111
0000000000010011
0000000000010100
0000000000010101
0000000000010110
0000000000010111
0000000000000000
0000000000000010
0000000000000011
0000000000000100
0000000000001000
0000000000001001
0000000000001101
0000000000010000
0000000000010001
0000000000010010
0000000000010101
0000000000010110
0000000000011000
0000000000011011
0000000000011110
0000000000100000
0000000000100011
0000000000000000
0000000000000001
0000000000000010
0000000000000011
0000000000000110
0000000000001000
0000000000001010
0000000000001011
0000000000001110
0000000000010000
0000000000010011
0000000000010101
0000000000010111
0000000000011000
0000000000011010
0000000000011100
0000000000011110
0000000000000000
0000000000000001
0000000000000100
0000000000000110
0000000000000111
0000000000001010
0000000000001011
0000000000001100
0000000000001110
0000000000010001
0000000000010100
0000000000010110
0000000000010111
0000000000011000
0000000000011010
0000000000011011
0000000000011101
0000000000000000
0000000000000010
0000000000000101
0000000000001001
0000000000001011
0000000000001100
0000000000001111
0000000000010001
0000000000010010
0000000000010101
0000000000010110
0000000000011000
0000000000011001
0000000000011010
0000000000011100
0000000000011110
0000000000100000
0000000000000000
0000000000000010
0000000000000101
0000000000000111
0000000000001001
0000000000001100
0000000000001101
0000000000010000
0000000000010011
0000000000010100
0000000000010101
0000000000010111
0000000000011001
0000000000011011
0000000000011101
0000000000011110
0000000000011111
0000000000000000
0000000000000010
0000000000000110
0000000000000111
0000000000001010
0000000000001011
0000000000001111
0000000000010010
0000000000010100
0000000000010101
0000000000010110
0000000000011000
0000000000011010
0000000000011011
0000000000011110
0000000000011111
0000000000100000
0000000000000000
0000000000000010
0000000000000101
0000000000000110
0000000000000111
0000000000001001
0000000000001100
0000000000010000
0000000000010011
0000000000010100
0000000000010110
0000000000010111
0000000000011001
0000000000011010
0000000000011100
0000000000011101
0000000000011110
0000000000000000
0000000000000010
0000000000000011
0000000000000110
0000000000001010
0000000000001100
0000000000001110
0000000000001111
0000000000010000
0000000000010011
0000000000010101
0000000000010110
0000000000011000
0000000000011011
0000000000011110
0000000000100001
0000000000100100
0000000000000000
0000000000000010
0000000000000101
0000000000000111
0000000000001000
0000000000001011
0000000000001101
0000000000010000
0000000000010001
0000000000010010
0000000000010100
0000000000010110
0000000000010111
0000000000011001
0000000000011011
0000000000011110
0000000000100000
0000000000000000
0000000000000001
0000000000000101
0000000000000111
0000000000001000
0000000000001001
0000000000001010
0000000000001100
0000000000001101
0000000000010001
0000000000010011
0000000000010101
0000000000010110
0000000000011000
0000000000011010
0000000000011100
0000000000011110
0000000000000000
0000000000000011
0000000000000110
0000000000001000
0000000000001001
0000000000001010
0000000000001011
0000000000001110
0000000000010000
0000000000010001
0000000000010010
0000000000010011
0000000000010101
0000000000010111
0000000000011001
0000000000011011
0000000000011110
0000000000000000
0000000000000010
0000000000000100
0000000000000101
0000000000000110
0000000000001001
0000000000001100
0000000000001101
0000000000010000
0000000000010001
0000000000010010
0000000000010011
0000000000010110
0000000000011000
0000000000011011
0000000000011100
0000000000011101
0000000000000000
0000000000000001
0000000000000100
0000000000000101
0000000000000110
0000000000000111
0000000000001000
0000000000001001
0000000000001100
0000000000001110
0000000000001111
0000000000010001
0000000000010011
0000000000010101
0000000000010111
0000000000011010
0000000000011011
0000000000000000
0000000000000011
0000000000000111
0000000000001010
0000000000001011
0000000000001101
0000000000001110
0000000000001111
0000000000010001
0000000000010011
0000000000010100
0000000000010101
0000000000010110
0000000000010111
0000000000011001
0000000000011010
0000000000011100
0000000000000000
0000000000000011
0000000000000111
0000000000001010
0000000000001100
0000000000001101
0000000000001111
0000000000010001
0000000000010011
0000000000010110
0000000000010111
0000000000011000
0000000000011001
0000000000011011
0000000000011101
0000000000100000
0000000000100001
0000000000000000
0000000000000011
0000000000000100
0000000000000111
0000000000001011
0000000000001110
0000000000010001
0000000000010100
0000000000011000
0000000000011010
0000000000011011
0000000000011100
0000000000011110
0000000000011111
0000000000100001
0000000000100100
0000000000100101
0000000000000000
0000000000000010
0000000000000101
0000000000001001
0000000000001100
0000000000001111
0000000000010001
0000000000010010
0000000000010100
0000000000010110
0000000000011000
0000000000011011
0000000000011101
0000000000011110
0000000000011111
0000000000100000
0000000000100001
0000000000000000
0000000000000011
0000000000000100
0000000000001000
0000000000001100
0000000000001110
0000000000010010
0000000000010101
0000000000011000
0000000000011001
0000000000011011
0000000000011100
0000000000100000
0000000000100100
0000000000100110
0000000000101001
0000000000101011
0000000000000000
0000000000000010
0000000000000011
0000000000000101
0000000000000111
0000000000001000
0000000000001010
0000000000001101
0000000000001110
0000000000010001
0000000000010011
0000000000010100
0000000000010101
0000000000010111
0000000000011001
0000000000011100
0000000000011110
0000000000000000
0000000000000010
0000000000000011
0000000000000100
0000000000000101
0000000000000111
0000000000001000
0000000000001001
0000000000001100
0000000000001111
0000000000010000
0000000000010001
0000000000010100
0000000000010101
0000000000011000
0000000000011011
0000000000011101
0000000000000000
0000000000000010
0000000000000100
0000000000000111
0000000000001001
0000000000001011
0000000000001100
0000000000001101
0000000000001110
0000000000010000
0000000000010001
0000000000010010
0000000000010100
0000000000010101
0000000000011000
0000000000011001
0000000000011010
0000000000000000
0000000000000001
0000000000000011
0000000000000101
0000000000000110
0000000000000111
0000000000001001
0000000000001011
0000000000001110
0000000000001111
0000000000010001
0000000000010011
0000000000010110
0000000000011001
0000000000011010
0000000000011100
0000000000011101
0000000000000000
0000000000000010
0000000000000100
0000000000000101
0000000000000111
0000000000001000
0000000000001011
0000000000001110
0000000000001111
0000000000010001
0000000000010010
0000000000010011
0000000000010101
0000000000010110
0000000000011001
0000000000011010
0000000000011100
0000000000000000
0000000000000011
0000000000000110
0000000000001001
0000000000001101
0000000000010000
0000000000010100
0000000000010110
0000000000011000
0000000000011001
0000000000011011
0000000000011100
0000000000011101
0000000000100000
0000000000100011
0000000000100110
0000000000101000
0000000000000000
0000000000000001
0000000000000100
0000000000000111
0000000000001000
0000000000001001
0000000000001011
0000000000001101
0000000000001110
0000000000010000
0000000000010011
0000000000010101
0000000000010110
0000000000010111
0000000000011000
0000000000011100
0000000000011110
0000000000000000
0000000000000010
0000000000000100
0000000000000110
0000000000001001
0000000000001100
0000000000001111
0000000000010001
0000000000010100
0000000000010110
0000000000010111
0000000000011001
0000000000011100
0000000000011110
0000000000100001
0000000000100100
0000000000101000
0000000000000000
0000000000000010
0000000000000100
0000000000000101
0000000000000110
0000000000001000
0000000000001001
0000000000001011
0000000000001110
0000000000010000
0000000000010001
0000000000010010
0000000000010011
0000000000010100
0000000000010101
0000000000011000
0000000000011001
0000000000000000
0000000000000100
0000000000000111
0000000000001001
0000000000001011
0000000000001100
0000000000010000
0000000000010010
0000000000010110
0000000000011000
0000000000011001
0000000000011010
0000000000011011
0000000000011110
0000000000100010
0000000000100100
0000000000100101
0000000000000000
0000000000000011
0000000000000110
0000000000001000
0000000000001010
0000000000001011
0000000000001100
0000000000001111
0000000000010001
0000000000010100
0000000000010111
0000000000011000
0000000000011001
0000000000011100
0000000000011111
0000000000100001
0000000000100011
0000000000000000
0000000000000001
0000000000000100
0000000000000101
0000000000000110
0000000000000111
0000000000001001
0000000000001010
0000000000001011
0000000000001101
0000000000001111
0000000000010001
0000000000010011
0000000000010101
0000000000011000
0000000000011010
0000000000011011
0000000000000000
0000000000000010
0000000000000011
0000000000000100
0000000000000110
0000000000000111
0000000000001001
0000000000001011
0000000000001110
0000000000010000
